{
  "version": "1.0",
  "truncation": null,
  "padding": null,
  "added_tokens": [
    {
      "id": 0,
      "content": "<unk>",
      "single_word": false,
      "lstrip": false,
      "rstrip": false,
      "normalized": false,
      "special": true
    }
  ],
  "normalizer": {
    "type": "NFKC"
  },
  "pre_tokenizer": {
    "type": "Metaspace",
    "replacement": "▁",
    "add_prefix_space": true,
    "prepend_scheme": "always"
  },
  "post_processor": null,
  "decoder": {
    "type": "Metaspace",
    "replacement": "▁",
    "add_prefix_space": true,
    "prepend_scheme": "always"
  },
  "model": {
    "type": "BPE",
    "dropout": null,
    "unk_token": "<unk>",
    "continuing_subword_prefix": null,
    "end_of_word_suffix": null,
    "fuse_unk": false,
    "byte_fallback": false,
    "vocab": {
      "<unk>": 0,
      "\n": 1,
      "%": 2,
      "&": 3,
      "(": 4,
      ")": 5,
      "+": 6,
      ",": 7,
      "-": 8,
      ".": 9,
      "/": 10,
      "0": 11,
      "1": 12,
      "2": 13,
      "3": 14,
      "4": 15,
      "5": 16,
      "6": 17,
      "7": 18,
      "8": 19,
      "9": 20,
      ";": 21,
      "A": 22,
      "B": 23,
      "C": 24,
      "D": 25,
      "E": 26,
      "F": 27,
      "G": 28,
      "H": 29,
      "I": 30,
      "J": 31,
      "K": 32,
      "L": 33,
      "M": 34,
      "N": 35,
      "O": 36,
      "P": 37,
      "Q": 38,
      "R": 39,
      "S": 40,
      "T": 41,
      "U": 42,
      "V": 43,
      "W": 44,
      "X": 45,
      "Y": 46,
      "Z": 47,
      "[": 48,
      "]": 49,
      "a": 50,
      "b": 51,
      "c": 52,
      "d": 53,
      "e": 54,
      "f": 55,
      "g": 56,
      "h": 57,
      "i": 58,
      "j": 59,
      "k": 60,
      "l": 61,
      "m": 62,
      "n": 63,
      "o": 64,
      "p": 65,
      "r": 66,
      "s": 67,
      "t": 68,
      "u": 69,
      "v": 70,
      "w": 71,
      "x": 72,
      "y": 73,
      "z": 74,
      "▁": 75,
      "가": 76,
      "각": 77,
      "간": 78,
      "갈": 79,
      "감": 80,
      "강": 81,
      "같": 82,
      "개": 83,
      "객": 84,
      "갤": 85,
      "거": 86,
      "건": 87,
      "걸": 88,
      "검": 89,
      "게": 90,
      "겐": 91,
      "겨": 92,
      "격": 93,
      "견": 94,
      "결": 95,
      "겹": 96,
      "경": 97,
      "계": 98,
      "고": 99,
      "골": 100,
      "곰": 101,
      "공": 102,
      "과": 103,
      "관": 104,
      "광": 105,
      "교": 106,
      "구": 107,
      "국": 108,
      "군": 109,
      "굴": 110,
      "굿": 111,
      "규": 112,
      "귤": 113,
      "그": 114,
      "극": 115,
      "근": 116,
      "글": 117,
      "금": 118,
      "급": 119,
      "기": 120,
      "긴": 121,
      "길": 122,
      "김": 123,
      "깅": 124,
      "까": 125,
      "깍": 126,
      "깔": 127,
      "깨": 128,
      "꺼": 129,
      "께": 130,
      "꼭": 131,
      "꼴": 132,
      "꽃": 133,
      "꽈": 134,
      "꾸": 135,
      "꿀": 136,
      "끄": 137,
      "끈": 138,
      "끌": 139,
      "끼": 140,
      "낌": 141,
      "나": 142,
      "낚": 143,
      "난": 144,
      "날": 145,
      "남": 146,
      "납": 147,
      "낫": 148,
      "내": 149,
      "냅": 150,
      "냉": 151,
      "너": 152,
      "널": 153,
      "넓": 154,
      "넛": 155,
      "네": 156,
      "넥": 157,
      "넨": 158,
      "넬": 159,
      "넷": 160,
      "녀": 161,
      "년": 162,
      "노": 163,
      "녹": 164,
      "논": 165,
      "놀": 166,
      "높": 167,
      "누": 168,
      "눕": 169,
      "뉴": 170,
      "늄": 171,
      "느": 172,
      "는": 173,
      "능": 174,
      "늬": 175,
      "니": 176,
      "닉": 177,
      "닌": 178,
      "닐": 179,
      "님": 180,
      "닝": 181,
      "다": 182,
      "닥": 183,
      "단": 184,
      "달": 185,
      "담": 186,
      "당": 187,
      "대": 188,
      "댄": 189,
      "댑": 190,
      "더": 191,
      "덕": 192,
      "던": 193,
      "덤": 194,
      "덮": 195,
      "데": 196,
      "덴": 197,
      "델": 198,
      "도": 199,
      "돈": 200,
      "돌": 201,
      "동": 202,
      "돼": 203,
      "두": 204,
      "둘": 205,
      "뒤": 206,
      "뒷": 207,
      "듀": 208,
      "드": 209,
      "든": 210,
      "들": 211,
      "듬": 212,
      "등": 213,
      "디": 214,
      "딘": 215,
      "딜": 216,
      "딥": 217,
      "딩": 218,
      "따": 219,
      "떠": 220,
      "떼": 221,
      "똥": 222,
      "뜨": 223,
      "뜸": 224,
      "뜻": 225,
      "라": 226,
      "락": 227,
      "란": 228,
      "랄": 229,
      "람": 230,
      "랍": 231,
      "랑": 232,
      "래": 233,
      "랙": 234,
      "랜": 235,
      "램": 236,
      "랩": 237,
      "랭": 238,
      "략": 239,
      "량": 240,
      "러": 241,
      "럭": 242,
      "런": 243,
      "럴": 244,
      "럼": 245,
      "럽": 246,
      "렁": 247,
      "레": 248,
      "렉": 249,
      "렌": 250,
      "렙": 251,
      "렛": 252,
      "력": 253,
      "령": 254,
      "례": 255,
      "로": 256,
      "록": 257,
      "론": 258,
      "롤": 259,
      "롬": 260,
      "롭": 261,
      "롯": 262,
      "롱": 263,
      "료": 264,
      "룡": 265,
      "루": 266,
      "룩": 267,
      "룸": 268,
      "룹": 269,
      "류": 270,
      "륨": 271,
      "르": 272,
      "름": 273,
      "리": 274,
      "릭": 275,
      "린": 276,
      "릴": 277,
      "림": 278,
      "립": 279,
      "릿": 280,
      "링": 281,
      "마": 282,
      "막": 283,
      "만": 284,
      "많": 285,
      "말": 286,
      "맘": 287,
      "망": 288,
      "매": 289,
      "맥": 290,
      "맨": 291,
      "맵": 292,
      "머": 293,
      "먼": 294,
      "멀": 295,
      "멈": 296,
      "메": 297,
      "멕": 298,
      "멘": 299,
      "멜": 300,
      "면": 301,
      "명": 302,
      "모": 303,
      "목": 304,
      "몬": 305,
      "몰": 306,
      "몽": 307,
      "무": 308,
      "묶": 309,
      "문": 310,
      "물": 311,
      "뮤": 312,
      "므": 313,
      "미": 314,
      "믹": 315,
      "민": 316,
      "밀": 317,
      "밍": 318,
      "바": 319,
      "박": 320,
      "반": 321,
      "받": 322,
      "발": 323,
      "밤": 324,
      "방": 325,
      "배": 326,
      "백": 327,
      "밴": 328,
      "밸": 329,
      "뱃": 330,
      "뱅": 331,
      "버": 332,
      "벅": 333,
      "번": 334,
      "범": 335,
      "베": 336,
      "벤": 337,
      "벨": 338,
      "벳": 339,
      "벼": 340,
      "변": 341,
      "별": 342,
      "보": 343,
      "복": 344,
      "본": 345,
      "볼": 346,
      "봄": 347,
      "봉": 348,
      "봐": 349,
      "부": 350,
      "북": 351,
      "분": 352,
      "뷔": 353,
      "뷰": 354,
      "브": 355,
      "븐": 356,
      "블": 357,
      "비": 358,
      "빅": 359,
      "빈": 360,
      "빌": 361,
      "빔": 362,
      "빙": 363,
      "빛": 364,
      "뻐": 365,
      "뽀": 366,
      "뽕": 367,
      "쁜": 368,
      "삐": 369,
      "사": 370,
      "산": 371,
      "살": 372,
      "삼": 373,
      "상": 374,
      "새": 375,
      "색": 376,
      "샌": 377,
      "샘": 378,
      "생": 379,
      "샤": 380,
      "샥": 381,
      "샬": 382,
      "샵": 383,
      "샷": 384,
      "서": 385,
      "석": 386,
      "선": 387,
      "설": 388,
      "성": 389,
      "세": 390,
      "섹": 391,
      "센": 392,
      "셀": 393,
      "셉": 394,
      "셋": 395,
      "셔": 396,
      "션": 397,
      "셜": 398,
      "소": 399,
      "속": 400,
      "손": 401,
      "솔": 402,
      "솜": 403,
      "송": 404,
      "쇄": 405,
      "쇼": 406,
      "숄": 407,
      "숏": 408,
      "수": 409,
      "순": 410,
      "술": 411,
      "숨": 412,
      "숲": 413,
      "쉐": 414,
      "쉘": 415,
      "쉬": 416,
      "쉴": 417,
      "슈": 418,
      "슐": 419,
      "스": 420,
      "슨": 421,
      "슬": 422,
      "슴": 423,
      "습": 424,
      "승": 425,
      "시": 426,
      "식": 427,
      "신": 428,
      "실": 429,
      "심": 430,
      "싱": 431,
      "쌍": 432,
      "써": 433,
      "썬": 434,
      "쎄": 435,
      "쏘": 436,
      "쓸": 437,
      "씨": 438,
      "씽": 439,
      "아": 440,
      "안": 441,
      "알": 442,
      "암": 443,
      "앙": 444,
      "앞": 445,
      "애": 446,
      "액": 447,
      "앤": 448,
      "앱": 449,
      "앵": 450,
      "야": 451,
      "약": 452,
      "얇": 453,
      "양": 454,
      "어": 455,
      "언": 456,
      "얼": 457,
      "엄": 458,
      "업": 459,
      "없": 460,
      "에": 461,
      "엑": 462,
      "엔": 463,
      "엘": 464,
      "엠": 465,
      "엡": 466,
      "엣": 467,
      "여": 468,
      "역": 469,
      "연": 470,
      "열": 471,
      "염": 472,
      "영": 473,
      "옆": 474,
      "예": 475,
      "오": 476,
      "온": 477,
      "올": 478,
      "옴": 479,
      "옵": 480,
      "옷": 481,
      "와": 482,
      "완": 483,
      "왕": 484,
      "외": 485,
      "요": 486,
      "욕": 487,
      "욜": 488,
      "용": 489,
      "우": 490,
      "운": 491,
      "울": 492,
      "움": 493,
      "웃": 494,
      "워": 495,
      "웍": 496,
      "원": 497,
      "월": 498,
      "웜": 499,
      "웨": 500,
      "웰": 501,
      "웻": 502,
      "위": 503,
      "윈": 504,
      "윌": 505,
      "윙": 506,
      "유": 507,
      "육": 508,
      "윤": 509,
      "율": 510,
      "융": 511,
      "은": 512,
      "을": 513,
      "음": 514,
      "의": 515,
      "이": 516,
      "익": 517,
      "인": 518,
      "일": 519,
      "임": 520,
      "입": 521,
      "잇": 522,
      "있": 523,
      "잉": 524,
      "잎": 525,
      "자": 526,
      "작": 527,
      "잔": 528,
      "잗": 529,
      "잠": 530,
      "장": 531,
      "재": 532,
      "잭": 533,
      "쟈": 534,
      "저": 535,
      "전": 536,
      "절": 537,
      "점": 538,
      "접": 539,
      "정": 540,
      "제": 541,
      "젝": 542,
      "젠": 543,
      "젤": 544,
      "젯": 545,
      "져": 546,
      "조": 547,
      "족": 548,
      "존": 549,
      "좀": 550,
      "종": 551,
      "좋": 552,
      "주": 553,
      "죽": 554,
      "준": 555,
      "줄": 556,
      "중": 557,
      "쥐": 558,
      "쥬": 559,
      "즈": 560,
      "즉": 561,
      "즌": 562,
      "즘": 563,
      "증": 564,
      "지": 565,
      "직": 566,
      "진": 567,
      "질": 568,
      "짐": 569,
      "집": 570,
      "짜": 571,
      "짭": 572,
      "짱": 573,
      "쫄": 574,
      "쭈": 575,
      "찌": 576,
      "찢": 577,
      "차": 578,
      "착": 579,
      "찬": 580,
      "채": 581,
      "책": 582,
      "처": 583,
      "천": 584,
      "첩": 585,
      "청": 586,
      "체": 587,
      "쳐": 588,
      "초": 589,
      "촉": 590,
      "촌": 591,
      "총": 592,
      "촬": 593,
      "최": 594,
      "추": 595,
      "축": 596,
      "출": 597,
      "충": 598,
      "츄": 599,
      "츠": 600,
      "치": 601,
      "침": 602,
      "칩": 603,
      "칭": 604,
      "카": 605,
      "칸": 606,
      "칼": 607,
      "캉": 608,
      "캐": 609,
      "캔": 610,
      "캘": 611,
      "캠": 612,
      "캡": 613,
      "커": 614,
      "컨": 615,
      "컬": 616,
      "컴": 617,
      "컵": 618,
      "컷": 619,
      "케": 620,
      "켄": 621,
      "켓": 622,
      "코": 623,
      "콘": 624,
      "콜": 625,
      "콤": 626,
      "쿠": 627,
      "쿡": 628,
      "쿤": 629,
      "쿨": 630,
      "쿼": 631,
      "퀄": 632,
      "퀘": 633,
      "퀵": 634,
      "퀼": 635,
      "큐": 636,
      "크": 637,
      "큰": 638,
      "클": 639,
      "키": 640,
      "킨": 641,
      "킴": 642,
      "킷": 643,
      "킹": 644,
      "타": 645,
      "탁": 646,
      "탄": 647,
      "탈": 648,
      "탑": 649,
      "탕": 650,
      "태": 651,
      "택": 652,
      "탠": 653,
      "탭": 654,
      "터": 655,
      "턱": 656,
      "턴": 657,
      "털": 658,
      "텀": 659,
      "테": 660,
      "텍": 661,
      "텐": 662,
      "텔": 663,
      "템": 664,
      "텝": 665,
      "텡": 666,
      "토": 667,
      "톡": 668,
      "톤": 669,
      "톰": 670,
      "통": 671,
      "투": 672,
      "툰": 673,
      "튜": 674,
      "트": 675,
      "특": 676,
      "튼": 677,
      "틀": 678,
      "티": 679,
      "틱": 680,
      "틴": 681,
      "틸": 682,
      "팀": 683,
      "팅": 684,
      "파": 685,
      "판": 686,
      "팔": 687,
      "팜": 688,
      "팝": 689,
      "팟": 690,
      "패": 691,
      "팩": 692,
      "팬": 693,
      "팰": 694,
      "팽": 695,
      "퍼": 696,
      "펄": 697,
      "페": 698,
      "펙": 699,
      "펜": 700,
      "펠": 701,
      "편": 702,
      "포": 703,
      "폭": 704,
      "폰": 705,
      "폴": 706,
      "폼": 707,
      "푸": 708,
      "풀": 709,
      "품": 710,
      "풍": 711,
      "퓨": 712,
      "프": 713,
      "픈": 714,
      "플": 715,
      "피": 716,
      "픽": 717,
      "핀": 718,
      "필": 719,
      "핏": 720,
      "핑": 721,
      "하": 722,
      "학": 723,
      "한": 724,
      "할": 725,
      "함": 726,
      "합": 727,
      "핫": 728,
      "항": 729,
      "해": 730,
      "핵": 731,
      "핸": 732,
      "햄": 733,
      "햅": 734,
      "행": 735,
      "향": 736,
      "허": 737,
      "헌": 738,
      "헝": 739,
      "헤": 740,
      "헬": 741,
      "헴": 742,
      "현": 743,
      "형": 744,
      "호": 745,
      "혼": 746,
      "홀": 747,
      "홈": 748,
      "홑": 749,
      "화": 750,
      "확": 751,
      "환": 752,
      "활": 753,
      "회": 754,
      "획": 755,
      "효": 756,
      "후": 757,
      "휘": 758,
      "휠": 759,
      "휴": 760,
      "흑": 761,
      "흥": 762,
      "희": 763,
      "흰": 764,
      "히": 765,
      "힌": 766,
      "힐": 767,
      "힙": 768,
      "류\n": 769,
      "의류\n": 770,
      "전\n": 771,
      "가전\n": 772,
      "▁패": 773,
      "▁디": 774,
      "▁디지": 775,
      "▁디지털": 776,
      "/가전\n": 777,
      "션의류\n": 778,
      "▁패션의류\n": 779,
      "▁디지털/가전\n": 780,
      "▁여": 781,
      "성의류\n": 782,
      "▁남": 783,
      "▁여성의류\n": 784,
      "00": 785,
      "▁남성의류\n": 786,
      "▁2": 787,
      "▁여성": 788,
      "▁스": 789,
      "리\n": 790,
      "▁아": 791,
      "▁S": 792,
      "웨어": 793,
      "서리\n": 794,
      "세서리\n": 795,
      "액세서리\n": 796,
      "잠옷": 797,
      "▁휴": 798,
      "▁1": 799,
      "▁휴대": 800,
      "▁P": 801,
      "다운": 802,
      "▁휴대폰": 803,
      "▁아이": 804,
      "▁삼": 805,
      "전자": 806,
      "언더": 807,
      "▁삼성": 808,
      "언더웨어": 809,
      "▁남성": 810,
      "▁휴대폰액세서리\n": 811,
      "▁A": 812,
      "잠옷\n": 813,
      "▁C": 814,
      "/잠옷\n": 815,
      "0\n": 816,
      "▁모": 817,
      "언더웨어/잠옷\n": 818,
      "케이": 819,
      "▁카": 820,
      "▁코": 821,
      "▁케이": 822,
      "갤럭": 823,
      "갤럭시": 824,
      "▁M": 825,
      "▁갤럭시": 826,
      "기\n": 827,
      "▁3": 828,
      "▁삼성전자": 829,
      "1\n": 830,
      "▁주": 831,
      "구스": 832,
      "▁에": 833,
      "니터": 834,
      "▁기": 835,
      "▁자": 836,
      "▁플": 837,
      "▁L": 838,
      "▁롱": 839,
      "기기\n": 840,
      "▁여성언더웨어/잠옷\n": 841,
      "▁모니터": 842,
      "▁프": 843,
      "▁T": 844,
      "▁라": 845,
      "리스": 846,
      "▁게": 847,
      "▁구스": 848,
      "품\n": 849,
      "점퍼": 850,
      "▁울": 851,
      "23": 852,
      "이드": 853,
      "▁5": 854,
      "▁음": 855,
      "향가전\n": 856,
      "▁음향가전\n": 857,
      "레이": 858,
      "▁무": 859,
      "▁B": 860,
      "▁N": 861,
      "▁노": 862,
      "▁세": 863,
      "▁오": 864,
      "팬츠": 865,
      "▁하": 866,
      "▁패딩": 867,
      "▁(": 868,
      "▁마": 869,
      "메라": 870,
      "▁후": 871,
      "▁남자": 872,
      "▁E": 873,
      "팬티": 874,
      "▁23": 875,
      "24": 876,
      "PC": 877,
      "▁카메라": 878,
      "▁기모": 879,
      "FW": 880,
      "▁다운": 881,
      "▁점퍼": 882,
      "겨울": 883,
      "▁모니터\n": 884,
      "▁브": 885,
      "트라": 886,
      "▁G": 887,
      "▁W": 888,
      "▁코트": 889,
      ")\n": 890,
      "▁가": 891,
      "10": 892,
      "▁겨울": 893,
      "▁케이스": 894,
      "▁리": 895,
      "▁태": 896,
      "블릿": 897,
      "▁태블릿": 898,
      "▁트": 899,
      "▁프로": 900,
      "▁이": 901,
      "용품\n": 902,
      "5\n": 903,
      "/캠": 904,
      "더용품\n": 905,
      "코더용품\n": 906,
      "▁카메라/캠": 907,
      "▁카메라/캠코더용품\n": 908,
      "변기기\n": 909,
      "트\n": 910,
      "▁23FW": 911,
      "바지": 912,
      "티드": 913,
      "▁PC": 914,
      "▁태블릿PC": 915,
      "▁벨": 916,
      "GB": 917,
      "엠듀": 918,
      "▁아이엠듀": 919,
      "▁울트라": 920,
      "▁로": 921,
      "▁숏": 922,
      "▁파": 923,
      "피스": 924,
      "▁4": 925,
      "이즈": 926,
      "▁구스다운": 927,
      "2\n": 928,
      "▁지": 929,
      "D4": 930,
      "▁미": 931,
      "폭스": 932,
      "▁후드": 933,
      "▁벨티드": 934,
      "▁블": 935,
      "▁폴": 936,
      "▁에어": 937,
      "세대": 938,
      "▁자켓": 939,
      "20": 940,
      "3\n": 941,
      "▁D": 942,
      "▁U": 943,
      "▁맥": 944,
      "▁빅": 945,
      "▁H": 946,
      "▁크": 947,
      "핸드": 948,
      "▁F": 949,
      "▁보": 950,
      "▁캐": 951,
      "▁주변기기\n": 952,
      "▁폭스": 953,
      "러스": 954,
      "▁[": 955,
      "▁더": 956,
      "▁수": 957,
      "▁핸드": 958,
      "패딩": 959,
      "▁고": 960,
      "▁아이폰": 961,
      "▁원": 962,
      "비\n": 963,
      "사이즈": 964,
      "30": 965,
      "장비\n": 966,
      "충전": 967,
      "▁남성언더웨어/잠옷\n": 968,
      "▁게임": 969,
      "▁6": 970,
      "▁나": 971,
      "트북": 972,
      "필름": 973,
      "▁노트북": 974,
      "▁브라": 975,
      "▁7": 976,
      "▁슬": 977,
      "▁커": 978,
      "▁풀": 979,
      "네트": 980,
      "▁니": 981,
      "▁드": 982,
      "▁신": 983,
      "▁저": 984,
      "▁조": 985,
      "기/": 986,
      "메이드": 987,
      "이스": 988,
      "▁LG": 989,
      "C4": 990,
      "▁Z": 991,
      "이틀": 992,
      "타이틀": 993,
      "▁소": 994,
      "▁정": 995,
      "와이드": 996,
      "▁케이블": 997,
      "▁게임기/": 998,
      "타이틀\n": 999,
      "▁게임기/타이틀\n": 1000,
      "▁팬츠": 1001,
      "방가전\n": 1002,
      "속옷": 1003,
      "▁주방가전\n": 1004,
      "234": 1005,
      "공용": 1006,
      "패드": 1007,
      "00\n": 1008,
      "▁빅사이즈": 1009,
      "▁LG전자": 1010,
      "56": 1011,
      "▁K": 1012,
      "▁베": 1013,
      "▁핸드메이드": 1014,
      "50": 1015,
      "셔츠": 1016,
      "워크": 1017,
      "▁스트": 1018,
      "SG": 1019,
      "in": 1020,
      "le": 1021,
      "▁반": 1022,
      "▁시": 1023,
      "장장": 1024,
      "치\n": 1025,
      "▁무선": 1026,
      "▁저장장": 1027,
      "AN": 1028,
      "IT": 1029,
      "JP": 1030,
      "▁원피스": 1031,
      "11": 1032,
      "34": 1033,
      "90": 1034,
      "▁티": 1035,
      "▁폭스퍼": 1036,
      "▁니트": 1037,
      "▁저장장치\n": 1038,
      "▁퍼": 1039,
      "라인": 1040,
      "코트": 1041,
      "▁플러스": 1042,
      "▁태블릿PC\n": 1043,
      "▁폴햄": 1044,
      "10\n": 1045,
      "28": 1046,
      "60": 1047,
      "▁J": 1048,
      "▁R": 1049,
      "▁사": 1050,
      "스트": 1051,
      "커버": 1052,
      "000": 1053,
      "▁게이": 1054,
      "▁세트": 1055,
      "▁하이": 1056,
      "▁케이스\n": 1057,
      "▁신지": 1058,
      "27": 1059,
      "▁강": 1060,
      "▁데": 1061,
      "▁면": 1062,
      "▁버": 1063,
      "맨투": 1064,
      "모루": 1065,
      "스테": 1066,
      "▁신지모루": 1067,
      "맨투맨": 1068,
      "15": 1069,
      "4\n": 1070,
      "▁올": 1071,
      "보호": 1072,
      "워치": 1073,
      "▁지오": 1074,
      "▁게이밍": 1075,
      "12": 1076,
      "▁8": 1077,
      "▁레": 1078,
      "▁멀": 1079,
      "▁제": 1080,
      "▁헤": 1081,
      "경량": 1082,
      "세이": 1083,
      "자마": 1084,
      "퀼팅": 1085,
      "화유": 1086,
      "▁15": 1087,
      "▁강화유": 1088,
      "▁멀티": 1089,
      "▁루": 1090,
      "▁인": 1091,
      "▁푸": 1092,
      "▁와이드": 1093,
      "미어": 1094,
      "이키": 1095,
      "▁S24": 1096,
      "▁자동": 1097,
      "▁고속": 1098,
      "네트워크": 1099,
      "▁강화유리": 1100,
      "]\n": 1101,
      "▁클": 1102,
      "▁투": 1103,
      "종\n": 1104,
      "지텍": 1105,
      "차기기\n": 1106,
      "▁여자": 1107,
      "▁아이패드": 1108,
      "▁캐시": 1109,
      "▁더블": 1110,
      "▁슬림": 1111,
      "▁자동차기기\n": 1112,
      "17": 1113,
      "▁9": 1114,
      "▁O": 1115,
      "▁V": 1116,
      "▁애": 1117,
      "▁액": 1118,
      "▁포": 1119,
      "▁팬티": 1120,
      "▁맨투맨": 1121,
      "▁경량": 1122,
      "디건": 1123,
      "로이": 1124,
      "리브": 1125,
      "▁스마": 1126,
      "▁PH": 1127,
      "▁태블릿PC액세서리\n": 1128,
      "▁수면": 1129,
      "▁나이키": 1130,
      "SB": 1131,
      "▁I": 1132,
      "▁Q": 1133,
      "▁밴": 1134,
      "▁심": 1135,
      "▁키": 1136,
      "운드": 1137,
      "이어": 1138,
      "프트": 1139,
      "▁가디건": 1140,
      "▁파자마": 1141,
      "▁스마트": 1142,
      "A\n": 1143,
      "▁듀": 1144,
      "▁한": 1145,
      "▁네트워크": 1146,
      "급제": 1147,
      "로즈": 1148,
      "미용": 1149,
      "타입": 1150,
      "▁휴대폰\n": 1151,
      "▁WI": 1152,
      "▁이미용": 1153,
      "▁커플": 1154,
      "▁캐시미어": 1155,
      "▁애플": 1156,
      "▁네트워크장비\n": 1157,
      "▁이미용가전\n": 1158,
      "25": 1159,
      "3W": 1160,
      "CT": 1161,
      "▁거": 1162,
      "▁메": 1163,
      "▁속옷": 1164,
      "듀로이": 1165,
      "이트": 1166,
      "집업": 1167,
      "카라": 1168,
      "포츠": 1169,
      "▁심리스": 1170,
      "6\n": 1171,
      "7\n": 1172,
      "▁알": 1173,
      "부품\n": 1174,
      "컴퓨": 1175,
      "▁카라": 1176,
      "▁갤럭시탭": 1177,
      "▁플리스": 1178,
      "레이닝": 1179,
      "▁PC부품\n": 1180,
      "▁조거": 1181,
      "▁액정": 1182,
      "컴퓨터": 1183,
      "99": 1184,
      "er": 1185,
      "▁덕": 1186,
      "▁씨": 1187,
      "디션": 1188,
      "디어": 1189,
      "이크": 1190,
      "치대": 1191,
      "▁스포츠": 1192,
      "▁128": 1193,
      "▁코듀로이": 1194,
      "▁MS": 1195,
      "▁드로즈": 1196,
      "▁정품": 1197,
      "FI": 1198,
      "▁비": 1199,
      "▁퀼팅": 1200,
      "코스테": 1201,
      "▁10": 1202,
      "▁라코스테": 1203,
      "리스트": 1204,
      "▁세트\n": 1205,
      "▁USB": 1206,
      "▁맥세이": 1207,
      "▁베이": 1208,
      "▁거치대": 1209,
      "▁액정보호": 1210,
      "▁맥세이프": 1211,
      "21": 1212,
      "39": 1213,
      "OO": 1214,
      "or": 1215,
      "▁내": 1216,
      "▁닌": 1217,
      "▁리스트": 1218,
      "드\n": 1219,
      "우스": 1220,
      "텐도": 1221,
      "프로": 1222,
      "▁라운드": 1223,
      "▁로지텍": 1224,
      "▁블루": 1225,
      "▁닌텐도": 1226,
      "01\n": 1227,
      "22": 1228,
      "3N": 1229,
      "65": 1230,
      "KH": 1231,
      "P1": 1232,
      "PSG": 1233,
      "▁탑": 1234,
      "▁피": 1235,
      "▁공용": 1236,
      "자급제": 1237,
      "▁20": 1238,
      "GB\n": 1239,
      "▁[자급제": 1240,
      "▁반팔": 1241,
      "▁투명": 1242,
      "▁WIFI": 1243,
      "▁탑텐": 1244,
      "▁[자급제]\n": 1245,
      "8\n": 1246,
      "CH": 1247,
      "pp": 1248,
      "▁긴": 1249,
      "▁다": 1250,
      "▁유": 1251,
      "▁일": 1252,
      "브라": 1253,
      "▁App": 1254,
      "▁트레이닝": 1255,
      "▁미니": 1256,
      "▁블랙": 1257,
      "▁풀커버": 1258,
      "▁티셔츠": 1259,
      "▁액정보호필름": 1260,
      "▁Apple": 1261,
      "TR": 1262,
      "▁재": 1263,
      "▁잠옷": 1264,
      "▁충전": 1265,
      "디스": 1266,
      "미디어": 1267,
      "▁오버": 1268,
      "▁멀티미디어": 1269,
      "▁덕다운": 1270,
      "▁베이직": 1271,
      "▁멀티미디어장비\n": 1272,
      "-5": 1273,
      "100": 1274,
      "CK": 1275,
      "ED": 1276,
      "L-": 1277,
      "OR": 1278,
      "▁X": 1279,
      "▁골": 1280,
      "▁실": 1281,
      "▁홈": 1282,
      "기모": 1283,
      "다노": 1284,
      "펜슬": 1285,
      "▁256": 1286,
      "▁C타입": 1287,
      "▁게스": 1288,
      "▁마이크": 1289,
      "▁PC액세서리\n": 1290,
      "▁크롭": 1291,
      "234PSG": 1292,
      "▁하이넥": 1293,
      "▁지오다노": 1294,
      "▁푸퍼": 1295,
      "▁PHD4": 1296,
      "80": 1297,
      "ER": 1298,
      "HD": 1299,
      "MD": 1300,
      "▁바지": 1301,
      "와이어": 1302,
      "▁남녀": 1303,
      "▁갤럭시S": 1304,
      "▁노와이어": 1305,
      "▁소니": 1306,
      "/A": 1307,
      "16": 1308,
      "32": 1309,
      "AR": 1310,
      "SW": 1311,
      "al": 1312,
      "▁/": 1313,
      "▁부": 1314,
      "▁테": 1315,
      "▁히": 1316,
      "바이스": 1317,
      "세트": 1318,
      "위드": 1319,
      "이아": 1320,
      "▁MA": 1321,
      "▁TW": 1322,
      "▁5G": 1323,
      "▁NE": 1324,
      "▁고속충전": 1325,
      "36": 1326,
      "50\n": 1327,
      "C3": 1328,
      "HCT": 1329,
      "SD": 1330,
      "▁국": 1331,
      "▁도": 1332,
      "▁발": 1333,
      "▁칼": 1334,
      "렉트": 1335,
      "시블": 1336,
      "지아": 1337,
      "침대": 1338,
      "컬러": 1339,
      "콜렉트": 1340,
      "▁2세대": 1341,
      "웨어\n": 1342,
      "레이트": 1343,
      "▁세미": 1344,
      "▁하프": 1345,
      "▁EP": 1346,
      "▁리버": 1347,
      "▁트위드": 1348,
      "▁숏패딩": 1349,
      "▁노트북\n": 1350,
      "▁케이블\n": 1351,
      "▁스트랩": 1352,
      "▁밴딩": 1353,
      "▁조거팬츠": 1354,
      "KH/A": 1355,
      "▁긴팔": 1356,
      "▁오버핏": 1357,
      "▁남녀공용": 1358,
      "01": 1359,
      "20\n": 1360,
      "EN": 1361,
      "M-": 1362,
      "OP": 1363,
      "S\n": 1364,
      "to": 1365,
      "▁네": 1366,
      "▁누": 1367,
      "▁방": 1368,
      "▁쉬": 1369,
      "▁싱": 1370,
      "▁양": 1371,
      "▁영": 1372,
      "▁온": 1373,
      "▁외": 1374,
      "▁요": 1375,
      "매\n": 1376,
      "주변기기\n": 1377,
      "채널": 1378,
      "청바지": 1379,
      "편한": 1380,
      "▁스탠": 1381,
      "▁모니터주변기기\n": 1382,
      "▁프리": 1383,
      "▁(M": 1384,
      "▁가을": 1385,
      "▁리바이스": 1386,
      "▁64": 1387,
      "▁키보": 1388,
      "▁듀얼": 1389,
      "KH/A)\n": 1390,
      "▁싱글": 1391,
      "11\n": 1392,
      "W\n": 1393,
      "ro": 1394,
      "▁그": 1395,
      "▁상": 1396,
      "닉스": 1397,
      "미스": 1398,
      "밍크": 1399,
      "씨콜렉트": 1400,
      "타임": 1401,
      "투스": 1402,
      "▁PD": 1403,
      "▁에디션": 1404,
      "▁라이": 1405,
      "▁무지": 1406,
      "▁리얼": 1407,
      "▁에어팟": 1408,
      "▁소프트": 1409,
      "ITCH": 1410,
      "▁데님": 1411,
      "▁올리브": 1412,
      "▁루즈": 1413,
      "▁애플펜슬": 1414,
      "▁씨씨콜렉트": 1415,
      ".0": 1416,
      "14": 1417,
      "30\n": 1418,
      "500": 1419,
      "70": 1420,
      "800": 1421,
      "9\n": 1422,
      "E-5": 1423,
      "FM": 1424,
      "N4": 1425,
      "RO": 1426,
      "ab": 1427,
      "an": 1428,
      "mm": 1429,
      "▁0": 1430,
      "▁바": 1431,
      "▁샌": 1432,
      "▁순": 1433,
      "▁엠": 1434,
      "▁초": 1435,
      "▁집업": 1436,
      "▁편한": 1437,
      "라이": 1438,
      "랙스": 1439,
      "비안": 1440,
      "앤온": 1441,
      "오버": 1442,
      "웍스": 1443,
      "즈미스": 1444,
      "파집": 1445,
      "피타임": 1446,
      "▁24": 1447,
      "▁27": 1448,
      "▁SA": 1449,
      "▁SL-": 1450,
      "▁아이피타임": 1451,
      "▁케이안": 1452,
      "▁주파집": 1453,
      "▁(2": 1454,
      "▁마우스": 1455,
      "▁EFM": 1456,
      "▁FE": 1457,
      "▁캐논": 1458,
      "▁수납": 1459,
      "네트웍스": 1460,
      "▁KAN": 1461,
      "▁스트레이트": 1462,
      "▁지오지아": 1463,
      "디스크": 1464,
      "▁리버시블": 1465,
      "▁쉬즈미스": 1466,
      "▁영상": 1467,
      "▁온앤온": 1468,
      "▁샌디스크": 1469,
      "▁EFM네트웍스": 1470,
      "-A": 1471,
      "200": 1472,
      "37": 1473,
      "51": 1474,
      "58": 1475,
      "BL": 1476,
      "E\n": 1477,
      "K\n": 1478,
      "OL": 1479,
      "P-": 1480,
      "PS": 1481,
      "ra": 1482,
      "▁Y": 1483,
      "▁배": 1484,
      "▁야": 1485,
      "▁장": 1486,
      "▁캘": 1487,
      "▁터": 1488,
      "▁밍크": 1489,
      "데올": 1490,
      "래식": 1491,
      "래픽": 1492,
      "랜드": 1493,
      "빈클": 1494,
      "셋업": 1495,
      "아이": 1496,
      "플러스": 1497,
      "▁스판": 1498,
      "▁S9": 1499,
      "▁14": 1500,
      "▁CK": 1501,
      "▁모달": 1502,
      "▁마그": 1503,
      "▁남자팬티": 1504,
      "▁WH": 1505,
      "▁풀오버": 1506,
      "▁128GB": 1507,
      "▁MSC4": 1508,
      "▁블루투스": 1509,
      "▁재킷": 1510,
      "▁칼라": 1511,
      "▁외장": 1512,
      "▁소프트웨어\n": 1513,
      "E-53N": 1514,
      "▁순면": 1515,
      "▁영상가전\n": 1516,
      "▁캘빈클": 1517,
      "▁캘빈클라인": 1518,
      "-1": 1519,
      "38": 1520,
      "3X": 1521,
      "3KH/A)\n": 1522,
      "C\n": 1523,
      "I\n": 1524,
      "ON": 1525,
      "TC": 1526,
      "UP": 1527,
      "en": 1528,
      "lt": 1529,
      "▁뉴": 1530,
      "▁동": 1531,
      "▁빈": 1532,
      "▁셀": 1533,
      "▁슈": 1534,
      "▁타": 1535,
      "▁청바지": 1536,
      "기장": 1537,
      "네틱": 1538,
      "레어": 1539,
      "리오": 1540,
      "리츠": 1541,
      "받침대": 1542,
      "▁스커": 1543,
      "▁SW": 1544,
      "▁16": 1545,
      "▁카드": 1546,
      "▁코튼": 1547,
      "▁갤럭시북": 1548,
      "▁32": 1549,
      "▁3종": 1550,
      "▁NT": 1551,
      "▁HD": 1552,
      "▁노트북액세서리\n": 1553,
      "▁클래식": 1554,
      "▁알파": 1555,
      "▁액정보호필름\n": 1556,
      "▁마이크로": 1557,
      "SWITCH": 1558,
      "▁MAX": 1559,
      "채널)\n": 1560,
      "▁올리브데올": 1561,
      "▁(2채널)\n": 1562,
      "▁마그네틱": 1563,
      "SWITCH)\n": 1564,
      "▁올리브데올리브": 1565,
      "04": 1566,
      "18": 1567,
      "29": 1568,
      "4T": 1569,
      "M4": 1570,
      "MSG": 1571,
      "PD": 1572,
      "PP": 1573,
      "TS": 1574,
      "la": 1575,
      "▁극": 1576,
      "▁링": 1577,
      "▁본": 1578,
      "▁써": 1579,
      "▁진": 1580,
      "▁쿠": 1581,
      "▁언더웨어": 1582,
      "▁필름": 1583,
      "▁to": 1584,
      "렌치": 1585,
      "리닝": 1586,
      "모니터": 1587,
      "버튼": 1588,
      "봉제": 1589,
      "생활": 1590,
      "세사": 1591,
      "소프트": 1592,
      "우터": 1593,
      "일랜드": 1594,
      "자켓": 1595,
      "젝트": 1596,
      "지오": 1597,
      "▁스웨": 1598,
      "▁ST": 1599,
      "▁삼각": 1600,
      "▁AX": 1601,
      "▁갤럭시워치": 1602,
      "구스다운": 1603,
      "▁무봉제": 1604,
      "▁오디": 1605,
      "▁하객": 1606,
      "▁Wi": 1607,
      "▁프로젝트": 1608,
      "▁이어": 1609,
      "▁Ult": 1610,
      "▁보조": 1611,
      "▁ZOO": 1612,
      "▁정장": 1613,
      "▁버즈": 1614,
      "▁올젠": 1615,
      "▁포켓": 1616,
      "▁QC": 1617,
      "▁비비안": 1618,
      "▁10.": 1619,
      "▁거치대\n": 1620,
      "▁피치": 1621,
      "▁홈웨어": 1622,
      "▁256GB": 1623,
      "▁64G": 1624,
      "▁야상": 1625,
      "▁빈폴": 1626,
      "▁극세사": 1627,
      "▁Ultra": 1628,
      "▁ZOOC": 1629,
      "-K": 1630,
      "71": 1631,
      "BD": 1632,
      "DW": 1633,
      "GP": 1634,
      "JK": 1635,
      "M\n": 1636,
      "e\n": 1637,
      "ic": 1638,
      "us": 1639,
      "▁m": 1640,
      "▁르": 1641,
      "▁벤": 1642,
      "▁전": 1643,
      "▁중": 1644,
      "▁호": 1645,
      "▁받침대": 1646,
      "능성": 1647,
      "래스": 1648,
      "랜텍": 1649,
      "성컴퓨터": 1650,
      "셔널": 1651,
      "스탕": 1652,
      "원피스": 1653,
      "이션": 1654,
      "츄리닝": 1655,
      "토너": 1656,
      "틀넥": 1657,
      "후드": 1658,
      "001\n": 1659,
      "▁2매\n": 1660,
      "▁스타": 1661,
      "▁PRO": 1662,
      "▁에코": 1663,
      "▁기능성": 1664,
      "▁플레이": 1665,
      "▁512": 1666,
      "▁NV": 1667,
      "▁이너": 1668,
      "▁PC\n": 1669,
      "▁로랜텍": 1670,
      "▁크루": 1671,
      "▁드라이": 1672,
      "▁버튼": 1673,
      "▁헤드": 1674,
      "▁인스": 1675,
      "▁슬림핏": 1676,
      "▁듀엘": 1677,
      "▁한성컴퓨터": 1678,
      "▁애플워치": 1679,
      "▁일자": 1680,
      "▁NEW": 1681,
      "▁마이크로소프트": 1682,
      "▁삼각대": 1683,
      ".1": 1684,
      "02": 1685,
      "12\n": 1686,
      "26": 1687,
      "33": 1688,
      "31\n": 1689,
      "5W": 1690,
      "600": 1691,
      "73": 1692,
      "B4": 1693,
      "EL": 1694,
      "ES": 1695,
      "Fi": 1696,
      "KR": 1697,
      "N8": 1698,
      "OS": 1699,
      "UCK": 1700,
      "ss": 1701,
      "▁랄": 1702,
      "▁선": 1703,
      "▁어": 1704,
      "▁웨": 1705,
      "▁체": 1706,
      "▁텐": 1707,
      "▁핏": 1708,
      "▁레이": 1709,
      "▁셋업": 1710,
      "▁츄리닝": 1711,
      "고이스": 1712,
      "그래픽": 1713,
      "디오": 1714,
      "디지": 1715,
      "링크": 1716,
      "미엄": 1717,
      "배터": 1718,
      "세트\n": 1719,
      "소음": 1720,
      "슬리": 1721,
      "엣지": 1722,
      "위치": 1723,
      "인치": 1724,
      "터\n": 1725,
      "토어": 1726,
      "튜디오": 1727,
      "포트": 1728,
      "포함": 1729,
      "▁디지지": 1730,
      "▁스파": 1731,
      "▁스페": 1732,
      "▁휴대용": 1733,
      "▁코닥": 1734,
      "▁MI": 1735,
      "▁3종\n": 1736,
      "▁에고이스": 1737,
      "▁기본": 1738,
      "▁브이": 1739,
      "▁가죽": 1740,
      "▁이지": 1741,
      "▁미디": 1742,
      "▁DD": 1743,
      "▁맥스": 1744,
      "▁빅쏘": 1745,
      "▁보브": 1746,
      "▁브라렛": 1747,
      "▁브라탑": 1748,
      "▁슬랙스": 1749,
      "234MSG": 1750,
      "in1": 1751,
      "▁시슬리": 1752,
      "3417": 1753,
      "▁사각": 1754,
      "스테이션": 1755,
      "▁푸마": 1756,
      "▁수면잠옷": 1757,
      "3WH": 1758,
      "▁알래스": 1759,
      "▁내셔널": 1760,
      "▁갤럭시S23": 1761,
      "▁TWHCT": 1762,
      "▁발열": 1763,
      "▁누빔": 1764,
      "▁프리미엄": 1765,
      "▁루즈핏": 1766,
      "▁터틀넥": 1767,
      "▁슈퍼": 1768,
      "지오그래픽": 1769,
      "▁프로젝트엠": 1770,
      "▁보조배터": 1771,
      "▁피치기모": 1772,
      "▁512GB": 1773,
      "▁크루넥": 1774,
      "▁에고이스트": 1775,
      "▁알래스카": 1776,
      "▁내셔널지오그래픽": 1777,
      "05": 1778,
      "02\n": 1779,
      "43": 1780,
      "70\n": 1781,
      "98": 1782,
      "F\n": 1783,
      "FP1": 1784,
      "GAN": 1785,
      "MB": 1786,
      "MK": 1787,
      "T\n": 1788,
      "US": 1789,
      "am": 1790,
      "ch": 1791,
      "co": 1792,
      "om": 1793,
      "▁+": 1794,
      "▁i": 1795,
      "▁안": 1796,
      "▁앤": 1797,
      "▁와": 1798,
      "▁잇": 1799,
      "▁필": 1800,
      "▁학": 1801,
      "▁워치": 1802,
      "▁컴퓨터": 1803,
      "계절": 1804,
      "그니": 1805,
      "니트": 1806,
      "데이아": 1807,
      "리드": 1808,
      "보이": 1809,
      "셋\n": 1810,
      "스터": 1811,
      "스데이아": 1812,
      "습기기\n": 1813,
      "웨스트": 1814,
      "이너": 1815,
      "이치": 1816,
      "이퍼": 1817,
      "일리": 1818,
      "크\n": 1819,
      "폴라": 1820,
      "한복": 1821,
      "▁스위치": 1822,
      "▁아우터": 1823,
      "▁SE": 1824,
      "▁SO": 1825,
      "▁SP": 1826,
      "▁SM-": 1827,
      "▁12": 1828,
      "▁100": 1829,
      "▁AH": 1830,
      "▁CL": 1831,
      "▁CR": 1832,
      "▁CUCK": 1833,
      "▁LE": 1834,
      "▁롱패딩": 1835,
      "▁라이트": 1836,
      "▁무스탕": 1837,
      "▁BF": 1838,
      "▁BY": 1839,
      "▁오리": 1840,
      "▁(SWITCH)\n": 1841,
      "▁후디": 1842,
      "▁후지": 1843,
      "▁후드티": 1844,
      "▁폴라": 1845,
      "▁폴로": 1846,
      "▁보호": 1847,
      "▁핸드폰": 1848,
      "▁팬츠\n": 1849,
      "▁티피": 1850,
      "▁JBL": 1851,
      "▁밴드": 1852,
      "▁메탈": 1853,
      "▁라운드넥": 1854,
      "▁로지텍G": 1855,
      "▁2023": 1856,
      "▁충전기": 1857,
      "▁테이퍼": 1858,
      "▁국내": 1859,
      "▁국산": 1860,
      "▁EP4T": 1861,
      "▁양모": 1862,
      "▁요이치": 1863,
      "▁스탠드": 1864,
      "▁키보드": 1865,
      "▁써스데이아": 1866,
      "▁오디세이": 1867,
      "▁이어폰": 1868,
      "▁플레이스테이션": 1869,
      "▁NVM": 1870,
      "포함\n": 1871,
      "▁학습기기\n": 1872,
      "▁CUCKOO": 1873,
      "▁테이퍼드": 1874,
      "▁EP4TD": 1875,
      "▁써스데이아일랜드": 1876,
      "&am": 1877,
      "+1": 1878,
      "-0": 1879,
      "19": 1880,
      "110": 1881,
      "224": 1882,
      "35": 1883,
      "40": 1884,
      "40\n": 1885,
      "550": 1886,
      "60\n": 1887,
      "AM": 1888,
      "AT": 1889,
      "CM": 1890,
      "LED": 1891,
      "MA": 1892,
      "MI": 1893,
      "MS": 1894,
      "PT": 1895,
      "PP1": 1896,
      "TB": 1897,
      "UD": 1898,
      "ar": 1899,
      "ow": 1900,
      "p;": 1901,
      "vin": 1902,
      "▁단": 1903,
      "▁돌": 1904,
      "▁런": 1905,
      "▁목": 1906,
      "▁볼": 1907,
      "▁윈": 1908,
      "▁컴": 1909,
      "▁펠": 1910,
      "▁화": 1911,
      "▁셔츠": 1912,
      "▁워크": 1913,
      "▁IT": 1914,
      "계식": 1915,
      "다스": 1916,
      "디다스": 1917,
      "르간": 1918,
      "립5": 1919,
      "미샤": 1920,
      "스킨": 1921,
      "엄마": 1922,
      "에디션": 1923,
      "용\n": 1924,
      "정품": 1925,
      "쿠전자": 1926,
      "키지": 1927,
      "탁스": 1928,
      "톰보이": 1929,
      "티브": 1930,
      "틱스": 1931,
      "하이": 1932,
      "▁패드": 1933,
      "▁여성팬티": 1934,
      "▁PL": 1935,
      "▁AA": 1936,
      "▁Cal": 1937,
      "▁모르간": 1938,
      "▁MOR": 1939,
      "▁3.0": 1940,
      "▁기계식": 1941,
      "▁플라": 1942,
      "▁플레어": 1943,
      "▁LI": 1944,
      "▁LED": 1945,
      "▁롱다운": 1946,
      "▁TO": 1947,
      "레이디": 1948,
      "▁노라인": 1949,
      "▁오토": 1950,
      "▁오픈": 1951,
      "▁오피스": 1952,
      "▁마샬": 1953,
      "▁점퍼\n": 1954,
      "트라이": 1955,
      "▁코트\n": 1956,
      "▁트렌치": 1957,
      "▁파인": 1958,
      "▁4세대": 1959,
      "▁자켓\n": 1960,
      "▁Hom": 1961,
      "▁크로": 1962,
      "▁더엣지": 1963,
      "▁조끼": 1964,
      "▁조립": 1965,
      "▁ZO": 1966,
      "▁Kle": 1967,
      "▁시그니": 1968,
      "▁사가": 1969,
      "▁하이웨스트": 1970,
      "▁데일리": 1971,
      "▁제닉스": 1972,
      "▁헤비": 1973,
      "▁클럽": 1974,
      "▁PHC4": 1975,
      "▁스마트커버": 1976,
      "▁스마트모니터": 1977,
      "▁한글": 1978,
      "▁커플잠옷": 1979,
      "▁속옷\n": 1980,
      "▁스포츠웨어": 1981,
      "프로렌": 1982,
      "▁다이아": 1983,
      "▁트레이닝복": 1984,
      "▁부클": 1985,
      "▁히트": 1986,
      "▁키보드\n": 1987,
      "▁엠지텍": 1988,
      "▁SL-C": 1989,
      "플러스\n": 1990,
      "▁스커트": 1991,
      "▁SWHCT": 1992,
      "▁NT9": 1993,
      "▁쿠쿠전자": 1994,
      "icro": 1995,
      "▁스타일": 1996,
      "▁헤드셋\n": 1997,
      "▁인스탁스": 1998,
      "▁랄프로렌": 1999,
      "▁체크": 2000,
      "▁스페이스": 2001,
      "▁와이": 2002,
      "▁잇미샤": 2003,
      "▁CRP-": 2004,
      "▁BYC": 2005,
      "▁후지필름": 2006,
      "▁티피링크": 2007,
      "&amp;": 2008,
      "▁펠틱스": 2009,
      "▁Calvin": 2010,
      "▁MORGAN": 2011,
      "▁Klein": 2012,
      ".2": 2013,
      "06": 2014,
      "35\n": 2015,
      "55": 2016,
      "90\n": 2017,
      "Ah": 2018,
      "BM": 2019,
      "D\n": 2020,
      "FG": 2021,
      "IE": 2022,
      "JD": 2023,
      "L\n": 2024,
      "NC": 2025,
      "NE": 2026,
      "OV": 2027,
      "U\n": 2028,
      "WOP": 2029,
      "cm": 2030,
      "ean": 2031,
      "ig": 2032,
      "ke": 2033,
      "lor": 2034,
      "mAh": 2035,
      "nd": 2036,
      "re": 2037,
      "▁결": 2038,
      "▁꽈": 2039,
      "▁대": 2040,
      "▁매": 2041,
      "▁백": 2042,
      "▁뱅": 2043,
      "▁봄": 2044,
      "▁쇼": 2045,
      "▁앱": 2046,
      "▁워": 2047,
      "▁팅": 2048,
      "▁페": 2049,
      "▁해": 2050,
      "▁타입": 2051,
      "거펠": 2052,
      "고속": 2053,
      "기어": 2054,
      "나비": 2055,
      "내복": 2056,
      "다일": 2057,
      "당일": 2058,
      "데즈": 2059,
      "렉션": 2060,
      "로이드": 2061,
      "리밍": 2062,
      "립스": 2063,
      "바인": 2064,
      "방지": 2065,
      "배기": 2066,
      "센셜": 2067,
      "쉴드": 2068,
      "스티": 2069,
      "어드": 2070,
      "엑스": 2071,
      "우드": 2072,
      "우시": 2073,
      "우치": 2074,
      "월드": 2075,
      "웨이": 2076,
      "이슨": 2077,
      "작녀": 2078,
      "장판": 2079,
      "점\n": 2080,
      "츠컷": 2081,
      "카드": 2082,
      "커다일": 2083,
      "컬렉션": 2084,
      "컴바인": 2085,
      "코트\n": 2086,
      "크웨어": 2087,
      "테라": 2088,
      "티\n": 2089,
      "00R": 2090,
      "00원": 2091,
      "▁스튜디오": 2092,
      "▁아웃": 2093,
      "▁SD": 2094,
      "▁SZ": 2095,
      "▁11": 2096,
      "▁아이나비": 2097,
      "▁AMD": 2098,
      "▁C234MSG": 2099,
      "▁카고": 2100,
      "▁코데즈": 2101,
      "▁M.2": 2102,
      "▁L234PSG": 2103,
      "▁T23": 2104,
      "▁BA": 2105,
      "▁마인": 2106,
      "▁브리츠": 2107,
      "▁GN": 2108,
      "▁GGP": 2109,
      "바지\n": 2110,
      "▁숏다운": 2111,
      "▁40": 2112,
      "▁지컷": 2113,
      "▁에어5": 2114,
      "▁맥시": 2115,
      "▁725": 2116,
      "C4FP1": 2117,
      "▁반집업": 2118,
      "▁무선충전": 2119,
      "▁Jean": 2120,
      "▁사생활": 2121,
      "▁키작녀": 2122,
      "▁스마트폰": 2123,
      "▁128GB\n": 2124,
      "▁내복": 2125,
      "▁반팔티": 2126,
      "▁유니": 2127,
      "▁실크": 2128,
      "▁PHD4JP": 2129,
      "▁히든": 2130,
      "컬러\n": 2131,
      "▁세미와이드": 2132,
      "▁EPD4": 2133,
      "▁그레이": 2134,
      "▁에디션\n": 2135,
      "▁라이젠": 2136,
      "N4W": 2137,
      "▁초고속": 2138,
      "▁장패드": 2139,
      "▁칼라거펠": 2140,
      "ent": 2141,
      "▁갤럭시북4": 2142,
      "▁10.9": 2143,
      "▁중기장": 2144,
      "▁호환": 2145,
      "▁선물": 2146,
      "▁스파오": 2147,
      "▁브이넥": 2148,
      "▁필립스": 2149,
      "이너웨어": 2150,
      "▁SOUP": 2151,
      "▁LE12": 2152,
      "▁오리지": 2153,
      "▁NVMe\n": 2154,
      "▁PLUS": 2155,
      "▁크로커다일": 2156,
      "▁결혼": 2157,
      "▁꽈배기": 2158,
      "▁팅크웨어": 2159,
      "▁코데즈컴바인": 2160,
      "▁GGPX": 2161,
      "▁Jeans": 2162,
      "-C": 2163,
      "13": 2164,
      "290": 2165,
      "360": 2166,
      "49": 2167,
      "400\n": 2168,
      "75": 2169,
      "AU": 2170,
      "D9": 2171,
      "GH": 2172,
      "JU": 2173,
      "ME": 2174,
      "MW": 2175,
      "N\n": 2176,
      "NI": 2177,
      "TX": 2178,
      "UR": 2179,
      "W3WH": 2180,
      "XD": 2181,
      "XG": 2182,
      "XM": 2183,
      "at": 2184,
      "rch": 2185,
      "st": 2186,
      "▁걸": 2187,
      "▁공": 2188,
      "▁따": 2189,
      "▁렌": 2190,
      "▁몽": 2191,
      "▁성": 2192,
      "▁엘": 2193,
      "▁차": 2194,
      "▁치": 2195,
      "▁콤": 2196,
      "▁쿨": 2197,
      "▁펜": 2198,
      "▁햄": 2199,
      "▁혼": 2200,
      "▁흰": 2201,
      "▁언더": 2202,
      "▁]\n": 2203,
      "▁계절": 2204,
      "▁엄마": 2205,
      "게이트": 2206,
      "결점\n": 2207,
      "계줄": 2208,
      "나인": 2209,
      "대여": 2210,
      "딩스": 2211,
      "라홀": 2212,
      "렁크": 2213,
      "레스": 2214,
      "레치": 2215,
      "렉스": 2216,
      "렌드": 2217,
      "렙샵": 2218,
      "리어": 2219,
      "리즈": 2220,
      "만원": 2221,
      "미힐": 2222,
      "박스": 2223,
      "버리": 2224,
      "부착": 2225,
      "브리드": 2226,
      "소닉": 2227,
      "아크": 2228,
      "없는": 2229,
      "위생": 2230,
      "음전\n": 2231,
      "인트": 2232,
      "잉크\n": 2233,
      "장\n": 2234,
      "컴즈": 2235,
      "코어": 2236,
      "클랍": 2237,
      "탈부착": 2238,
      "튜브": 2239,
      "프레": 2240,
      "플레이": 2241,
      "피거": 2242,
      "하드": 2243,
      "한잉크\n": 2244,
      "홀더": 2245,
      "▁여름": 2246,
      "▁200": 2247,
      "▁2종\n": 2248,
      "▁여성\n": 2249,
      "▁스킨": 2250,
      "▁스우시": 2251,
      "▁아디다스": 2252,
      "▁S8": 2253,
      "▁S32": 2254,
      "▁SSD": 2255,
      "▁SIE": 2256,
      "▁13": 2257,
      "▁1종\n": 2258,
      "▁1+1": 2259,
      "▁Pro": 2260,
      "▁PPS": 2261,
      "▁AE": 2262,
      "▁Arch": 2263,
      "▁CC": 2264,
      "▁모음전\n": 2265,
      "▁3세대": 2266,
      "▁3매\n": 2267,
      "▁3in1": 2268,
      "▁에센셜": 2269,
      "▁자급제": 2270,
      "▁플러": 2271,
      "▁플리츠": 2272,
      "▁TIT": 2273,
      "▁TFG": 2274,
      "▁53N": 2275,
      "▁무결점\n": 2276,
      "▁BH": 2277,
      "▁NB": 2278,
      "▁오브": 2279,
      "▁하의": 2280,
      "▁패딩점퍼": 2281,
      "▁GMD": 2282,
      "▁WB": 2283,
      "▁울트라기어": 2284,
      "▁로엠": 2285,
      "▁파우치": 2286,
      "▁4K": 2287,
      "▁4종\n": 2288,
      "▁미아크": 2289,
      "▁에어로": 2290,
      "▁UL": 2291,
      "▁크리스": 2292,
      "▁FAU": 2293,
      "▁나시": 2294,
      "▁나이스": 2295,
      "▁브라팬티": 2296,
      "▁커버": 2297,
      "▁커브": 2298,
      "▁빅사이즈\n": 2299,
      "▁베스트": 2300,
      "▁스트레치": 2301,
      "SGJP": 2302,
      "▁시계줄": 2303,
      "▁원피스\n": 2304,
      "▁RM": 2305,
      "▁게이밍\n": 2306,
      "▁제로": 2307,
      "▁제이": 2308,
      "▁루컴즈": 2309,
      "▁인터": 2310,
      "▁9세대": 2311,
      "▁II\n": 2312,
      "▁파자마\n": 2313,
      "▁한라홀": 2314,
      "▁메이": 2315,
      "▁씨게이트": 2316,
      "▁MSD4": 2317,
      "▁정품토너": 2318,
      "ore": 2319,
      "ort": 2320,
      "▁내의": 2321,
      "▁블루종": 2322,
      "▁충전기\n": 2323,
      "▁골덴": 2324,
      "▁256GB\n": 2325,
      "▁갤럭시S24": 2326,
      "▁도톰": 2327,
      "▁방모": 2328,
      "able": 2329,
      "▁마우스\n": 2330,
      "▁외장하드": 2331,
      "E-53N\n": 2332,
      "▁동글": 2333,
      "▁동물": 2334,
      "▁셀렙샵": 2335,
      "▁타미힐": 2336,
      "▁본딩": 2337,
      "▁스웨트": 2338,
      "▁갤럭시워치5": 2339,
      "▁QCY": 2340,
      "BDU": 2341,
      "▁micro": 2342,
      "▁텐셀": 2343,
      "▁이지스": 2344,
      "▁DDR": 2345,
      "▁TWHCTM": 2346,
      "▁보조배터리": 2347,
      "color": 2348,
      "▁EP4TD00": 2349,
      "▁런닝": 2350,
      "▁볼륨": 2351,
      "▁조립PC": 2352,
      "▁한글판": 2353,
      "▁SL-C56": 2354,
      "▁SWHCTM4": 2355,
      "▁NT960": 2356,
      "▁앱코": 2357,
      "▁스튜디오톰보이": 2358,
      "▁오리지널": 2359,
      "▁결혼식": 2360,
      "▁계절가전\n": 2361,
      "▁Archer": 2362,
      "▁TITAN": 2363,
      "▁FAUX": 2364,
      "▁나이스클랍": 2365,
      "▁한라홀딩스": 2366,
      "▁정품토너포함\n": 2367,
      "▁타미힐피거": 2368,
      "▁microSD": 2369,
      "-G": 2370,
      "-L": 2371,
      "-000": 2372,
      "-36": 2373,
      "-Fi": 2374,
      "0W": 2375,
      "05\n": 2376,
      "100\n": 2377,
      "3.": 2378,
      "300": 2379,
      "300\n": 2380,
      "45": 2381,
      "510\n": 2382,
      "69": 2383,
      "61\n": 2384,
      "74": 2385,
      "79": 2386,
      "700": 2387,
      "739": 2388,
      "80\n": 2389,
      "AD": 2390,
      "AW": 2391,
      "B\n": 2392,
      "CG": 2393,
      "DV": 2394,
      "EA": 2395,
      "EU": 2396,
      "FT": 2397,
      "G\n": 2398,
      "H\n": 2399,
      "IO": 2400,
      "IS": 2401,
      "JJ": 2402,
      "LI": 2403,
      "MX": 2404,
      "OC": 2405,
      "P3X": 2406,
      "R\n": 2407,
      "RY": 2408,
      "SK": 2409,
      "SM-": 2410,
      "TEN": 2411,
      "T-K": 2412,
      "XKR": 2413,
      "ew": 2414,
      "ld": 2415,
      "lus": 2416,
      "ou": 2417,
      "ur": 2418,
      "▁n": 2419,
      "▁넥": 2420,
      "▁녹": 2421,
      "▁논": 2422,
      "▁등": 2423,
      "▁롤": 2424,
      "▁박": 2425,
      "▁변": 2426,
      "▁서": 2427,
      "▁쉐": 2428,
      "▁쉘": 2429,
      "▁예": 2430,
      "▁우": 2431,
      "▁운": 2432,
      "▁접": 2433,
      "▁젠": 2434,
      "▁쥬": 2435,
      "▁컨": 2436,
      "▁팔": 2437,
      "▁팰": 2438,
      "▁퓨": 2439,
      "▁허": 2440,
      "▁헬": 2441,
      "▁회": 2442,
      "▁힌": 2443,
      "▁힐": 2444,
      "▁00": 2445,
      "▁침대": 2446,
      "▁생활": 2447,
      "▁트라이": 2448,
      "▁&amp;": 2449,
      "가슴": 2450,
      "가지": 2451,
      "국내": 2452,
      "까프": 2453,
      "내의": 2454,
      "너럴": 2455,
      "도어": 2456,
      "라이어": 2457,
      "런스": 2458,
      "롤러": 2459,
      "루미": 2460,
      "리더": 2461,
      "리버": 2462,
      "리콘": 2463,
      "릭커": 2464,
      "링본": 2465,
      "매장판": 2466,
      "먼스": 2467,
      "몬스터": 2468,
      "발송": 2469,
      "밴딩": 2470,
      "밸런스": 2471,
      "블\n": 2472,
      "소매": 2473,
      "스크": 2474,
      "스타": 2475,
      "스텔": 2476,
      "슬랙스": 2477,
      "신상": 2478,
      "아유": 2479,
      "에스": 2480,
      "이지": 2481,
      "이터": 2482,
      "잔치": 2483,
      "제작": 2484,
      "제품": 2485,
      "제컬렉션": 2486,
      "조절": 2487,
      "체형": 2488,
      "추가": 2489,
      "클럽": 2490,
      "클로": 2491,
      "클릭커": 2492,
      "키즈": 2493,
      "트로": 2494,
      "트레이닝": 2495,
      "트롤러": 2496,
      "펜터": 2497,
      "포켓": 2498,
      "포먼스": 2499,
      "플랜": 2500,
      "플리스": 2501,
      "플립5": 2502,
      "하트": 2503,
      "▁패키지": 2504,
      "▁디키즈": 2505,
      "▁스테": 2506,
      "▁SH": 2507,
      "▁S23": 2508,
      "▁S27": 2509,
      "▁1종": 2510,
      "▁1TB": 2511,
      "▁아이닉": 2512,
      "▁아이리버": 2513,
      "▁남성\n": 2514,
      "▁A7": 2515,
      "▁A라인": 2516,
      "▁카멜": 2517,
      "▁카키": 2518,
      "▁카펜터": 2519,
      "▁케이프": 2520,
      "▁갤럭시Z": 2521,
      "▁LA": 2522,
      "▁롱코트": 2523,
      "▁TOP": 2524,
      "▁Tab": 2525,
      "▁TRY": 2526,
      "▁라인": 2527,
      "리스토어": 2528,
      "▁5매": 2529,
      "▁5종": 2530,
      "▁5세대": 2531,
      "▁무소음": 2532,
      "▁BV": 2533,
      "▁BC3": 2534,
      "▁NJ": 2535,
      "▁노카라": 2536,
      "▁마이": 2537,
      "▁마리오": 2538,
      "▁후아유": 2539,
      "▁EOS": 2540,
      "팬티\n": 2541,
      "2417": 2542,
      "▁다운\n": 2543,
      "▁WD": 2544,
      "▁Win": 2545,
      "▁가상": 2546,
      "▁겨울잠옷": 2547,
      "▁트렁크": 2548,
      "▁로고": 2549,
      "▁로리스토어": 2550,
      "▁파스텔": 2551,
      "▁구스다운\n": 2552,
      "▁지클릭커": 2553,
      "D4V": 2554,
      "▁블렌드": 2555,
      "▁에어4": 2556,
      "▁맥북": 2557,
      "▁보정": 2558,
      "패딩점퍼": 2559,
      "▁아이폰15": 2560,
      "30C": 2561,
      "▁브라\n": 2562,
      "▁715": 2563,
      "▁7.1": 2564,
      "▁니트\n": 2565,
      "▁Z234PSG": 2566,
      "▁핸드메이드코트": 2567,
      "901\n": 2568,
      "▁JA": 2569,
      "▁RGB": 2570,
      "▁RTX": 2571,
      "000XM": 2572,
      "▁하이브리드": 2573,
      "150\n": 2574,
      "▁80": 2575,
      "▁레트로": 2576,
      "▁제너럴": 2577,
      "▁헤링본": 2578,
      "▁인견": 2579,
      "▁917": 2580,
      "▁V2": 2581,
      "▁VOV": 2582,
      "▁경량패딩": 2583,
      "▁메모": 2584,
      "99\n": 2585,
      "9900원": 2586,
      "▁스포츠브라": 2587,
      "▁2021": 2588,
      "▁투명\n": 2589,
      "▁다이슨": 2590,
      "▁유선": 2591,
      "▁재생": 2592,
      "▁골지": 2593,
      "▁실리콘": 2594,
      "▁부츠컷": 2595,
      "▁TWW": 2596,
      "▁방수": 2597,
      "▁64GB\n": 2598,
      "▁상의": 2599,
      "▁라이브": 2600,
      "mm\n": 2601,
      "▁031\n": 2602,
      "▁SAPD": 2603,
      "-A51": 2604,
      "▁배그": 2605,
      "아이디어": 2606,
      "▁MSC4TC": 2607,
      "-1000XM": 2608,
      "▁스커트\n": 2609,
      "▁HDMI": 2610,
      "▁알파플랜": 2611,
      "▁WiFi": 2612,
      "▁Wi-Fi": 2613,
      "▁벤큐": 2614,
      "▁레이스": 2615,
      "▁레이어드": 2616,
      "디지탈": 2617,
      "디지털": 2618,
      "▁MIW": 2619,
      "▁발열내의": 2620,
      "MBO": 2621,
      "▁SM-R": 2622,
      "▁100W": 2623,
      "▁국내매장판": 2624,
      "▁돌잔치": 2625,
      "▁윈터": 2626,
      "▁화이트": 2627,
      "▁워크팬츠": 2628,
      "▁LIGH": 2629,
      "▁Home": 2630,
      "▁PHC4JP": 2631,
      "▁T238": 2632,
      "▁LE1215": 2633,
      "▁크로커다일레이디": 2634,
      "▁코데즈컴바인이너웨어": 2635,
      "▁따뜻": 2636,
      "▁치노": 2637,
      "▁플러피": 2638,
      "▁오브제컬렉션": 2639,
      "▁GMDBDU": 2640,
      "▁ULTR": 2641,
      "▁NT960XG": 2642,
      "▁운동": 2643,
      "▁컨트롤러": 2644,
      "▁회전": 2645,
      "▁힌지": 2646,
      "▁생활가전\n": 2647,
      "▁TOPTEN": 2648,
      "▁7153417": 2649,
      "▁제너럴아이디어": 2650,
      "-A51A\n": 2651,
      "(SWITCH)\n": 2652,
      "-2": 2653,
      "-00": 2654,
      "-01": 2655,
      "-001\n": 2656,
      "15\n": 2657,
      "139": 2658,
      "21\n": 2659,
      "265": 2660,
      "31": 2661,
      "3D": 2662,
      "323": 2663,
      "3FW": 2664,
      "33\n": 2665,
      "48": 2666,
      "460": 2667,
      "52\n": 2668,
      "61": 2669,
      "68": 2670,
      "71\n": 2671,
      "720": 2672,
      "750": 2673,
      "89": 2674,
      "94": 2675,
      "A5": 2676,
      "AG": 2677,
      "AS": 2678,
      "BG": 2679,
      "DA": 2680,
      "DS": 2681,
      "D90": 2682,
      "HL": 2683,
      "J지": 2684,
      "L04": 2685,
      "M8": 2686,
      "M9": 2687,
      "NK": 2688,
      "REL": 2689,
      "S-": 2690,
      "S7": 2691,
      "SL": 2692,
      "ST": 2693,
      "T-": 2694,
      "TA": 2695,
      "TE": 2696,
      "UN": 2697,
      "XC": 2698,
      "X56": 2699,
      "aN": 2700,
      "by": 2701,
      "dow": 2702,
      "hi": 2703,
      "it": 2704,
      "ment": 2705,
      "on": 2706,
      "pe": 2707,
      "ud": 2708,
      "we": 2709,
      "wor": 2710,
      "xt": 2711,
      "ype": 2712,
      "▁c": 2713,
      "▁e": 2714,
      "▁s": 2715,
      "▁광": 2716,
      "▁구": 2717,
      "▁군": 2718,
      "▁금": 2719,
      "▁높": 2720,
      "▁덤": 2721,
      "▁랜": 2722,
      "▁북": 2723,
      "▁뷰": 2724,
      "▁샤": 2725,
      "▁숲": 2726,
      "▁언": 2727,
      "▁얼": 2728,
      "▁연": 2729,
      "▁종": 2730,
      "▁처": 2731,
      "▁캔": 2732,
      "▁케": 2733,
      "▁콜": 2734,
      "▁큰": 2735,
      "▁토": 2736,
      "▁핑": 2737,
      "▁헝": 2738,
      "▁000": 2739,
      "▁ab": 2740,
      "▁당일": 2741,
      "▁위생": 2742,
      "▁탈부착": 2743,
      "가리": 2744,
      "고트": 2745,
      "그램": 2746,
      "기가": 2747,
      "너스": 2748,
      "네이": 2749,
      "노락": 2750,
      "노버": 2751,
      "니트\n": 2752,
      "덕다운": 2753,
      "데님": 2754,
      "드러": 2755,
      "드지": 2756,
      "드로이드": 2757,
      "라글": 2758,
      "라워": 2759,
      "라우드": 2760,
      "로우": 2761,
      "롱패딩": 2762,
      "루프": 2763,
      "리아": 2764,
      "뮤즈": 2765,
      "바이": 2766,
      "배송": 2767,
      "베스트": 2768,
      "벤처": 2769,
      "복구": 2770,
      "브릿": 2771,
      "사지": 2772,
      "셔블": 2773,
      "쇼핑": 2774,
      "스캔": 2775,
      "스텐": 2776,
      "스판": 2777,
      "스포": 2778,
      "에어": 2779,
      "울트라": 2780,
      "월드\n": 2781,
      "유디지탈": 2782,
      "음기": 2783,
      "이트\n": 2784,
      "일러": 2785,
      "지\n": 2786,
      "착보": 2787,
      "체제작": 2788,
      "출고": 2789,
      "카메라": 2790,
      "칼렛": 2791,
      "캉스": 2792,
      "퀘어": 2793,
      "터치": 2794,
      "테크": 2795,
      "텍스": 2796,
      "트리": 2797,
      "파리": 2798,
      "파이": 2799,
      "파자마": 2800,
      "폴로": 2801,
      "플라워": 2802,
      "형\n": 2803,
      "▁디스": 2804,
      "▁디테": 2805,
      "▁2종": 2806,
      "▁2.0": 2807,
      "▁25W": 2808,
      "▁스칼렛": 2809,
      "▁아노락": 2810,
      "▁St": 2811,
      "▁137": 2812,
      "▁1테라": 2813,
      "▁Pal": 2814,
      "▁Port": 2815,
      "▁아이코어": 2816,
      "▁아이뮤즈": 2817,
      "▁AK": 2818,
      "▁Ac": 2819,
      "▁A234": 2820,
      "▁AOC": 2821,
      "▁C\n": 2822,
      "▁CZ": 2823,
      "▁모직": 2824,
      "케이블\n": 2825,
      "▁M2": 2826,
      "▁M7": 2827,
      "▁ML": 2828,
      "▁30": 2829,
      "▁주문": 2830,
      "▁자바": 2831,
      "▁자석": 2832,
      "▁자수": 2833,
      "▁자체제작": 2834,
      "▁프린": 2835,
      "▁프렌치": 2836,
      "▁Type": 2837,
      "2361\n": 2838,
      "▁5000": 2839,
      "레이디스": 2840,
      "▁무한잉크\n": 2841,
      "▁BC": 2842,
      "▁Be": 2843,
      "▁BOS": 2844,
      "▁NJP": 2845,
      "▁하드": 2846,
      "▁(SM-": 2847,
      "▁EV": 2848,
      "▁Ext": 2849,
      "24시": 2850,
      "▁브러": 2851,
      "▁G5": 2852,
      "▁G9": 2853,
      "▁GaN": 2854,
      "▁가정": 2855,
      "103\n": 2856,
      "▁리오": 2857,
      "▁트랙": 2858,
      "▁트리밍": 2859,
      "▁울트라HD": 2860,
      "D49": 2861,
      "D4TR": 2862,
      "▁미쏘": 2863,
      "▁후드집업": 2864,
      "▁에어리": 2865,
      "▁DQ": 2866,
      "▁FB": 2867,
      "▁FHD": 2868,
      "▁캐릭": 2869,
      "▁고프로": 2870,
      "▁아이폰14": 2871,
      "301\n": 2872,
      "▁게임용": 2873,
      "▁68": 2874,
      "▁6세대": 2875,
      "▁60W": 2876,
      "▁나일": 2877,
      "▁77": 2878,
      "▁슬립": 2879,
      "▁드레스": 2880,
      "▁신혼": 2881,
      "▁저소음": 2882,
      "▁LG그램": 2883,
      "C4PP1": 2884,
      "속옷\n": 2885,
      "▁반목": 2886,
      "34\n": 2887,
      "▁퍼포먼스": 2888,
      "▁플러스\n": 2889,
      "▁JJ지": 2890,
      "▁RDS": 2891,
      "스트릿": 2892,
      "▁데스크": 2893,
      "▁데이터": 2894,
      "▁면팬티": 2895,
      "▁88": 2896,
      "▁레더": 2897,
      "▁레빅": 2898,
      "▁레토": 2899,
      "▁레노버": 2900,
      "▁헤어": 2901,
      "▁1500R": 2902,
      "▁루프": 2903,
      "▁와이드팬츠": 2904,
      "▁클라우드": 2905,
      "▁투피스": 2906,
      "▁910": 2907,
      "▁OC": 2908,
      "▁OLED": 2909,
      "▁포유디지탈": 2910,
      "▁II": 2911,
      "▁IN": 2912,
      "▁IP": 2913,
      "▁밴드\n": 2914,
      "▁WIREL": 2915,
      "2510\n": 2916,
      "▁심리스브라": 2917,
      "▁알루미": 2918,
      "▁비스포": 2919,
      "KH\n": 2920,
      "▁WIFI\n": 2921,
      "▁탑텐밸런스": 2922,
      "▁일체형": 2923,
      "▁블랙\n": 2924,
      "1000\n": 2925,
      "ORMX": 2926,
      "▁XL": 2927,
      "▁골드": 2928,
      "▁실버": 2929,
      "▁실내복": 2930,
      "▁홈웨어\n": 2931,
      "▁푸퍼\n": 2932,
      "▁PHD4TR": 2933,
      "▁PHD4PT": 2934,
      "MDJ": 2935,
      "▁바지\n": 2936,
      "▁테리": 2937,
      "361\n": 2938,
      "▁하프코트": 2939,
      "▁긴팔티": 2940,
      "ton": 2941,
      "▁네이": 2942,
      "▁방한": 2943,
      "▁양털": 2944,
      "▁요일": 2945,
      "▁그래픽": 2946,
      "▁상하": 2947,
      "▁데님팬츠": 2948,
      "▁27M": 2949,
      "▁YN4W": 2950,
      "▁터치": 2951,
      "▁밍크퍼": 2952,
      "▁WH-1000XM": 2953,
      "▁블루투스\n": 2954,
      "38C": 2955,
      "▁셀카": 2956,
      "▁타이즈": 2957,
      "▁갤럭시북3": 2958,
      "▁알파스캔": 2959,
      "180\n": 2960,
      "▁본체": 2961,
      "▁필름\n": 2962,
      "▁STUD": 2963,
      "▁STORMX": 2964,
      "▁하객룩": 2965,
      "▁버즈2": 2966,
      "▁포켓몬스터": 2967,
      "▁빈폴레이디스": 2968,
      "▁르까프": 2969,
      "▁드라이기": 2970,
      "▁드라이핏": 2971,
      "N820": 2972,
      "▁보조배터리\n": 2973,
      "▁안드로이드": 2974,
      "▁앤드지": 2975,
      "▁워치6": 2976,
      "한복대여": 2977,
      "▁SM-X": 2978,
      "▁AH460": 2979,
      "▁CLT-K": 2980,
      "▁양모100": 2981,
      "▁TOMBO": 2982,
      "▁파인뷰": 2983,
      "▁파인디지털": 2984,
      "▁시그니처": 2985,
      "▁시그니쳐": 2986,
      "▁사가폭스": 2987,
      "▁히트텍": 2988,
      "▁와이파이": 2989,
      "0610": 2990,
      "BM7": 2991,
      "WOPMK": 2992,
      "mAh\n": 2993,
      "▁뱅뱅": 2994,
      "▁워셔블": 2995,
      "▁L234PSG04": 2996,
      "▁7253417": 2997,
      "C4FP130": 2998,
      "▁사생활보호": 2999,
      "▁칼라거펠트": 3000,
      "store": 3001,
      "▁렌즈": 3002,
      "▁몽클": 3003,
      "▁성인": 3004,
      "▁햄라인": 3005,
      "▁Pro\n": 3006,
      "▁제로스트릿": 3007,
      "▁스웨트셔츠": 3008,
      "▁DDR4": 3009,
      "-36장\n": 3010,
      "▁박서": 3011,
      "▁쉘파": 3012,
      "▁팔월드": 3013,
      "▁BC3X": 3014,
      "▁Window": 3015,
      "▁메모리": 3016,
      "▁LIGHTS": 3017,
      "▁따뜻한": 3018,
      "▁ULTRON": 3019,
      "X56K\n": 3020,
      "world": 3021,
      "▁헝가리": 3022,
      "▁Palworld": 3023,
      "▁Portable": 3024,
      "▁BOSE": 3025,
      "▁NJP3W": 3026,
      "▁JJ지고트": 3027,
      "▁데스크탑": 3028,
      "▁데이터복구": 3029,
      "▁WIRELES": 3030,
      "▁알루미늄": 3031,
      "▁비스포크": 3032,
      "▁STUDIO": 3033,
      "▁TOMBOY": 3034,
      "▁Windows": 3035,
      "-H": 3036,
      "-CH": 3037,
      "-C\n": 3038,
      ".5": 3039,
      ".8": 3040,
      ".9": 3041,
      "/스": 3042,
      "08": 3043,
      "03\n": 3044,
      "1D": 3045,
      "1234": 3046,
      "1W\n": 3047,
      "130\n": 3048,
      "2S": 3049,
      "22\n": 3050,
      "2000": 3051,
      "2F\n": 3052,
      "350\n": 3053,
      "4E": 3054,
      "400": 3055,
      "45\n": 3056,
      "430": 3057,
      "65\n": 3058,
      "600\n": 3059,
      "78": 3060,
      "73\n": 3061,
      "8000": 3062,
      "830\n": 3063,
      "91\n": 3064,
      "93\n": 3065,
      "A-": 3066,
      "A4": 3067,
      "A8": 3068,
      "AF": 3069,
      "ACK": 3070,
      "B1": 3071,
      "BK": 3072,
      "BE\n": 3073,
      "BT\n": 3074,
      "C65": 3075,
      "CP1": 3076,
      "D5": 3077,
      "D8": 3078,
      "ET": 3079,
      "EY": 3080,
      "EAR": 3081,
      "FD\n": 3082,
      "GN": 3083,
      "H2": 3084,
      "HC": 3085,
      "HAM": 3086,
      "IR": 3087,
      "IME": 3088,
      "JI": 3089,
      "KQ": 3090,
      "KU": 3091,
      "K-K": 3092,
      "K하이": 3093,
      "L만": 3094,
      "M20": 3095,
      "MAR": 3096,
      "MI\n": 3097,
      "NT": 3098,
      "NX": 3099,
      "N500": 3100,
      "NC\n": 3101,
      "O-": 3102,
      "OW": 3103,
      "OX": 3104,
      "P\n": 3105,
      "PL": 3106,
      "PW": 3107,
      "P3WH": 3108,
      "QC65": 3109,
      "QD8": 3110,
      "RL": 3111,
      "S5": 3112,
      "S9": 3113,
      "SP": 3114,
      "SY": 3115,
      "SSD": 3116,
      "TM": 3117,
      "TP": 3118,
      "UB": 3119,
      "UI": 3120,
      "UDW": 3121,
      "V\n": 3122,
      "WT": 3123,
      "X\n": 3124,
      "XL": 3125,
      "XFT": 3126,
      "ZD90": 3127,
      "ac": 3128,
      "ay": 3129,
      "der": 3130,
      "ep": 3131,
      "es": 3132,
      "et": 3133,
      "il": 3134,
      "iv": 3135,
      "mo": 3136,
      "ot": 3137,
      "smo": 3138,
      "um": 3139,
      "ux": 3140,
      "ver": 3141,
      "▁w": 3142,
      "▁각": 3143,
      "▁간": 3144,
      "▁개": 3145,
      "▁김": 3146,
      "▁끈": 3147,
      "▁란": 3148,
      "▁래": 3149,
      "▁랩": 3150,
      "▁막": 3151,
      "▁머": 3152,
      "▁몬": 3153,
      "▁뮤": 3154,
      "▁생": 3155,
      "▁샥": 3156,
      "▁셔": 3157,
      "▁손": 3158,
      "▁솔": 3159,
      "▁숨": 3160,
      "▁엔": 3161,
      "▁완": 3162,
      "▁임": 3163,
      "▁잭": 3164,
      "▁즉": 3165,
      "▁짱": 3166,
      "▁착": 3167,
      "▁컬": 3168,
      "▁콘": 3169,
      "▁퀄": 3170,
      "▁퀵": 3171,
      "▁톡": 3172,
      "▁펄": 3173,
      "▁폰": 3174,
      "▁항": 3175,
      "▁헌": 3176,
      "▁사이즈": 3177,
      "▁JP": 3178,
      "▁us": 3179,
      "▁엑스": 3180,
      "▁튜브": 3181,
      "▁hi": 3182,
      "가바": 3183,
      "가복": 3184,
      "계정": 3185,
      "골덴": 3186,
      "공점퍼": 3187,
      "관리": 3188,
      "귤러": 3189,
      "그라": 3190,
      "글런": 3191,
      "깅스": 3192,
      "네스": 3193,
      "네통": 3194,
      "데몬": 3195,
      "도우": 3196,
      "도희": 3197,
      "드로즈": 3198,
      "드브릿": 3199,
      "디큐": 3200,
      "라스": 3201,
      "라이트": 3202,
      "라우스": 3203,
      "란넬": 3204,
      "란트": 3205,
      "럭스": 3206,
      "레송": 3207,
      "렉시블": 3208,
      "로그": 3209,
      "로란트": 3210,
      "롱구스다운": 3211,
      "루가": 3212,
      "룹슨": 3213,
      "리에": 3214,
      "링쉴드": 3215,
      "마르": 3216,
      "마스": 3217,
      "마운": 3218,
      "마칸": 3219,
      "마우스": 3220,
      "머니": 3221,
      "모도": 3222,
      "미닌": 3223,
      "미티드": 3224,
      "믹스": 3225,
      "백화": 3226,
      "밴드": 3227,
      "벤트": 3228,
      "벨티드": 3229,
      "벼운": 3230,
      "보\n": 3231,
      "본체": 3232,
      "봐요": 3233,
      "브릭": 3234,
      "비비안": 3235,
      "삐아": 3236,
      "사양": 3237,
      "산부": 3238,
      "상봉": 3239,
      "셔\n": 3240,
      "수납": 3241,
      "스커": 3242,
      "스텀": 3243,
      "스튜디오": 3244,
      "시리즈": 3245,
      "씨현": 3246,
      "아머": 3247,
      "아일랜드": 3248,
      "안감": 3249,
      "앤올": 3250,
      "양지": 3251,
      "어로": 3252,
      "어스": 3253,
      "언트": 3254,
      "엘\n": 3255,
      "여행": 3256,
      "여공용": 3257,
      "여봐요": 3258,
      "올렛": 3259,
      "용량": 3260,
      "윈프레": 3261,
      "이더": 3262,
      "이브": 3263,
      "이식": 3264,
      "이질": 3265,
      "이조절": 3266,
      "이올렛": 3267,
      "인원": 3268,
      "인하": 3269,
      "임스": 3270,
      "전도": 3271,
      "절기": 3272,
      "점]": 3273,
      "제리": 3274,
      "즘\n": 3275,
      "지피": 3276,
      "진가슴": 3277,
      "차지": 3278,
      "처블": 3279,
      "체티": 3280,
      "촬영": 3281,
      "최신상": 3282,
      "커루": 3283,
      "코튼": 3284,
      "킹형": 3285,
      "타360": 3286,
      "터프": 3287,
      "트로이": 3288,
      "트리밍": 3289,
      "티지": 3290,
      "파엘\n": 3291,
      "패키지": 3292,
      "페라글": 3293,
      "포스": 3294,
      "폰\n": 3295,
      "프\n": 3296,
      "프리": 3297,
      "프린": 3298,
      "플래": 3299,
      "피겐": 3300,
      "픽셀": 3301,
      "필드": 3302,
      "회용": 3303,
      "힐즈": 3304,
      "▁패치": 3305,
      "▁패턴": 3306,
      "▁디럭스": 3307,
      "▁디트로이": 3308,
      "▁남여공용": 3309,
      "▁2장": 3310,
      "▁2컬러": 3311,
      "▁여성용\n": 3312,
      "▁스웻": 3313,
      "▁스팀": 3314,
      "▁스트라이": 3315,
      "▁SSGJP": 3316,
      "▁SK하이": 3317,
      "▁SMI\n": 3318,
      "▁휴양지": 3319,
      "▁Pa": 3320,
      "▁PEN": 3321,
      "▁POL": 3322,
      "▁P33": 3323,
      "▁Plus": 3324,
      "▁PS5": 3325,
      "▁아이보": 3326,
      "▁AB": 3327,
      "▁AS": 3328,
      "▁A34": 3329,
      "▁C234PSG": 3330,
      "▁COL": 3331,
      "▁CAT": 3332,
      "▁모던": 3333,
      "▁모델": 3334,
      "▁모디스": 3335,
      "▁모여봐요": 3336,
      "▁코모도": 3337,
      "▁M1": 3338,
      "▁M5": 3339,
      "▁ME": 3340,
      "▁MK": 3341,
      "▁MX": 3342,
      "▁MEN": 3343,
      "▁3D": 3344,
      "▁3M": 3345,
      "▁3단": 3346,
      "▁3매": 3347,
      "▁3팩": 3348,
      "▁365": 3349,
      "▁3739": 3350,
      "▁에디": 3351,
      "▁에이지": 3352,
      "▁기장": 3353,
      "▁기획": 3354,
      "▁기가바": 3355,
      "▁자가복": 3356,
      "▁플랩": 3357,
      "▁플립5": 3358,
      "▁플란넬": 3359,
      "▁플렉시블": 3360,
      "▁LMS": 3361,
      "▁LTE": 3362,
      "▁롱구스": 3363,
      "▁TSGJP": 3364,
      "▁라벨": 3365,
      "▁라운": 3366,
      "▁라펠": 3367,
      "▁라삐아": 3368,
      "▁라파엘\n": 3369,
      "▁울100": 3370,
      "23\n": 3371,
      "▁558": 3372,
      "▁5600": 3373,
      "▁568": 3374,
      "▁BK": 3375,
      "▁BL": 3376,
      "▁BZ": 3377,
      "▁NA": 3378,
      "▁N234": 3379,
      "▁노스": 3380,
      "▁오프": 3381,
      "▁오닉스": 3382,
      "▁오페라글": 3383,
      "▁하이스": 3384,
      "▁(20": 3385,
      "▁(27": 3386,
      "▁(PS": 3387,
      "▁(국내": 3388,
      "▁(24시": 3389,
      "▁(KQ": 3390,
      "▁남자반": 3391,
      "▁Eke": 3392,
      "▁EWOPMK": 3393,
      "2411": 3394,
      "▁기모바지": 3395,
      "▁기모안감": 3396,
      "▁다운점퍼": 3397,
      "▁다운패딩": 3398,
      "▁브레": 3399,
      "▁브리": 3400,
      "▁G3": 3401,
      "▁GM": 3402,
      "▁GO": 3403,
      "▁Go": 3404,
      "▁가벼운": 3405,
      "106\n": 3406,
      "▁트루": 3407,
      "▁트리": 3408,
      "▁트윈프레": 3409,
      "▁이벤트": 3410,
      "▁이상봉": 3411,
      "▁울트라와이드": 3412,
      "▁로보": 3413,
      "▁파격": 3414,
      "▁4D": 3415,
      "▁4도어": 3416,
      "▁지문": 3417,
      "▁지지피": 3418,
      "▁지포스": 3419,
      "▁미드": 3420,
      "▁미로": 3421,
      "▁블라우스": 3422,
      "▁폴리오": 3423,
      "▁에어메이드": 3424,
      "▁에어클로": 3425,
      "2027": 3426,
      "▁D6": 3427,
      "▁DM": 3428,
      "▁D234PSG": 3429,
      "▁DJI": 3430,
      "▁UNI": 3431,
      "▁맥코트": 3432,
      "▁빅카라": 3433,
      "▁HZ": 3434,
      "▁HL만": 3435,
      "▁크림": 3436,
      "▁크레송": 3437,
      "▁크리에": 3438,
      "▁FIT": 3439,
      "▁FUR": 3440,
      "▁보온": 3441,
      "▁[한복대여": 3442,
      "▁더아이": 3443,
      "▁수트": 3444,
      "패딩\n": 3445,
      "▁고급": 3446,
      "▁고사양": 3447,
      "▁원더": 3448,
      "▁원목": 3449,
      "304": 3450,
      "303\n": 3451,
      "▁69": 3452,
      "▁6종": 3453,
      "▁나인": 3454,
      "필름\n": 3455,
      "▁7세대": 3456,
      "▁71234": 3457,
      "▁커스텀": 3458,
      "▁풀세트\n": 3459,
      "▁드라이어": 3460,
      "▁조이": 3461,
      "▁ZR": 3462,
      "▁Z플립5": 3463,
      "▁정리": 3464,
      "▁정보": 3465,
      "속옷세트": 3466,
      "▁베네통": 3467,
      "501": 3468,
      "501\n": 3469,
      "less": 3470,
      "▁시크": 3471,
      "▁시리즈": 3472,
      "JPD4": 3473,
      "JPM4": 3474,
      "▁원피스잠옷": 3475,
      "115\n": 3476,
      "341\n": 3477,
      "▁퍼카라": 3478,
      "▁RO": 3479,
      "▁사운드": 3480,
      "▁사계절": 3481,
      "▁사파리": 3482,
      "▁면스판": 3483,
      "▁버미어": 3484,
      "▁버버리": 3485,
      "▁버커루": 3486,
      "맨투맨\n": 3487,
      "155\n": 3488,
      "▁올스텐": 3489,
      "▁올인원": 3490,
      "▁게이밍컴퓨터": 3491,
      "▁8세대": 3492,
      "▁870": 3493,
      "▁레귤러": 3494,
      "▁제작": 3495,
      "▁헤론": 3496,
      "▁루앤": 3497,
      "▁푸파": 3498,
      "▁클리어": 3499,
      "▁여자슬랙스": 3500,
      "▁더블니": 3501,
      "▁더블디": 3502,
      "▁더블버튼": 3503,
      "▁OH": 3504,
      "▁On": 3505,
      "▁Osmo": 3506,
      "▁V넥": 3507,
      "▁V234PSG": 3508,
      "▁포터": 3509,
      "▁포함": 3510,
      "▁포인트": 3511,
      "▁팬티\n": 3512,
      "▁맨투맨\n": 3513,
      "▁QLED": 3514,
      "▁QXD": 3515,
      "▁가디건\n": 3516,
      "▁커플파자마": 3517,
      "2520\n": 3518,
      "3WCM": 3519,
      "▁메디큐": 3520,
      "▁128G": 3521,
      "▁128기가": 3522,
      "▁MSI": 3523,
      "▁비버리": 3524,
      "▁USB3.": 3525,
      "▁블루핏": 3526,
      "229": 3527,
      "▁긴바지": 3528,
      "▁유튜브": 3529,
      "▁일회용": 3530,
      "▁블랙박스": 3531,
      "▁풀커버\n": 3532,
      "▁티셔츠\n": 3533,
      "▁오버워치": 3534,
      "▁골전도": 3535,
      "▁PHD4PP": 3536,
      "HDD": 3537,
      "▁갤럭시S22": 3538,
      "▁노와이어브라": 3539,
      "ART": 3540,
      "SW\n": 3541,
      "▁히어로": 3542,
      "▁NEP3X": 3543,
      "▁도도희": 3544,
      "▁도킹형": 3545,
      "▁발로란트": 3546,
      "▁발마칸": 3547,
      "▁칼하트": 3548,
      "▁스트랩\n": 3549,
      "▁남녀공용\n": 3550,
      "▁누디": 3551,
      "▁스탠바이": 3552,
      "▁(MK": 3553,
      "▁그립": 3554,
      "▁리얼핏": 3555,
      "N4D9": 3556,
      "▁바캉스": 3557,
      "▁바이올렛": 3558,
      "▁24M": 3559,
      "▁SL-M20": 3560,
      "513W": 3561,
      "▁배색": 3562,
      "▁WH-CH": 3563,
      "▁외장SSD": 3564,
      "▁외장HDD": 3565,
      "3X30C": 3566,
      "ender": 3567,
      "▁슈피겐": 3568,
      "▁타루가": 3569,
      "▁청바지\n": 3570,
      "▁SWITCH": 3571,
      "▁165\n": 3572,
      "▁NT750": 3573,
      "lay": 3574,
      "▁링케": 3575,
      "▁써마": 3576,
      "자켓\n": 3577,
      "▁스웨터": 3578,
      "구스다운\n": 3579,
      "▁QC65": 3580,
      "▁10.2": 3581,
      "BDO": 3582,
      "▁르샵": 3583,
      "▁인스타360": 3584,
      "▁삼각대\n": 3585,
      "600SW\n": 3586,
      "▁웨딩": 3587,
      "▁셋업\n": 3588,
      "토어\n": 3589,
      "▁스파이더": 3590,
      "▁브이로그": 3591,
      "▁미디엄": 3592,
      "▁앤나인": 3593,
      "▁컴퓨터본체": 3594,
      "한복]": 3595,
      "▁SPJPD4": 3596,
      "▁CLAW": 3597,
      "▁BF3X30C": 3598,
      "▁폴라티": 3599,
      "▁폴라로이드": 3600,
      "▁메탈쉴드": 3601,
      "▁스탠드카라": 3602,
      "▁테이퍼드핏": 3603,
      "1104\n": 3604,
      "224PSG": 3605,
      "own": 3606,
      "▁목폴라": 3607,
      "▁컴포트": 3608,
      "하이저": 3609,
      "▁여성팬티\n": 3610,
      "▁AAB4": 3611,
      "▁플라워": 3612,
      "▁오토비": 3613,
      "▁오픈런": 3614,
      "▁오피스프로": 3615,
      "▁Home\n": 3616,
      "▁ZOC4FP130": 3617,
      "▁스마트커버\n": 3618,
      "▁다이아퀼팅": 3619,
      "▁스타일러스": 3620,
      "JDD4V": 3621,
      "ket": 3622,
      "rem": 3623,
      "reless": 3624,
      "▁대용량": 3625,
      "▁매트": 3626,
      "▁뱅앤올": 3627,
      "▁쇼시": 3628,
      "당일출고": 3629,
      "▁아웃포켓": 3630,
      "▁SD카드": 3631,
      "▁SZA": 3632,
      "▁SZBDO": 3633,
      "▁마인드브릿": 3634,
      "▁GNRL": 3635,
      "▁40mm": 3636,
      "▁PHD4JP24": 3637,
      "▁칼라거펠드": 3638,
      "▁10.9인치": 3639,
      "▁선물\n": 3640,
      "2902\n": 3641,
      "49-00": 3642,
      "▁걸스": 3643,
      "▁걸즈": 3644,
      "▁공주": 3645,
      "▁콤비": 3646,
      "▁혼주": 3647,
      "▁흰티": 3648,
      "▁언더아머": 3649,
      "만원인하": 3650,
      "▁SSDJPM4": 3651,
      "▁SIEK": 3652,
      "▁53N\n": 3653,
      "▁WBC3": 3654,
      "▁크리스탈": 3655,
      "▁크리스마스": 3656,
      "▁커버낫": 3657,
      "▁커브드": 3658,
      "▁시계줄\n": 3659,
      "▁제이씨현": 3660,
      "▁루컴즈전자": 3661,
      "▁인터넷": 3662,
      "▁인터픽셀": 3663,
      "▁메이튼": 3664,
      "▁메이플라워": 3665,
      "▁MSD4TC": 3666,
      "▁동글\n": 3667,
      "▁동물의": 3668,
      "▁TWHCTM800": 3669,
      "color)\n": 3670,
      "▁SWHCTM420": 3671,
      "-GX56K\n": 3672,
      "XKR)\n": 3673,
      "ound": 3674,
      "▁new": 3675,
      "▁녹음기": 3676,
      "▁변색": 3677,
      "▁접이식": 3678,
      "▁젠하이저": 3679,
      "▁쥬크": 3680,
      "▁팰월드\n": 3681,
      "▁퓨전": 3682,
      "▁헬스": 3683,
      "▁힐링쉴드": 3684,
      "가지기장": 3685,
      "리더기\n": 3686,
      "발송)": 3687,
      "▁스테이": 3688,
      "▁LAI": 3689,
      "▁NJW3WH": 3690,
      "▁마이데몬": 3691,
      "▁7.1채널": 3692,
      "▁JAJU": 3693,
      "▁91734": 3694,
      "▁재생토너": 3695,
      "▁T238MDJ": 3696,
      "▁GMDBDU99": 3697,
      "▁715341700": 3698,
      "▁높이조절": 3699,
      "▁덤블": 3700,
      "▁북스": 3701,
      "▁종이질": 3702,
      "▁처진가슴": 3703,
      "▁케네스": 3704,
      "▁콜마르": 3705,
      "▁핑크": 3706,
      "사지기": 3707,
      "착보장": 3708,
      "▁AKG": 3709,
      "▁A234PW": 3710,
      "▁프린팅": 3711,
      "▁Beo": 3712,
      "▁(SM-T": 3713,
      "▁EVO": 3714,
      "▁Extender": 3715,
      "▁가정용\n": 3716,
      "▁리오벨": 3717,
      "▁68cm": 3718,
      "▁나일론": 3719,
      "▁레빅터프": 3720,
      "▁91034": 3721,
      "▁III\n": 3722,
      "▁YN4W58": 3723,
      "▁터치펜": 3724,
      "▁셀카봉": 3725,
      "▁AH460E-53N": 3726,
      "▁CLT-K5": 3727,
      "▁렌즈보호": 3728,
      "▁몽클레어": 3729,
      "▁BC3X38C": 3730,
      "▁WIRELESS\n": 3731,
      "/스팀": 3732,
      "AFXKR)\n": 3733,
      "K-K71": 3734,
      "QC65AFXKR)\n": 3735,
      "epment": 3736,
      "ive": 3737,
      "▁간절기": 3738,
      "▁란제리": 3739,
      "▁막스": 3740,
      "▁몬스타": 3741,
      "▁샥즈": 3742,
      "▁손목": 3743,
      "▁솔리드": 3744,
      "▁완제품": 3745,
      "▁임산부": 3746,
      "▁잭필드": 3747,
      "▁즉석": 3748,
      "▁짱구": 3749,
      "▁퀵차지": 3750,
      "▁톡홀더": 3751,
      "▁폰트리": 3752,
      "▁항공점퍼": 3753,
      "▁usb": 3754,
      "▁histore": 3755,
      "마운트": 3756,
      "▁디트로이트": 3757,
      "▁스트라이프": 3758,
      "▁SK하이닉스": 3759,
      "▁POLHAM": 3760,
      "▁COLMAR": 3761,
      "▁에이지알": 3762,
      "▁기가바이트": 3763,
      "▁자가복원": 3764,
      "▁라삐아프": 3765,
      "▁55849-00": 3766,
      "▁하이스토어\n": 3767,
      "▁Ekeepment": 3768,
      "▁트윈프레셔\n": 3769,
      "▁이벤트속옷": 3770,
      "▁지지피엑스": 3771,
      "▁D234PSG27": 3772,
      "▁HL만도": 3773,
      "▁더아이잗": 3774,
      "▁7123417": 3775,
      "▁버미어\n": 3776,
      "▁메디큐브": 3777,
      "▁비버리힐즈": 3778,
      "▁USB3.0\n": 3779,
      "▁스탠바이미": 3780,
      "▁뱅앤올룹슨": 3781,
      "▁마인드브릿지": 3782,
      "▁제이씨현\n": 3783,
      "▁종이질감": 3784,
      "▁케네스레이디": 3785,
      "(1": 3786,
      "+\n": 3787,
      "+선": 3788,
      "+32": 3789,
      "-4": 3790,
      "-7": 3791,
      "-D": 3792,
      "-M": 3793,
      "-P": 3794,
      "-T": 3795,
      "-01\n": 3796,
      "-1000\n": 3797,
      "/4": 3798,
      "/5": 3799,
      "/20": 3800,
      "011": 3801,
      "0CT": 3802,
      "06\n": 3803,
      "08\n": 3804,
      "050\n": 3805,
      "0JK": 3806,
      "1C": 3807,
      "1E": 3808,
      "1번": 3809,
      "130": 3810,
      "190": 3811,
      "16\n": 3812,
      "13X": 3813,
      "1361\n": 3814,
      "1HC": 3815,
      "2K": 3816,
      "2종": 3817,
      "210": 3818,
      "2234": 3819,
      "215": 3820,
      "2A\n": 3821,
      "26\n": 3822,
      "2KH/A)\n": 3823,
      "2E-53N\n": 3824,
      "32\n": 3825,
      "3000": 3826,
      "325": 3827,
      "36\n": 3828,
      "321": 3829,
      "337": 3830,
      "3-1": 3831,
      "3001\n": 3832,
      "3.1": 3833,
      "3cm": 3834,
      "3KU": 3835,
      "44": 3836,
      "4S": 3837,
      "43\n": 3838,
      "44\n": 3839,
      "4A\n": 3840,
      "4mm": 3841,
      "4E-53N": 3842,
      "4UDW": 3843,
      "51\n": 3844,
      "5)\n": 3845,
      "53\n": 3846,
      "528": 3847,
      "53N": 3848,
      "54T": 3849,
      "543": 3850,
      "535\n": 3851,
      "62": 3852,
      "66": 3853,
      "6M": 3854,
      "624": 3855,
      "610": 3856,
      "650": 3857,
      "645": 3858,
      "6361\n": 3859,
      "77": 3860,
      "7N": 3861,
      "72\n": 3862,
      "7000": 3863,
      "727": 3864,
      "74\n": 3865,
      "77\n": 3866,
      "750\n": 3867,
      "72A\n": 3868,
      "84": 3869,
      "86": 3870,
      "8W": 3871,
      "8핀": 3872,
      "85\n": 3873,
      "820": 3874,
      "800\n": 3875,
      "850\n": 3876,
      "873": 3877,
      "91": 3878,
      "9Z": 3879,
      "900": 3880,
      "920": 3881,
      "939": 3882,
      "98\n": 3883,
      "980": 3884,
      "920\n": 3885,
      "940\n": 3886,
      "915\n": 3887,
      "934\n": 3888,
      "A7": 3889,
      "AO": 3890,
      "ALI": 3891,
      "BP": 3892,
      "BR": 3893,
      "BW": 3894,
      "BIT": 3895,
      "B02\n": 3896,
      "B2361\n": 3897,
      "C-": 3898,
      "CD": 3899,
      "CX": 3900,
      "C컵": 3901,
      "COL": 3902,
      "DC": 3903,
      "DJ": 3904,
      "DO": 3905,
      "D컵": 3906,
      "DAN": 3907,
      "DIT": 3908,
      "DEA": 3909,
      "EB": 3910,
      "EE": 3911,
      "E컵": 3912,
      "EAN": 3913,
      "ECK": 3914,
      "EED": 3915,
      "E265": 3916,
      "E53N": 3917,
      "F0": 3918,
      "F7": 3919,
      "FE": 3920,
      "FP": 3921,
      "FZ": 3922,
      "F16": 3923,
      "G54T": 3924,
      "HP": 3925,
      "HTR": 3926,
      "HC3": 3927,
      "HW\n": 3928,
      "HECK": 3929,
      "IA": 3930,
      "IQ": 3931,
      "IFI": 3932,
      "IOR": 3933,
      "ION": 3934,
      "JL": 3935,
      "JCT": 3936,
      "JHD": 3937,
      "KA": 3938,
      "KS": 3939,
      "KEY": 3940,
      "LA": 3941,
      "LD": 3942,
      "LE": 3943,
      "LX": 3944,
      "L05": 3945,
      "L600SW\n": 3946,
      "M3": 3947,
      "MAN": 3948,
      "M7\n": 3949,
      "MOP": 3950,
      "MC4FP1": 3951,
      "MN500": 3952,
      "N1": 3953,
      "N800": 3954,
      "N9Z": 3955,
      "OMAN": 3956,
      "P4": 3957,
      "PU": 3958,
      "P20": 3959,
      "POL": 3960,
      "PAD": 3961,
      "PD4V": 3962,
      "Play": 3963,
      "PEED": 3964,
      "Q-": 3965,
      "QN": 3966,
      "QW": 3967,
      "Q500": 3968,
      "Q400\n": 3969,
      "Q-A51A\n": 3970,
      "R9": 3971,
      "RU": 3972,
      "RE\n": 3973,
      "RJCT": 3974,
      "T4": 3975,
      "TG": 3976,
      "TN": 3977,
      "T16": 3978,
      "TON": 3979,
      "T350\n": 3980,
      "T873": 3981,
      "UT": 3982,
      "USB": 3983,
      "UJK": 3984,
      "VE": 3985,
      "VT": 3986,
      "V11": 3987,
      "V7N": 3988,
      "WC": 3989,
      "WP": 3990,
      "WIFI": 3991,
      "XE": 3992,
      "XO": 3993,
      "X20": 3994,
      "X3D": 3995,
      "XXO": 3996,
      "YHL": 3997,
      "YD4TR": 3998,
      "YE265": 3999,
      "Z\n": 4000,
      "af": 4001,
      "cket": 4002,
      "caf": 4003,
      "day": 4004,
      "el": 4005,
      "ess": 4006,
      "ecaf": 4007,
      "ff": 4008,
      "ft": 4009,
      "fw": 4010,
      "ht": 4011,
      "hur": 4012,
      "iro": 4013,
      "ies": 4014,
      "ium": 4015,
      "k\n": 4016,
      "kin": 4017,
      "lan": 4018,
      "lig": 4019,
      "more": 4020,
      "od": 4021,
      "ocket": 4022,
      "oft": 4023,
      "port": 4024,
      "pac": 4025,
      "s\n": 4026,
      "sday": 4027,
      "slan": 4028,
      "soft": 4029,
      "un": 4030,
      "ual": 4031,
      "uPAD": 4032,
      "▁-": 4033,
      "▁a": 4034,
      "▁f": 4035,
      "▁p": 4036,
      "▁z": 4037,
      "▁갈": 4038,
      "▁감": 4039,
      "▁곰": 4040,
      "▁글": 4041,
      "▁까": 4042,
      "▁깔": 4043,
      "▁꽃": 4044,
      "▁날": 4045,
      "▁냉": 4046,
      "▁덮": 4047,
      "▁두": 4048,
      "▁릴": 4049,
      "▁만": 4050,
      "▁망": 4051,
      "▁멜": 4052,
      "▁문": 4053,
      "▁물": 4054,
      "▁민": 4055,
      "▁범": 4056,
      "▁별": 4057,
      "▁분": 4058,
      "▁빛": 4059,
      "▁뽕": 4060,
      "▁산": 4061,
      "▁샘": 4062,
      "▁설": 4063,
      "▁섹": 4064,
      "▁센": 4065,
      "▁숄": 4066,
      "▁쌍": 4067,
      "▁씽": 4068,
      "▁얇": 4069,
      "▁왕": 4070,
      "▁욜": 4071,
      "▁용": 4072,
      "▁월": 4073,
      "▁웰": 4074,
      "▁융": 4075,
      "▁점": 4076,
      "▁젤": 4077,
      "▁좋": 4078,
      "▁줄": 4079,
      "▁짐": 4080,
      "▁집": 4081,
      "▁짭": 4082,
      "▁총": 4083,
      "▁축": 4084,
      "▁통": 4085,
      "▁특": 4086,
      "▁판": 4087,
      "▁팜": 4088,
      "▁핀": 4089,
      "▁할": 4090,
      "▁핫": 4091,
      "▁휠": 4092,
      "▁전자": 4093,
      "▁잠옷\n": 4094,
      "▁펜슬": 4095,
      "▁컬러": 4096,
      "▁토너": 4097,
      "▁엣지": 4098,
      "▁톰보이": 4099,
      "▁월드": 4100,
      "▁by": 4101,
      "▁ot": 4102,
      "▁믹스": 4103,
      "가용": 4104,
      "가죽": 4105,
      "같이": 4106,
      "개\n": 4107,
      "객룩": 4108,
      "게스": 4109,
      "견례": 4110,
      "과컴퓨터": 4111,
      "교환": 4112,
      "구로": 4113,
      "구제품": 4114,
      "국정품": 4115,
      "국백화": 4116,
      "그레이": 4117,
      "기업": 4118,
      "기기/": 4119,
      "깔이": 4120,
      "끼털": 4121,
      "나모": 4122,
      "나무": 4123,
      "나이키": 4124,
      "놀로": 4125,
      "니아": 4126,
      "니어": 4127,
      "니우": 4128,
      "다리": 4129,
      "다이아": 4130,
      "단\n": 4131,
      "담곰": 4132,
      "더\n": 4133,
      "더스": 4134,
      "데이": 4135,
      "도기": 4136,
      "도라": 4137,
      "도마": 4138,
      "도조절": 4139,
      "동발송)": 4140,
      "드5": 4141,
      "드웨이": 4142,
      "드벤처": 4143,
      "등록": 4144,
      "디드": 4145,
      "디움": 4146,
      "디바이스": 4147,
      "라시": 4148,
      "라왕": 4149,
      "라클": 4150,
      "라이즈": 4151,
      "래방": 4152,
      "래프트": 4153,
      "랩TM": 4154,
      "레르": 4155,
      "렌디드": 4156,
      "로드": 4157,
      "로미": 4158,
      "로아": 4159,
      "로배송": 4160,
      "롬마": 4161,
      "롬캐": 4162,
      "룩\n": 4163,
      "르디": 4164,
      "르르": 4165,
      "르이너웨어": 4166,
      "리슨": 4167,
      "리안": 4168,
      "리야": 4169,
      "리트\n": 4170,
      "릭키": 4171,
      "마니": 4172,
      "마스터": 4173,
      "마사지기": 4174,
      "머\n": 4175,
      "먼트": 4176,
      "메일": 4177,
      "메이트": 4178,
      "모피": 4179,
      "목티": 4180,
      "무늬": 4181,
      "무선": 4182,
      "무용": 4183,
      "무스탕": 4184,
      "무한잉크\n": 4185,
      "문가용": 4186,
      "물2종": 4187,
      "미국백화": 4188,
      "민기업": 4189,
      "바닉": 4190,
      "바유": 4191,
      "바로배송": 4192,
      "버시": 4193,
      "번짐": 4194,
      "베이": 4195,
      "보안": 4196,
      "복\n": 4197,
      "부부": 4198,
      "부츠컷": 4199,
      "부관리": 4200,
      "북리더": 4201,
      "브\n": 4202,
      "블랙": 4203,
      "블루": 4204,
      "비에": 4205,
      "비전": 4206,
      "상품": 4207,
      "서트": 4208,
      "서포트": 4209,
      "선택": 4210,
      "성민기업": 4211,
      "션캠": 4212,
      "쇄\n": 4213,
      "숏코트": 4214,
      "수령": 4215,
      "쉬는": 4216,
      "쉬드": 4217,
      "쉬테": 4218,
      "슐레이트": 4219,
      "스루": 4220,
      "스뷰": 4221,
      "스턴": 4222,
      "스템": 4223,
      "스톤": 4224,
      "스틱": 4225,
      "스포츠": 4226,
      "스프레": 4227,
      "슬립": 4228,
      "슬링": 4229,
      "시드": 4230,
      "시스템": 4231,
      "씨네트워크": 4232,
      "아로": 4233,
      "아디다스": 4234,
      "안경": 4235,
      "액티브": 4236,
      "어디션": 4237,
      "여성": 4238,
      "여우": 4239,
      "연테크": 4240,
      "예인": 4241,
      "오트": 4242,
      "오피스": 4243,
      "외여행": 4244,
      "용실": 4245,
      "운틴": 4246,
      "원\n": 4247,
      "원경": 4248,
      "원전자": 4249,
      "유기\n": 4250,
      "이코": 4251,
      "이티브": 4252,
      "이벤처": 4253,
      "익미": 4254,
      "인\n": 4255,
      "일즈": 4256,
      "입고": 4257,
      "자수": 4258,
      "자크": 4259,
      "자동발송)": 4260,
      "정]\n": 4261,
      "제임스": 4262,
      "조끼": 4263,
      "조이": 4264,
      "조프린": 4265,
      "존02": 4266,
      "주얼": 4267,
      "주파": 4268,
      "즈노": 4269,
      "증정]\n": 4270,
      "지스": 4271,
      "지컬": 4272,
      "지웨어": 4273,
      "진한복]": 4274,
      "차단": 4275,
      "쳐블": 4276,
      "추천": 4277,
      "츠미": 4278,
      "치온": 4279,
      "컴퍼": 4280,
      "컴오피스": 4281,
      "컵C컵": 4282,
      "케어": 4283,
      "켄지": 4284,
      "코듀로이": 4285,
      "코리아": 4286,
      "큐엠": 4287,
      "크5": 4288,
      "크웨이": 4289,
      "크래프트": 4290,
      "키리스": 4291,
      "타이즈": 4292,
      "탄력": 4293,
      "탄브라": 4294,
      "택\n": 4295,
      "터링": 4296,
      "터샥": 4297,
      "터용": 4298,
      "터네이": 4299,
      "토우": 4300,
      "투시": 4301,
      "투아": 4302,
      "툰3": 4303,
      "트넥": 4304,
      "특전": 4305,
      "티스": 4306,
      "티셔츠": 4307,
      "티디바이스": 4308,
      "티메이트": 4309,
      "패스": 4310,
      "퍼블": 4311,
      "포트\n": 4312,
      "포리오": 4313,
      "프라이어": 4314,
      "프터샥": 4315,
      "플레어": 4316,
      "플렉스": 4317,
      "하스": 4318,
      "하객룩": 4319,
      "학기기/": 4320,
      "한국정품": 4321,
      "해은": 4322,
      "행용": 4323,
      "허브\n": 4324,
      "혼방": 4325,
      "화이트\n": 4326,
      "▁패드\n": 4327,
      "▁패브릭": 4328,
      "▁디자": 4329,
      "▁디씨네트워크": 4330,
      "▁여행용": 4331,
      "0029": 4332,
      "00mAh\n": 4333,
      "▁21": 4334,
      "▁22": 4335,
      "▁29": 4336,
      "▁2X": 4337,
      "▁2단": 4338,
      "▁2배": 4339,
      "▁2000": 4340,
      "▁2TB": 4341,
      "▁2테라": 4342,
      "▁289": 4343,
      "▁2.5": 4344,
      "▁2+32": 4345,
      "▁여성면": 4346,
      "▁여성용": 4347,
      "▁여성잠옷": 4348,
      "▁여성패딩\n": 4349,
      "▁스톤": 4350,
      "▁스토어": 4351,
      "▁스퀘어": 4352,
      "▁스플래": 4353,
      "▁스투시": 4354,
      "▁아미": 4355,
      "▁아킴": 4356,
      "▁아리스": 4357,
      "▁아라시": 4358,
      "▁S펜": 4359,
      "▁SPP": 4360,
      "▁Sla": 4361,
      "▁S43": 4362,
      "▁Swe": 4363,
      "▁Sil": 4364,
      "▁Sound": 4365,
      "▁Skin": 4366,
      "▁휴롬": 4367,
      "▁1팩": 4368,
      "▁1세대": 4369,
      "▁111": 4370,
      "▁112": 4371,
      "▁165": 4372,
      "▁1만원인하": 4373,
      "▁18W": 4374,
      "▁1939": 4375,
      "▁PQ": 4376,
      "▁PU": 4377,
      "▁P34": 4378,
      "▁POW": 4379,
      "▁Prem": 4380,
      "▁PRJCT": 4381,
      "▁Pocket": 4382,
      "다운\n": 4383,
      "▁아이케어": 4384,
      "▁남성용": 4385,
      "▁남성팬티": 4386,
      "▁남성속옷": 4387,
      "▁남성드로즈": 4388,
      "▁AM": 4389,
      "▁AR": 4390,
      "▁AT": 4391,
      "▁A36": 4392,
      "▁A200": 4393,
      "▁APP": 4394,
      "▁A300": 4395,
      "▁ANK": 4396,
      "▁AIR": 4397,
      "▁CP": 4398,
      "▁Co": 4399,
      "▁C234": 4400,
      "▁C56": 4401,
      "▁C27": 4402,
      "▁C32": 4403,
      "▁Cla": 4404,
      "▁C43": 4405,
      "▁COX": 4406,
      "▁CHECK": 4407,
      "▁모임": 4408,
      "케이스": 4409,
      "▁카트": 4410,
      "▁카플레이": 4411,
      "▁카치온": 4412,
      "▁코드웨이": 4413,
      "▁케이탑": 4414,
      "▁케이베스트": 4415,
      "▁MO": 4416,
      "▁My": 4417,
      "▁M20": 4418,
      "▁Mar": 4419,
      "▁Micro": 4420,
      "▁37": 4421,
      "▁3장": 4422,
      "▁360": 4423,
      "▁337": 4424,
      "▁304": 4425,
      "▁373": 4426,
      "▁3가지기장": 4427,
      "▁주름": 4428,
      "▁주연테크": 4429,
      "▁에잇": 4430,
      "▁에스티": 4431,
      "▁LB4": 4432,
      "▁Lit": 4433,
      "▁Lux": 4434,
      "▁Lecaf": 4435,
      "▁롱원피스": 4436,
      "▁롱코트\n": 4437,
      "▁롱스커": 4438,
      "▁모니터받침대": 4439,
      "▁프라": 4440,
      "▁프라이": 4441,
      "▁프롬마": 4442,
      "▁TN": 4443,
      "▁TS": 4444,
      "▁Ti": 4445,
      "▁T21": 4446,
      "▁TL-": 4447,
      "▁TRO": 4448,
      "▁T13": 4449,
      "▁Tou": 4450,
      "▁T13X": 4451,
      "▁TPU": 4452,
      "▁Thur": 4453,
      "▁라도마": 4454,
      "▁라익미": 4455,
      "▁울50": 4456,
      "▁울혼방": 4457,
      "23+\n": 4458,
      "▁5+": 4459,
      "▁50": 4460,
      "▁5A": 4461,
      "▁501": 4462,
      "▁533": 4463,
      "▁5만원": 4464,
      "▁5mm\n": 4465,
      "레이크": 4466,
      "▁무광": 4467,
      "▁BD": 4468,
      "▁B3W": 4469,
      "▁Bla": 4470,
      "▁Bus": 4471,
      "▁BEA": 4472,
      "▁BEAN": 4473,
      "▁NN": 4474,
      "▁N21": 4475,
      "▁NKEY": 4476,
      "▁노이즈": 4477,
      "▁노래방": 4478,
      "▁세인트": 4479,
      "▁세이브": 4480,
      "▁오르": 4481,
      "▁오아로": 4482,
      "▁오조이": 4483,
      "팬츠\n": 4484,
      "▁하고": 4485,
      "▁하찌": 4486,
      "▁하성민기업": 4487,
      "▁패딩\n": 4488,
      "▁(3": 4489,
      "▁(E": 4490,
      "▁(R": 4491,
      "▁(PC": 4492,
      "▁(정품": 4493,
      "▁(T873": 4494,
      "▁마리": 4495,
      "▁마운틴": 4496,
      "▁남자겨울": 4497,
      "▁남자니트": 4498,
      "▁남자맨투맨\n": 4499,
      "▁EL": 4500,
      "▁Eig": 4501,
      "▁E224PSG": 4502,
      "▁EDIT": 4503,
      "▁EQW": 4504,
      "▁EYD4TR": 4505,
      "2401\n": 4506,
      "PC4": 4507,
      "▁카메라\n": 4508,
      "▁기모셋업": 4509,
      "▁G7": 4510,
      "▁GR": 4511,
      "▁GW": 4512,
      "▁G80": 4513,
      "▁GEN": 4514,
      "▁Gen": 4515,
      "▁G-C": 4516,
      "▁G304": 4517,
      "▁GIOR": 4518,
      "▁WOMAN": 4519,
      "▁가족": 4520,
      "102": 4521,
      "101\n": 4522,
      "1010": 4523,
      "104\n": 4524,
      "▁겨울\n": 4525,
      "▁리본": 4526,
      "▁리브": 4527,
      "▁리펠": 4528,
      "▁리미티드": 4529,
      "▁리니어": 4530,
      "▁리진한복]": 4531,
      "▁리큐엠": 4532,
      "▁리하스": 4533,
      "▁트레": 4534,
      "▁트임": 4535,
      "▁프로용": 4536,
      "▁프로360": 4537,
      "▁이북리더": 4538,
      "▁이츠미": 4539,
      "▁23FW\n": 4540,
      "▁23FW최신상": 4541,
      "▁PC4": 4542,
      "▁PC/스팀": 4543,
      "▁PC3-1": 4544,
      "▁벨벳": 4545,
      "▁벨로아": 4546,
      "▁울트라하이": 4547,
      "▁로렌": 4548,
      "▁로브": 4549,
      "▁로우": 4550,
      "▁숏푸": 4551,
      "▁파라": 4552,
      "▁파워": 4553,
      "▁파카": 4554,
      "▁파티": 4555,
      "▁4단": 4556,
      "▁4종": 4557,
      "▁4K\n": 4558,
      "▁45W": 4559,
      "▁4컬러\n": 4560,
      "▁44mm": 4561,
      "▁지스튜디오": 4562,
      "D4ER": 4563,
      "D4FP1": 4564,
      "▁미러": 4565,
      "▁미라클": 4566,
      "▁미용실": 4567,
      "▁미즈노": 4568,
      "▁블프": 4569,
      "▁에어랩TM": 4570,
      "20)": 4571,
      "2010\n": 4572,
      "▁DP": 4573,
      "▁DW": 4574,
      "▁D톤": 4575,
      "▁DEL": 4576,
      "▁Down": 4577,
      "▁Dual": 4578,
      "▁U넥": 4579,
      "▁Und": 4580,
      "▁UTP": 4581,
      "▁H라인": 4582,
      "▁HOO": 4583,
      "▁HCG": 4584,
      "▁크롬캐": 4585,
      "핸드메이드": 4586,
      "▁F1": 4587,
      "▁F24": 4588,
      "▁보아": 4589,
      "▁보이": 4590,
      "▁캐리어": 4591,
      "▁캐주얼": 4592,
      "▁폭스후드": 4593,
      "▁폭스클럽": 4594,
      "▁[도": 4595,
      "▁[네이": 4596,
      "▁[당일출고": 4597,
      "▁[미국백화": 4598,
      "▁더마": 4599,
      "▁더치": 4600,
      "▁더플": 4601,
      "▁고주파": 4602,
      "▁고탄력": 4603,
      "▁원버튼": 4604,
      "307": 4605,
      "301W\n": 4606,
      "30HW\n": 4607,
      "▁65W": 4608,
      "▁6인치": 4609,
      "▁브라캡": 4610,
      "▁7부": 4611,
      "▁7종": 4612,
      "▁75\n": 4613,
      "▁712": 4614,
      "▁7500": 4615,
      "▁커비": 4616,
      "▁풀집": 4617,
      "▁풀컵": 4618,
      "▁풀세트": 4619,
      "▁풀스킨": 4620,
      "▁신부": 4621,
      "▁신구로": 4622,
      "▁저스트": 4623,
      "C4CP1": 4624,
      "▁ZV": 4625,
      "▁Z폴": 4626,
      "▁Z234MSG": 4627,
      "▁ZMC4FP1": 4628,
      "▁소량": 4629,
      "▁소매": 4630,
      "▁소형": 4631,
      "▁소가죽": 4632,
      "와이드팬츠": 4633,
      "▁케이블니트": 4634,
      "5600\n": 4635,
      "▁K5": 4636,
      "▁K10": 4637,
      "▁KHD": 4638,
      "▁베아": 4639,
      "502\n": 4640,
      "503\n": 4641,
      "▁스트릿": 4642,
      "▁스트링": 4643,
      "iness": 4644,
      "▁반후드": 4645,
      "▁반폴라": 4646,
      "▁시즌": 4647,
      "▁시나모": 4648,
      "▁시놀로": 4649,
      "▁시스루": 4650,
      "▁저장장치": 4651,
      "JP2902\n": 4652,
      "1130\n": 4653,
      "34Q": 4654,
      "901": 4655,
      "▁폭스퍼후드": 4656,
      "▁폭스퍼트리밍": 4657,
      "▁니트카라": 4658,
      "▁퍼프": 4659,
      "28\n": 4660,
      "60G": 4661,
      "▁JMW": 4662,
      "▁J2234": 4663,
      "▁사무용": 4664,
      "커버리": 4665,
      "000시리즈": 4666,
      "▁게이트": 4667,
      "▁면티": 4668,
      "▁면바지": 4669,
      "▁면티\n": 4670,
      "▁면도기": 4671,
      "▁874": 4672,
      "▁89900원": 4673,
      "▁8528": 4674,
      "▁8BIT": 4675,
      "▁레인": 4676,
      "▁레깅스": 4677,
      "▁레터링": 4678,
      "▁제우스": 4679,
      "▁헤지스": 4680,
      "▁15W": 4681,
      "▁1570": 4682,
      "▁멀티허브\n": 4683,
      "▁루엠": 4684,
      "▁인조": 4685,
      "▁인이어": 4686,
      "▁인쇄\n": 4687,
      "▁와이드핏": 4688,
      "▁클릭키": 4689,
      "▁여자속옷세트": 4690,
      "17\n": 4691,
      "▁99": 4692,
      "▁9H": 4693,
      "▁900원": 4694,
      "▁ODV": 4695,
      "▁OP3X": 4696,
      "▁Off": 4697,
      "▁VX": 4698,
      "▁애프터샥": 4699,
      "▁액티브": 4700,
      "▁액션캠": 4701,
      "▁포밍": 4702,
      "▁포크5": 4703,
      "▁PHD5": 4704,
      "▁수면잠옷\n": 4705,
      "▁IPS": 4706,
      "▁ISK": 4707,
      "▁Islan": 4708,
      "▁심플": 4709,
      "▁스마트톡": 4710,
      "▁듀플렉스": 4711,
      "▁한컴오피스": 4712,
      "▁WINT": 4713,
      "CTC": 4714,
      "▁메리야": 4715,
      "▁카라넥": 4716,
      "▁갤럭시탭S7": 4717,
      "9900\n": 4718,
      "er\n": 4719,
      "erwe": 4720,
      "eries": 4721,
      "▁씨빅": 4722,
      "▁씨티지": 4723,
      "▁MSC": 4724,
      "▁드로즈\n": 4725,
      "▁정품100": 4726,
      "▁정품무한잉크\n": 4727,
      "▁비너스": 4728,
      "▁10세대": 4729,
      "▁102027": 4730,
      "▁USB3.1": 4731,
      "▁베이지": 4732,
      "21-000": 4733,
      "3910": 4734,
      "3900\n": 4735,
      "3912\n": 4736,
      "프로2": 4737,
      "220\n": 4738,
      "225\n": 4739,
      "3N)": 4740,
      "650\n": 4741,
      "P14": 4742,
      "▁피크": 4743,
      "▁피에스": 4744,
      "▁피부관리": 4745,
      "▁피쉬테": 4746,
      "▁2024": 4747,
      "▁2022": 4748,
      "▁다크": 4749,
      "▁유무선": 4750,
      "▁일리": 4751,
      "▁일본": 4752,
      "▁미니샷": 4753,
      "▁미니12": 4754,
      "▁블랙진": 4755,
      "TR3900\n": 4756,
      "▁재원전자": 4757,
      "▁잠옷바지": 4758,
      "ORT": 4759,
      "▁X&amp;": 4760,
      "▁골든": 4761,
      "▁홈쇼핑": 4762,
      "▁25600": 4763,
      "▁마이크위생": 4764,
      "▁PHD4TC": 4765,
      "ERALI": 4766,
      "164\n": 4767,
      "166\n": 4768,
      "16E-53N": 4769,
      "AR\n": 4770,
      "ARA": 4771,
      "▁부스터": 4772,
      "▁부드러": 4773,
      "▁테일러": 4774,
      "▁MA1": 4775,
      "▁MA-1": 4776,
      "▁TWWOP": 4777,
      "▁고속충전기": 4778,
      "362": 4779,
      "C310\n": 4780,
      "▁도씨": 4781,
      "▁도착보장": 4782,
      "▁하프집업": 4783,
      "▁리버네트워크": 4784,
      "▁밴딩슬랙스": 4785,
      "▁오버핏\n": 4786,
      "▁네모": 4787,
      "▁네스프레": 4788,
      "▁네티스": 4789,
      "▁쉬폰": 4790,
      "▁영구제품": 4791,
      "▁요가": 4792,
      "▁요크": 4793,
      "▁스탠카라": 4794,
      "▁프리싱": 4795,
      "▁프리컷": 4796,
      "▁(MP": 4797,
      "▁(MME": 4798,
      "▁(MM9": 4799,
      "▁(MNX": 4800,
      "▁(MQD8": 4801,
      "▁(MV7N": 4802,
      "▁가을\n": 4803,
      "▁듀얼용": 4804,
      "▁상품": 4805,
      "▁상견례": 4806,
      "▁무지티": 4807,
      "▁리얼\n": 4808,
      "▁에어팟프로2": 4809,
      "8000\n": 4810,
      "800X3D": 4811,
      "N430HW\n": 4812,
      "anmore": 4813,
      "▁0739": 4814,
      "▁바디": 4815,
      "▁바바": 4816,
      "▁엠비에": 4817,
      "▁엠포리오": 4818,
      "▁초경": 4819,
      "▁초경량": 4820,
      "▁24인치": 4821,
      "▁27UP": 4822,
      "▁27GP": 4823,
      "▁SACTC": 4824,
      "▁SL-T16": 4825,
      "▁(2color)\n": 4826,
      "▁수납홀더": 4827,
      "-A58": 4828,
      "2002\n": 4829,
      "584E-53N": 4830,
      "BL\n": 4831,
      "▁YP3WH": 4832,
      "▁YN4D9": 4833,
      "▁배기": 4834,
      "▁배터": 4835,
      "▁야한": 4836,
      "▁장기모": 4837,
      "▁장마우스": 4838,
      "▁CKI": 4839,
      "▁CK언더웨어": 4840,
      "▁모달팬티": 4841,
      "▁MSC4TR": 4842,
      "▁MSC4UI": 4843,
      "▁칼라리스": 4844,
      "▁163cm": 4845,
      "▁카드수납": 4846,
      "▁카드리더기\n": 4847,
      "▁카드케이스": 4848,
      "▁갤럭시북2": 4849,
      "▁32GB\n": 4850,
      "▁32GP": 4851,
      "▁32MN500": 4852,
      "▁32YE265": 4853,
      "▁NT550": 4854,
      "▁HD\n": 4855,
      "2912\n": 4856,
      "M42510\n": 4857,
      "▁쿠로미": 4858,
      "모니터암": 4859,
      "지오지아": 4860,
      "▁스웨터\n": 4861,
      "▁AX15": 4862,
      "▁AX2000": 4863,
      "▁갤럭시워치4": 4864,
      "▁오디언트": 4865,
      "▁Wireless": 4866,
      "▁프로젝트M": 4867,
      "▁이어프리": 4868,
      "▁정장원피스": 4869,
      "▁비비안스킨": 4870,
      "▁10.4": 4871,
      "▁64G\n": 4872,
      "▁Ultra\n": 4873,
      "JKD49": 4874,
      "ice": 4875,
      "▁miro": 4876,
      "▁muPAD": 4877,
      "▁르오트": 4878,
      "▁르투아": 4879,
      "▁벤치": 4880,
      "▁벤투스": 4881,
      "▁전기": 4882,
      "▁전략": 4883,
      "▁전문가용": 4884,
      "▁받침대\n": 4885,
      "▁스타디움": 4886,
      "▁플레이텍스": 4887,
      "▁이너웨어": 4888,
      "▁헤드폰\n": 4889,
      "733\n": 4890,
      "733N)": 4891,
      "EST": 4892,
      "KR\n": 4893,
      "N82520\n": 4894,
      "ss10": 4895,
      "ssport": 4896,
      "▁랄프": 4897,
      "▁선반": 4898,
      "▁어깨": 4899,
      "▁어댑": 4900,
      "▁어니우": 4901,
      "▁어드벤처": 4902,
      "▁웨이코": 4903,
      "▁웨일즈": 4904,
      "▁텐션": 4905,
      "▁텐키리스": 4906,
      "▁스페인": 4907,
      "▁MIXXO": 4908,
      "▁브라탑\n": 4909,
      "▁사각팬티": 4910,
      "▁갤럭시S23플러스": 4911,
      "▁갤럭시S23울트라": 4912,
      "▁TWHCTN820": 4913,
      "▁슈퍼소닉": 4914,
      "MK430": 4915,
      "▁i5": 4916,
      "▁안감": 4917,
      "▁앤커": 4918,
      "▁필터\n": 4919,
      "폴라니트": 4920,
      "▁아우터\n": 4921,
      "▁SET-": 4922,
      "▁SPAO": 4923,
      "▁12.9": 4924,
      "▁AH20": 4925,
      "▁CLBW": 4926,
      "▁롱패딩\n": 4927,
      "▁라이트닝": 4928,
      "▁무스탕\n": 4929,
      "▁오리털": 4930,
      "▁폴라플리스": 4931,
      "▁보호필름": 4932,
      "▁이어폰\n": 4933,
      "▁플레이스테이션5": 4934,
      "▁NVMe": 4935,
      "1102\n": 4936,
      "1103\n": 4937,
      "224MSG": 4938,
      "CM501\n": 4939,
      "▁단추": 4940,
      "▁단품\n": 4941,
      "▁단체티": 4942,
      "▁런칭": 4943,
      "▁목티": 4944,
      "▁볼펜": 4945,
      "▁윈드러": 4946,
      "▁컴플": 4947,
      "▁화이트\n": 4948,
      "▁워크퀘어": 4949,
      "▁ITMB": 4950,
      "▁ITMA": 4951,
      "▁ITNC": 4952,
      "▁ITN9Z": 4953,
      "▁플라핏": 4954,
      "▁플라스틱": 4955,
      "▁오픈형": 4956,
      "▁조립컴퓨터": 4957,
      "▁PHC4TC": 4958,
      "▁한글과컴퓨터": 4959,
      "▁다이아몬": 4960,
      "▁SL-C513W": 4961,
      "▁SWHCTN4": 4962,
      "▁NT940": 4963,
      "▁스타일러": 4964,
      "▁와이셔츠": 4965,
      "▁대체": 4966,
      "▁매장판": 4967,
      "▁쇼트": 4968,
      "▁페더": 4969,
      "▁페이크": 4970,
      "▁페미닌": 4971,
      "▁해비": 4972,
      "▁해리슨": 4973,
      "▁해외여행": 4974,
      "▁C234MSG51": 4975,
      "▁T236M": 4976,
      "▁BAPD": 4977,
      "▁마인크래프트": 4978,
      "▁4060": 4979,
      "▁7252417": 4980,
      "▁무선충전기\n": 4981,
      "▁키작녀\n": 4982,
      "▁키작녀바지\n": 4983,
      "▁유니클로": 4984,
      "▁PHD4JP27": 4985,
      "▁히든밴딩": 4986,
      "▁EPD4JD": 4987,
      "▁EPD4JJ": 4988,
      "▁라이젠5": 4989,
      "▁초고속충전": 4990,
      "▁장패드\n": 4991,
      "▁LE121": 4992,
      "2908\n": 4993,
      "URE": 4994,
      "W3WH4": 4995,
      "▁성해은": 4996,
      "▁엘르이너웨어": 4997,
      "▁차콜": 4998,
      "▁콤보\n": 4999,
      "▁펜톤": 5000,
      "▁햄팬티": 5001,
      "▁혼방": 5002,
      "▁흰색": 5003,
      "▁200-36장\n": 5004,
      "▁20000mAh\n": 5005,
      "▁스킨핏": 5006,
      "▁S32BM7": 5007,
      "▁SSD\n": 5008,
      "▁AEC4": 5009,
      "▁CCW": 5010,
      "▁CC콜렉트": 5011,
      "▁TFG27": 5012,
      "▁TFG34Q": 5013,
      "▁BH584E-53N": 5014,
      "▁WBC4": 5015,
      "▁파우치증정]\n": 5016,
      "▁에어로쿨": 5017,
      "▁에어로핏": 5018,
      "▁커브형\n": 5019,
      "▁RMJDD4V": 5020,
      "▁RMJL": 5021,
      "▁RMJKD49": 5022,
      "▁도톰한": 5023,
      "▁DDR3": 5024,
      "▁TWHCTM80": 5025,
      "color\n": 5026,
      "▁SL-C563W": 5027,
      "▁SL-C563FW": 5028,
      "▁결혼식하객룩": 5029,
      "▁microSDXC": 5030,
      "-LP": 5031,
      "7000\n": 5032,
      "EU1104\n": 5033,
      "JJ1": 5034,
      "XKR\n": 5035,
      "▁넥시": 5036,
      "▁논퀼팅": 5037,
      "▁논슬립": 5038,
      "▁등산": 5039,
      "▁변환": 5040,
      "▁서포트": 5041,
      "▁쉐도우": 5042,
      "▁예뻐": 5043,
      "▁접지": 5044,
      "▁젠더\n": 5045,
      "▁허리": 5046,
      "▁허벅": 5047,
      "▁힐러": 5048,
      "▁00501": 5049,
      "추가)": 5050,
      "트레이닝복": 5051,
      "▁패키지\n": 5052,
      "▁SHURE": 5053,
      "▁갤럭시Z플립5": 5054,
      "▁라인어디션": 5055,
      "▁BV26": 5056,
      "▁Z234PSG18": 5057,
      "▁8011": 5058,
      "▁9172411": 5059,
      "▁TWWSL": 5060,
      "▁라이브쇼핑": 5061,
      "▁MSC4TC3912\n": 5062,
      "▁MIWJHD": 5063,
      "▁SM-R510\n": 5064,
      "▁돌잔치엄마": 5065,
      "▁PHC4JP22": 5066,
      "▁치노팬츠": 5067,
      "▁플러피플리스": 5068,
      "▁NT960XGK-K71": 5069,
      "▁컨트롤러\n": 5070,
      "▁힌지보호": 5071,
      "720N\n": 5072,
      "948\n": 5073,
      "by비비안": 5074,
      "udent": 5075,
      "▁series": 5076,
      "▁광학기기/": 5077,
      "▁구글": 5078,
      "▁군인": 5079,
      "▁금장": 5080,
      "▁랜케이블\n": 5081,
      "▁뷰티디바이스": 5082,
      "▁얼굴": 5083,
      "▁얼티메이트": 5084,
      "▁연예인": 5085,
      "▁캔스톤": 5086,
      "▁캔슬링": 5087,
      "▁큰컵": 5088,
      "▁000원": 5089,
      "▁위생팬티": 5090,
      "폴로클럽": 5091,
      "▁디스플레이": 5092,
      "▁디스커버리": 5093,
      "▁디테처블": 5094,
      "▁디테쳐블": 5095,
      "▁2종세트\n": 5096,
      "▁Stanmore": 5097,
      "▁Student": 5098,
      "▁137980": 5099,
      "▁Acton": 5100,
      "▁MLB": 5101,
      "▁자바라": 5102,
      "▁Type-C\n": 5103,
      "▁5000mAh": 5104,
      "▁BCBG": 5105,
      "▁브러시드": 5106,
      "▁G913": 5107,
      "▁에어리즘\n": 5108,
      "▁FB75": 5109,
      "▁캐릭터": 5110,
      "▁캐릭터\n": 5111,
      "▁신혼부부": 5112,
      "C4PP110": 5113,
      "▁88사이즈": 5114,
      "▁클라우드패딩": 5115,
      "▁투피스세트": 5116,
      "▁XL25": 5117,
      "▁PHD4PT2401\n": 5118,
      "▁네이비": 5119,
      "▁네이처": 5120,
      "▁WH-1000XM5\n": 5121,
      "▁WH-1000XM4\n": 5122,
      "N82020\n": 5123,
      "0610FW": 5124,
      "▁725341711": 5125,
      "▁메모리카드": 5126,
      "▁LIGHTSY": 5127,
      "▁LIGHTSPEED": 5128,
      "▁헝가리구스다운\n": 5129,
      "▁NJP3WM9": 5130,
      "A4341\n": 5131,
      "O-I": 5132,
      "PL)\n": 5133,
      "XFT-A51A\n": 5134,
      "ZD90RU": 5135,
      "▁wi": 5136,
      "▁각도조절": 5137,
      "▁개조프린": 5138,
      "▁래글런": 5139,
      "▁뮤지컬": 5140,
      "▁생리": 5141,
      "▁셔링": 5142,
      "▁숨쉬는": 5143,
      "▁엔산": 5144,
      "▁착장": 5145,
      "▁컬링": 5146,
      "▁콘서트": 5147,
      "▁퀄컴": 5148,
      "▁헌터네이": 5149,
      "▁스웻팬츠": 5150,
      "▁SSGJPM42510\n": 5151,
      "▁Passport": 5152,
      "▁PENTON": 5153,
      "▁아이보리\n": 5154,
      "▁ASJU": 5155,
      "▁C234PSG18": 5156,
      "▁MEX": 5157,
      "▁MK2\n": 5158,
      "▁기장선택": 5159,
      "▁플렉시블\n": 5160,
      "▁라운지웨어": 5161,
      "▁BZ-": 5162,
      "▁노스바유": 5163,
      "▁오페라글라스": 5164,
      "▁(27ART": 5165,
      "▁(PS5)\n": 5166,
      "▁남자반폴라니트": 5167,
      "▁GO3\n": 5168,
      "▁트루젠": 5169,
      "▁이상봉에디션": 5170,
      "▁파격초": 5171,
      "▁4D플러스\n": 5172,
      "▁지문방지": 5173,
      "▁블라우스\n": 5174,
      "▁DM500": 5175,
      "▁크리에이티브": 5176,
      "▁원더브라": 5177,
      "▁드라이어\n": 5178,
      "▁조이콘": 5179,
      "▁정보보안": 5180,
      "▁870L": 5181,
      "▁레귤러핏": 5182,
      "▁OH3WCM": 5183,
      "▁포터블": 5184,
      "▁포함)": 5185,
      "▁QXD8000": 5186,
      "▁PHD4PP20": 5187,
      "▁NEP3XH": 5188,
      "▁WH-CH720N\n": 5189,
      "▁웨딩촬영": 5190,
      "▁컴퓨터본체\n": 5191,
      "▁SPJPD4TG": 5192,
      "▁CLAWDW": 5193,
      "▁컴포트핏": 5194,
      "▁ZOC4FP1306\n": 5195,
      "▁SZBDO32\n": 5196,
      "▁SSDJPM410": 5197,
      "▁WBC3L04": 5198,
      "▁변색방지": 5199,
      "▁LAINE": 5200,
      "▁T238MDJ24": 5201,
      "▁A234PWDA": 5202,
      "▁(SM-T733N)": 5203,
      "▁Extender-A": 5204,
      "▁레빅터프플러스\n": 5205,
      "▁CLT-K510": 5206,
      "▁즉석카메라": 5207,
      "▁비버리힐즈폴로클럽": 5208,
      "+선물2종": 5209,
      "-730": 5210,
      "1HC0": 5211,
      "2K3KH/A)\n": 5212,
      "3KUG\n": 5213,
      "4SE\n": 5214,
      "CX플러스\n": 5215,
      "D컵E컵": 5216,
      "DANO": 5217,
      "F16V": 5218,
      "G54T\n": 5219,
      "HTR0610FW": 5220,
      "POLE": 5221,
      "PD4VU": 5222,
      "light": 5223,
      "▁갈바닉": 5224,
      "▁감탄브라": 5225,
      "▁깔깔이": 5226,
      "▁꽃무늬": 5227,
      "▁덮개": 5228,
      "▁릴렉스": 5229,
      "▁망원경": 5230,
      "▁민소매": 5231,
      "▁범퍼": 5232,
      "▁별의": 5233,
      "▁빛번짐": 5234,
      "▁뽕브라": 5235,
      "▁산리오": 5236,
      "▁샘방지": 5237,
      "▁섹시": 5238,
      "▁쌍안경": 5239,
      "▁씽크웨이": 5240,
      "▁얇은": 5241,
      "▁왕뽕": 5242,
      "▁욜로": 5243,
      "▁용과": 5244,
      "▁웰론": 5245,
      "▁짐웨어": 5246,
      "▁축교환": 5247,
      "▁판도라": 5248,
      "▁핀턱": 5249,
      "▁할머니": 5250,
      "▁핫멜": 5251,
      "▁전자책": 5252,
      "베이직": 5253,
      "이벤처스": 5254,
      "컴퍼니": 5255,
      "▁2.5CX플러스\n": 5256,
      "▁스플래툰3": 5257,
      "▁아리스토우": 5258,
      "▁아라시비전": 5259,
      "▁SPPPD4VU": 5260,
      "▁S43BM7": 5261,
      "▁Silver": 5262,
      "▁SkinIQ": 5263,
      "▁POWER": 5264,
      "▁Premium": 5265,
      "▁A3666": 5266,
      "▁APP\n": 5267,
      "▁ANKER": 5268,
      "▁Class10": 5269,
      "▁Mark": 5270,
      "▁Microsoft": 5271,
      "▁37390": 5272,
      "▁에스티나인": 5273,
      "▁LB41HC0": 5274,
      "▁Lite": 5275,
      "▁Luxe": 5276,
      "▁프라이버시": 5277,
      "▁프롬마치": 5278,
      "▁T218": 5279,
      "▁TROIS": 5280,
      "▁Touch": 5281,
      "▁Thursday": 5282,
      "▁Business": 5283,
      "▁BEAM\n": 5284,
      "▁BEANPOLE": 5285,
      "▁N214UDW": 5286,
      "▁세인트제임스": 5287,
      "▁세이브존02": 5288,
      "▁Eiger": 5289,
      "▁E224PSG18": 5290,
      "▁EDITION": 5291,
      "▁EQWEAR": 5292,
      "▁G80/20": 5293,
      "▁GENERALI": 5294,
      "▁G-CUT": 5295,
      "▁GIORDANO": 5296,
      "▁이북리더기": 5297,
      "▁PC3-128": 5298,
      "▁DELL": 5299,
      "▁Underwe": 5300,
      "▁HOOD": 5301,
      "▁크롬캐스트": 5302,
      "▁[네이버": 5303,
      "▁[미국백화점]": 5304,
      "▁고주파마사지기": 5305,
      "▁7122417": 5306,
      "▁신구로점": 5307,
      "▁시나모롤": 5308,
      "▁시놀로지": 5309,
      "▁85283\n": 5310,
      "▁8BITDO": 5311,
      "▁제우스랩": 5312,
      "▁클릭키\n": 5313,
      "▁Office": 5314,
      "▁PHD5TR3900\n": 5315,
      "▁Island": 5316,
      "▁WINTER": 5317,
      "▁메리야스": 5318,
      "▁피에스이벤처스": 5319,
      "▁피부관리기\n": 5320,
      "▁피쉬테일": 5321,
      "▁X&amp;X": 5322,
      "▁마이크위생커버": 5323,
      "▁PHD4TC29": 5324,
      "▁부드러운": 5325,
      "▁테일러드": 5326,
      "▁네스프레소": 5327,
      "▁영구제품키": 5328,
      "▁(MQD83KH/A)\n": 5329,
      "▁엠비에프": 5330,
      "▁SL-T1670": 5331,
      "-A58A\n": 5332,
      "▁YP3WH830\n": 5333,
      "▁장마우스패드": 5334,
      "▁비비안스킨핏": 5335,
      "▁miro-": 5336,
      "▁어니우니": 5337,
      "▁웨이코스": 5338,
      "▁SET-UP": 5339,
      "▁CLBWDW": 5340,
      "▁윈드러너": 5341,
      "▁플라스틱아일랜드": 5342,
      "▁매장판)": 5343,
      "▁RMJDD4VR": 5344,
      "▁RMJLD4TR": 5345,
      "▁RMJKD49R": 5346,
      "▁917241198": 5347,
      "▁MIWJHDV11": 5348,
      "▁광학기기/용품\n": 5349,
      "ZD90RU-GX56K\n": 5350,
      "▁개조프린터용": 5351,
      "▁헌터네이비": 5352,
      "▁(27ART10": 5353,
      "▁판도라by비비안": 5354,
      "▁Business\n": 5355,
      "▁GENERALIDEA": 5356,
      "▁Underwear": 5357
    },
    "merges": [
      "류 \n",
      "의 류\n",
      "전 \n",
      "가 전\n",
      "▁ 패",
      "▁ 디",
      "▁디 지",
      "▁디지 털",
      "/ 가전\n",
      "션 의류\n",
      "▁패 션의류\n",
      "▁디지털 /가전\n",
      "▁ 여",
      "성 의류\n",
      "▁ 남",
      "▁여 성의류\n",
      "0 0",
      "▁남 성의류\n",
      "▁ 2",
      "▁여 성",
      "▁ 스",
      "리 \n",
      "▁ 아",
      "▁ S",
      "웨 어",
      "서 리\n",
      "세 서리\n",
      "액 세서리\n",
      "잠 옷",
      "▁ 휴",
      "▁ 1",
      "▁휴 대",
      "▁ P",
      "다 운",
      "▁휴대 폰",
      "▁아 이",
      "▁ 삼",
      "전 자",
      "언 더",
      "▁삼 성",
      "언더 웨어",
      "▁남 성",
      "▁휴대폰 액세서리\n",
      "▁ A",
      "잠옷 \n",
      "▁ C",
      "/ 잠옷\n",
      "0 \n",
      "▁ 모",
      "언더웨어 /잠옷\n",
      "케 이",
      "▁ 카",
      "▁ 코",
      "▁ 케이",
      "갤 럭",
      "갤럭 시",
      "▁ M",
      "▁ 갤럭시",
      "기 \n",
      "▁ 3",
      "▁삼성 전자",
      "1 \n",
      "▁ 주",
      "구 스",
      "▁ 에",
      "니 터",
      "▁ 기",
      "▁ 자",
      "▁ 플",
      "▁ L",
      "▁ 롱",
      "기 기\n",
      "▁여성 언더웨어/잠옷\n",
      "▁모 니터",
      "▁ 프",
      "▁ T",
      "▁ 라",
      "리 스",
      "▁ 게",
      "▁ 구스",
      "품 \n",
      "점 퍼",
      "▁ 울",
      "2 3",
      "이 드",
      "▁ 5",
      "▁ 음",
      "향 가전\n",
      "▁음 향가전\n",
      "레 이",
      "▁ 무",
      "▁ B",
      "▁ N",
      "▁ 노",
      "▁ 세",
      "▁ 오",
      "팬 츠",
      "▁ 하",
      "▁패 딩",
      "▁ (",
      "▁ 마",
      "메 라",
      "▁ 후",
      "▁남 자",
      "▁ E",
      "팬 티",
      "▁2 3",
      "2 4",
      "P C",
      "▁카 메라",
      "▁기 모",
      "F W",
      "▁ 다운",
      "▁ 점퍼",
      "겨 울",
      "▁모니터 \n",
      "▁ 브",
      "트 라",
      "▁ G",
      "▁ W",
      "▁코 트",
      ") \n",
      "▁ 가",
      "1 0",
      "▁ 겨울",
      "▁케이 스",
      "▁ 리",
      "▁ 태",
      "블 릿",
      "▁태 블릿",
      "▁ 트",
      "▁프 로",
      "▁ 이",
      "용 품\n",
      "5 \n",
      "/ 캠",
      "더 용품\n",
      "코 더용품\n",
      "▁카메라 /캠",
      "▁카메라/캠 코더용품\n",
      "변 기기\n",
      "트 \n",
      "▁23 FW",
      "바 지",
      "티 드",
      "▁P C",
      "▁태블릿 PC",
      "▁ 벨",
      "G B",
      "엠 듀",
      "▁아이 엠듀",
      "▁울 트라",
      "▁ 로",
      "▁ 숏",
      "▁ 파",
      "피 스",
      "▁ 4",
      "이 즈",
      "▁구스 다운",
      "2 \n",
      "▁ 지",
      "D 4",
      "▁ 미",
      "폭 스",
      "▁후 드",
      "▁벨 티드",
      "▁ 블",
      "▁ 폴",
      "▁에 어",
      "세 대",
      "▁자 켓",
      "2 0",
      "3 \n",
      "▁ D",
      "▁ U",
      "▁ 맥",
      "▁ 빅",
      "▁ H",
      "▁ 크",
      "핸 드",
      "▁ F",
      "▁ 보",
      "▁ 캐",
      "▁주 변기기\n",
      "▁ 폭스",
      "러 스",
      "▁ [",
      "▁ 더",
      "▁ 수",
      "▁ 핸드",
      "패 딩",
      "▁ 고",
      "▁아이 폰",
      "▁ 원",
      "비 \n",
      "사 이즈",
      "3 0",
      "장 비\n",
      "충 전",
      "▁남성 언더웨어/잠옷\n",
      "▁게 임",
      "▁ 6",
      "▁ 나",
      "트 북",
      "필 름",
      "▁노 트북",
      "▁브 라",
      "▁ 7",
      "▁ 슬",
      "▁ 커",
      "▁ 풀",
      "네 트",
      "▁ 니",
      "▁ 드",
      "▁ 신",
      "▁ 저",
      "▁ 조",
      "기 /",
      "메 이드",
      "이 스",
      "▁L G",
      "C 4",
      "▁ Z",
      "이 틀",
      "타 이틀",
      "▁ 소",
      "▁ 정",
      "와 이드",
      "▁케이 블",
      "▁게임 기/",
      "타이틀 \n",
      "▁게임기/ 타이틀\n",
      "▁ 팬츠",
      "방 가전\n",
      "속 옷",
      "▁주 방가전\n",
      "23 4",
      "공 용",
      "패 드",
      "00 \n",
      "▁빅 사이즈",
      "▁LG 전자",
      "5 6",
      "▁ K",
      "▁ 베",
      "▁핸드 메이드",
      "5 0",
      "셔 츠",
      "워 크",
      "▁스 트",
      "S G",
      "i n",
      "l e",
      "▁ 반",
      "▁ 시",
      "장 장",
      "치 \n",
      "▁무 선",
      "▁저 장장",
      "A N",
      "I T",
      "J P",
      "▁원 피스",
      "1 1",
      "3 4",
      "9 0",
      "▁ 티",
      "▁폭스 퍼",
      "▁니 트",
      "▁저장장 치\n",
      "▁ 퍼",
      "라 인",
      "코 트",
      "▁플 러스",
      "▁태블릿PC \n",
      "▁폴 햄",
      "1 0\n",
      "2 8",
      "6 0",
      "▁ J",
      "▁ R",
      "▁ 사",
      "스 트",
      "커 버",
      "00 0",
      "▁게 이",
      "▁세 트",
      "▁하 이",
      "▁케이스 \n",
      "▁신 지",
      "2 7",
      "▁ 강",
      "▁ 데",
      "▁ 면",
      "▁ 버",
      "맨 투",
      "모 루",
      "스 테",
      "▁신지 모루",
      "맨투 맨",
      "1 5",
      "4 \n",
      "▁ 올",
      "보 호",
      "워 치",
      "▁지 오",
      "▁게이 밍",
      "1 2",
      "▁ 8",
      "▁ 레",
      "▁ 멀",
      "▁ 제",
      "▁ 헤",
      "경 량",
      "세 이",
      "자 마",
      "퀼 팅",
      "화 유",
      "▁1 5",
      "▁강 화유",
      "▁멀 티",
      "▁ 루",
      "▁ 인",
      "▁ 푸",
      "▁ 와이드",
      "미 어",
      "이 키",
      "▁S 24",
      "▁자 동",
      "▁고 속",
      "네트 워크",
      "▁강화유 리",
      "] \n",
      "▁ 클",
      "▁ 투",
      "종 \n",
      "지 텍",
      "차 기기\n",
      "▁여 자",
      "▁아이 패드",
      "▁캐 시",
      "▁더 블",
      "▁슬 림",
      "▁자동 차기기\n",
      "1 7",
      "▁ 9",
      "▁ O",
      "▁ V",
      "▁ 애",
      "▁ 액",
      "▁ 포",
      "▁ 팬티",
      "▁ 맨투맨",
      "▁ 경량",
      "디 건",
      "로 이",
      "리 브",
      "▁스 마",
      "▁P H",
      "▁태블릿PC 액세서리\n",
      "▁수 면",
      "▁나 이키",
      "S B",
      "▁ I",
      "▁ Q",
      "▁ 밴",
      "▁ 심",
      "▁ 키",
      "운 드",
      "이 어",
      "프 트",
      "▁가 디건",
      "▁파 자마",
      "▁스마 트",
      "A \n",
      "▁ 듀",
      "▁ 한",
      "▁ 네트워크",
      "급 제",
      "로 즈",
      "미 용",
      "타 입",
      "▁휴대폰 \n",
      "▁W I",
      "▁이 미용",
      "▁커 플",
      "▁캐시 미어",
      "▁애 플",
      "▁네트워크 장비\n",
      "▁이미용 가전\n",
      "2 5",
      "3 W",
      "C T",
      "▁ 거",
      "▁ 메",
      "▁ 속옷",
      "듀 로이",
      "이 트",
      "집 업",
      "카 라",
      "포 츠",
      "▁심 리스",
      "6 \n",
      "7 \n",
      "▁ 알",
      "부 품\n",
      "컴 퓨",
      "▁카 라",
      "▁갤럭시 탭",
      "▁플 리스",
      "레이 닝",
      "▁PC 부품\n",
      "▁조 거",
      "▁액 정",
      "컴퓨 터",
      "9 9",
      "e r",
      "▁ 덕",
      "▁ 씨",
      "디 션",
      "디 어",
      "이 크",
      "치 대",
      "▁스 포츠",
      "▁1 28",
      "▁코 듀로이",
      "▁M S",
      "▁드 로즈",
      "▁정 품",
      "F I",
      "▁ 비",
      "▁ 퀼팅",
      "코 스테",
      "▁1 0",
      "▁라 코스테",
      "리스 트",
      "▁세 트\n",
      "▁U SB",
      "▁맥 세이",
      "▁베 이",
      "▁거 치대",
      "▁액정 보호",
      "▁맥세이 프",
      "2 1",
      "3 9",
      "O O",
      "o r",
      "▁ 내",
      "▁ 닌",
      "▁ 리스트",
      "드 \n",
      "우 스",
      "텐 도",
      "프 로",
      "▁라 운드",
      "▁로 지텍",
      "▁블 루",
      "▁닌 텐도",
      "0 1\n",
      "2 2",
      "3 N",
      "6 5",
      "K H",
      "P 1",
      "P SG",
      "▁ 탑",
      "▁ 피",
      "▁ 공용",
      "자 급제",
      "▁2 0",
      "GB \n",
      "▁[ 자급제",
      "▁반 팔",
      "▁투 명",
      "▁WI FI",
      "▁탑 텐",
      "▁[자급제 ]\n",
      "8 \n",
      "C H",
      "p p",
      "▁ 긴",
      "▁ 다",
      "▁ 유",
      "▁ 일",
      "브 라",
      "▁A pp",
      "▁트 레이닝",
      "▁미 니",
      "▁블 랙",
      "▁풀 커버",
      "▁티 셔츠",
      "▁액정보호 필름",
      "▁App le",
      "T R",
      "▁ 재",
      "▁ 잠옷",
      "▁ 충전",
      "디 스",
      "미 디어",
      "▁오 버",
      "▁멀티 미디어",
      "▁덕 다운",
      "▁베이 직",
      "▁멀티미디어 장비\n",
      "- 5",
      "1 00",
      "C K",
      "E D",
      "L -",
      "O R",
      "▁ X",
      "▁ 골",
      "▁ 실",
      "▁ 홈",
      "기 모",
      "다 노",
      "펜 슬",
      "▁2 56",
      "▁C 타입",
      "▁게 스",
      "▁마 이크",
      "▁PC 액세서리\n",
      "▁크 롭",
      "234 PSG",
      "▁하이 넥",
      "▁지오 다노",
      "▁푸 퍼",
      "▁PH D4",
      "8 0",
      "E R",
      "H D",
      "M D",
      "▁ 바지",
      "와 이어",
      "▁남 녀",
      "▁갤럭시 S",
      "▁노 와이어",
      "▁소 니",
      "/ A",
      "1 6",
      "3 2",
      "A R",
      "S W",
      "a l",
      "▁ /",
      "▁ 부",
      "▁ 테",
      "▁ 히",
      "바 이스",
      "세 트",
      "위 드",
      "이 아",
      "▁M A",
      "▁T W",
      "▁5 G",
      "▁N E",
      "▁고속 충전",
      "3 6",
      "5 0\n",
      "C 3",
      "H CT",
      "S D",
      "▁ 국",
      "▁ 도",
      "▁ 발",
      "▁ 칼",
      "렉 트",
      "시 블",
      "지 아",
      "침 대",
      "컬 러",
      "콜 렉트",
      "▁2 세대",
      "웨어 \n",
      "레이 트",
      "▁세 미",
      "▁하 프",
      "▁E P",
      "▁리 버",
      "▁트 위드",
      "▁숏 패딩",
      "▁노트북 \n",
      "▁케이블 \n",
      "▁스트 랩",
      "▁밴 딩",
      "▁조거 팬츠",
      "KH /A",
      "▁긴 팔",
      "▁오버 핏",
      "▁남녀 공용",
      "0 1",
      "2 0\n",
      "E N",
      "M -",
      "O P",
      "S \n",
      "t o",
      "▁ 네",
      "▁ 누",
      "▁ 방",
      "▁ 쉬",
      "▁ 싱",
      "▁ 양",
      "▁ 영",
      "▁ 온",
      "▁ 외",
      "▁ 요",
      "매 \n",
      "주 변기기\n",
      "채 널",
      "청 바지",
      "편 한",
      "▁스 탠",
      "▁모니터 주변기기\n",
      "▁프 리",
      "▁( M",
      "▁가 을",
      "▁리 바이스",
      "▁6 4",
      "▁키 보",
      "▁듀 얼",
      "KH/A )\n",
      "▁싱 글",
      "1 1\n",
      "W \n",
      "r o",
      "▁ 그",
      "▁ 상",
      "닉 스",
      "미 스",
      "밍 크",
      "씨 콜렉트",
      "타 임",
      "투 스",
      "▁P D",
      "▁에 디션",
      "▁라 이",
      "▁무 지",
      "▁리 얼",
      "▁에어 팟",
      "▁소 프트",
      "IT CH",
      "▁데 님",
      "▁올 리브",
      "▁루 즈",
      "▁애플 펜슬",
      "▁씨 씨콜렉트",
      ". 0",
      "1 4",
      "3 0\n",
      "5 00",
      "7 0",
      "8 00",
      "9 \n",
      "E -5",
      "F M",
      "N 4",
      "R O",
      "a b",
      "a n",
      "m m",
      "▁ 0",
      "▁ 바",
      "▁ 샌",
      "▁ 순",
      "▁ 엠",
      "▁ 초",
      "▁ 집업",
      "▁ 편한",
      "라 이",
      "랙 스",
      "비 안",
      "앤 온",
      "오 버",
      "웍 스",
      "즈 미스",
      "파 집",
      "피 타임",
      "▁2 4",
      "▁2 7",
      "▁S A",
      "▁S L-",
      "▁아이 피타임",
      "▁케이 안",
      "▁주 파집",
      "▁( 2",
      "▁마 우스",
      "▁E FM",
      "▁F E",
      "▁캐 논",
      "▁수 납",
      "네트 웍스",
      "▁K AN",
      "▁스트 레이트",
      "▁지오 지아",
      "디스 크",
      "▁리버 시블",
      "▁쉬 즈미스",
      "▁영 상",
      "▁온 앤온",
      "▁샌 디스크",
      "▁EFM 네트웍스",
      "- A",
      "2 00",
      "3 7",
      "5 1",
      "5 8",
      "B L",
      "E \n",
      "K \n",
      "O L",
      "P -",
      "P S",
      "r a",
      "▁ Y",
      "▁ 배",
      "▁ 야",
      "▁ 장",
      "▁ 캘",
      "▁ 터",
      "▁ 밍크",
      "데 올",
      "래 식",
      "래 픽",
      "랜 드",
      "빈 클",
      "셋 업",
      "아 이",
      "플 러스",
      "▁스 판",
      "▁S 9",
      "▁1 4",
      "▁C K",
      "▁모 달",
      "▁마 그",
      "▁남자 팬티",
      "▁W H",
      "▁풀 오버",
      "▁128 GB",
      "▁MS C4",
      "▁블루 투스",
      "▁재 킷",
      "▁칼 라",
      "▁외 장",
      "▁소프트 웨어\n",
      "E-5 3N",
      "▁순 면",
      "▁영상 가전\n",
      "▁캘 빈클",
      "▁캘빈클 라인",
      "- 1",
      "3 8",
      "3 X",
      "3 KH/A)\n",
      "C \n",
      "I \n",
      "O N",
      "T C",
      "U P",
      "e n",
      "l t",
      "▁ 뉴",
      "▁ 동",
      "▁ 빈",
      "▁ 셀",
      "▁ 슈",
      "▁ 타",
      "▁ 청바지",
      "기 장",
      "네 틱",
      "레 어",
      "리 오",
      "리 츠",
      "받 침대",
      "▁스 커",
      "▁S W",
      "▁1 6",
      "▁카 드",
      "▁코 튼",
      "▁갤럭시 북",
      "▁3 2",
      "▁3 종",
      "▁N T",
      "▁H D",
      "▁노트북 액세서리\n",
      "▁클 래식",
      "▁알 파",
      "▁액정보호필름 \n",
      "▁마이크 로",
      "SW ITCH",
      "▁MA X",
      "채널 )\n",
      "▁올리브 데올",
      "▁(2 채널)\n",
      "▁마그 네틱",
      "SWITCH )\n",
      "▁올리브데올 리브",
      "0 4",
      "1 8",
      "2 9",
      "4 T",
      "M 4",
      "M SG",
      "P D",
      "P P",
      "T S",
      "l a",
      "▁ 극",
      "▁ 링",
      "▁ 본",
      "▁ 써",
      "▁ 진",
      "▁ 쿠",
      "▁ 언더웨어",
      "▁ 필름",
      "▁ to",
      "렌 치",
      "리 닝",
      "모 니터",
      "버 튼",
      "봉 제",
      "생 활",
      "세 사",
      "소 프트",
      "우 터",
      "일 랜드",
      "자 켓",
      "젝 트",
      "지 오",
      "▁스 웨",
      "▁S T",
      "▁삼 각",
      "▁A X",
      "▁갤럭시 워치",
      "구스 다운",
      "▁무 봉제",
      "▁오 디",
      "▁하 객",
      "▁W i",
      "▁프로 젝트",
      "▁이 어",
      "▁U lt",
      "▁보 조",
      "▁Z OO",
      "▁정 장",
      "▁버 즈",
      "▁올 젠",
      "▁포 켓",
      "▁Q C",
      "▁비 비안",
      "▁10 .",
      "▁거치대 \n",
      "▁피 치",
      "▁홈 웨어",
      "▁256 GB",
      "▁64 G",
      "▁야 상",
      "▁빈 폴",
      "▁극 세사",
      "▁Ult ra",
      "▁ZOO C",
      "- K",
      "7 1",
      "B D",
      "D W",
      "G P",
      "J K",
      "M \n",
      "e \n",
      "i c",
      "u s",
      "▁ m",
      "▁ 르",
      "▁ 벤",
      "▁ 전",
      "▁ 중",
      "▁ 호",
      "▁ 받침대",
      "능 성",
      "래 스",
      "랜 텍",
      "성 컴퓨터",
      "셔 널",
      "스 탕",
      "원 피스",
      "이 션",
      "츄 리닝",
      "토 너",
      "틀 넥",
      "후 드",
      "00 1\n",
      "▁2 매\n",
      "▁스 타",
      "▁P RO",
      "▁에 코",
      "▁기 능성",
      "▁플 레이",
      "▁5 12",
      "▁N V",
      "▁이 너",
      "▁PC \n",
      "▁로 랜텍",
      "▁크 루",
      "▁드 라이",
      "▁버 튼",
      "▁헤 드",
      "▁인 스",
      "▁슬림 핏",
      "▁듀 엘",
      "▁한 성컴퓨터",
      "▁애플 워치",
      "▁일 자",
      "▁NE W",
      "▁마이크로 소프트",
      "▁삼각 대",
      ". 1",
      "0 2",
      "1 2\n",
      "2 6",
      "3 3",
      "3 1\n",
      "5 W",
      "6 00",
      "7 3",
      "B 4",
      "E L",
      "E S",
      "F i",
      "K R",
      "N 8",
      "O S",
      "U CK",
      "s s",
      "▁ 랄",
      "▁ 선",
      "▁ 어",
      "▁ 웨",
      "▁ 체",
      "▁ 텐",
      "▁ 핏",
      "▁ 레이",
      "▁ 셋업",
      "▁ 츄리닝",
      "고 이스",
      "그 래픽",
      "디 오",
      "디 지",
      "링 크",
      "미 엄",
      "배 터",
      "세 트\n",
      "소 음",
      "슬 리",
      "엣 지",
      "위 치",
      "인 치",
      "터 \n",
      "토 어",
      "튜 디오",
      "포 트",
      "포 함",
      "▁디지 지",
      "▁스 파",
      "▁스 페",
      "▁휴대 용",
      "▁코 닥",
      "▁M I",
      "▁3 종\n",
      "▁에 고이스",
      "▁기 본",
      "▁브 이",
      "▁가 죽",
      "▁이 지",
      "▁미 디",
      "▁D D",
      "▁맥 스",
      "▁빅 쏘",
      "▁보 브",
      "▁브라 렛",
      "▁브라 탑",
      "▁슬 랙스",
      "234 MSG",
      "in 1",
      "▁시 슬리",
      "34 17",
      "▁사 각",
      "스테 이션",
      "▁푸 마",
      "▁수면 잠옷",
      "3W H",
      "▁알 래스",
      "▁내 셔널",
      "▁갤럭시S 23",
      "▁TW HCT",
      "▁발 열",
      "▁누 빔",
      "▁프리 미엄",
      "▁루즈 핏",
      "▁터 틀넥",
      "▁슈 퍼",
      "지오 그래픽",
      "▁프로젝트 엠",
      "▁보조 배터",
      "▁피치 기모",
      "▁512 GB",
      "▁크루 넥",
      "▁에고이스 트",
      "▁알래스 카",
      "▁내셔널 지오그래픽",
      "0 5",
      "0 2\n",
      "4 3",
      "7 0\n",
      "9 8",
      "F \n",
      "F P1",
      "G AN",
      "M B",
      "M K",
      "T \n",
      "U S",
      "a m",
      "c h",
      "c o",
      "o m",
      "▁ +",
      "▁ i",
      "▁ 안",
      "▁ 앤",
      "▁ 와",
      "▁ 잇",
      "▁ 필",
      "▁ 학",
      "▁ 워치",
      "▁ 컴퓨터",
      "계 절",
      "그 니",
      "니 트",
      "데 이아",
      "리 드",
      "보 이",
      "셋 \n",
      "스 터",
      "스 데이아",
      "습 기기\n",
      "웨 스트",
      "이 너",
      "이 치",
      "이 퍼",
      "일 리",
      "크 \n",
      "폴 라",
      "한 복",
      "▁스 위치",
      "▁아 우터",
      "▁S E",
      "▁S O",
      "▁S P",
      "▁S M-",
      "▁1 2",
      "▁1 00",
      "▁A H",
      "▁C L",
      "▁C R",
      "▁C UCK",
      "▁L E",
      "▁롱 패딩",
      "▁라 이트",
      "▁무 스탕",
      "▁B F",
      "▁B Y",
      "▁오 리",
      "▁( SWITCH)\n",
      "▁후 디",
      "▁후 지",
      "▁후드 티",
      "▁폴 라",
      "▁폴 로",
      "▁보 호",
      "▁핸드 폰",
      "▁팬츠 \n",
      "▁티 피",
      "▁J BL",
      "▁밴 드",
      "▁메 탈",
      "▁라운드 넥",
      "▁로지텍 G",
      "▁20 23",
      "▁충전 기",
      "▁테 이퍼",
      "▁국 내",
      "▁국 산",
      "▁EP 4T",
      "▁양 모",
      "▁요 이치",
      "▁스탠 드",
      "▁키보 드",
      "▁써 스데이아",
      "▁오디 세이",
      "▁이어 폰",
      "▁플레이 스테이션",
      "▁NV M",
      "포함 \n",
      "▁학 습기기\n",
      "▁CUCK OO",
      "▁테이퍼 드",
      "▁EP4T D",
      "▁써스데이아 일랜드",
      "& am",
      "+ 1",
      "- 0",
      "1 9",
      "1 10",
      "2 24",
      "3 5",
      "4 0",
      "4 0\n",
      "5 50",
      "6 0\n",
      "A M",
      "A T",
      "C M",
      "L ED",
      "M A",
      "M I",
      "M S",
      "P T",
      "P P1",
      "T B",
      "U D",
      "a r",
      "o w",
      "p ;",
      "v in",
      "▁ 단",
      "▁ 돌",
      "▁ 런",
      "▁ 목",
      "▁ 볼",
      "▁ 윈",
      "▁ 컴",
      "▁ 펠",
      "▁ 화",
      "▁ 셔츠",
      "▁ 워크",
      "▁ IT",
      "계 식",
      "다 스",
      "디 다스",
      "르 간",
      "립 5",
      "미 샤",
      "스 킨",
      "엄 마",
      "에 디션",
      "용 \n",
      "정 품",
      "쿠 전자",
      "키 지",
      "탁 스",
      "톰 보이",
      "티 브",
      "틱 스",
      "하 이",
      "▁패 드",
      "▁여성 팬티",
      "▁P L",
      "▁A A",
      "▁C al",
      "▁모 르간",
      "▁M OR",
      "▁3 .0",
      "▁기 계식",
      "▁플 라",
      "▁플 레어",
      "▁L I",
      "▁L ED",
      "▁롱 다운",
      "▁T O",
      "레이 디",
      "▁노 라인",
      "▁오 토",
      "▁오 픈",
      "▁오 피스",
      "▁마 샬",
      "▁점퍼 \n",
      "트라 이",
      "▁코트 \n",
      "▁트 렌치",
      "▁파 인",
      "▁4 세대",
      "▁자켓 \n",
      "▁H om",
      "▁크 로",
      "▁더 엣지",
      "▁조 끼",
      "▁조 립",
      "▁Z O",
      "▁K le",
      "▁시 그니",
      "▁사 가",
      "▁하이 웨스트",
      "▁데 일리",
      "▁제 닉스",
      "▁헤 비",
      "▁클 럽",
      "▁PH C4",
      "▁스마트 커버",
      "▁스마트 모니터",
      "▁한 글",
      "▁커플 잠옷",
      "▁속옷 \n",
      "▁스포츠 웨어",
      "프로 렌",
      "▁다 이아",
      "▁트레이닝 복",
      "▁부 클",
      "▁히 트",
      "▁키보 드\n",
      "▁엠 지텍",
      "▁SL- C",
      "플러스 \n",
      "▁스커 트",
      "▁SW HCT",
      "▁NT 9",
      "▁쿠 쿠전자",
      "ic ro",
      "▁스타 일",
      "▁헤드 셋\n",
      "▁인스 탁스",
      "▁랄 프로렌",
      "▁체 크",
      "▁스페 이스",
      "▁와 이",
      "▁잇 미샤",
      "▁CR P-",
      "▁BY C",
      "▁후지 필름",
      "▁티피 링크",
      "&am p;",
      "▁펠 틱스",
      "▁Cal vin",
      "▁MOR GAN",
      "▁Kle in",
      ". 2",
      "0 6",
      "3 5\n",
      "5 5",
      "9 0\n",
      "A h",
      "B M",
      "D \n",
      "F G",
      "I E",
      "J D",
      "L \n",
      "N C",
      "N E",
      "O V",
      "U \n",
      "W OP",
      "c m",
      "e an",
      "i g",
      "k e",
      "l or",
      "m Ah",
      "n d",
      "r e",
      "▁ 결",
      "▁ 꽈",
      "▁ 대",
      "▁ 매",
      "▁ 백",
      "▁ 뱅",
      "▁ 봄",
      "▁ 쇼",
      "▁ 앱",
      "▁ 워",
      "▁ 팅",
      "▁ 페",
      "▁ 해",
      "▁ 타입",
      "거 펠",
      "고 속",
      "기 어",
      "나 비",
      "내 복",
      "다 일",
      "당 일",
      "데 즈",
      "렉 션",
      "로 이드",
      "리 밍",
      "립 스",
      "바 인",
      "방 지",
      "배 기",
      "센 셜",
      "쉴 드",
      "스 티",
      "어 드",
      "엑 스",
      "우 드",
      "우 시",
      "우 치",
      "월 드",
      "웨 이",
      "이 슨",
      "작 녀",
      "장 판",
      "점 \n",
      "츠 컷",
      "카 드",
      "커 다일",
      "컬 렉션",
      "컴 바인",
      "코 트\n",
      "크 웨어",
      "테 라",
      "티 \n",
      "00 R",
      "00 원",
      "▁스 튜디오",
      "▁아 웃",
      "▁S D",
      "▁S Z",
      "▁1 1",
      "▁아이 나비",
      "▁A MD",
      "▁C 234MSG",
      "▁카 고",
      "▁코 데즈",
      "▁M .2",
      "▁L 234PSG",
      "▁T 23",
      "▁B A",
      "▁마 인",
      "▁브 리츠",
      "▁G N",
      "▁G GP",
      "바지 \n",
      "▁숏 다운",
      "▁4 0",
      "▁지 컷",
      "▁에어 5",
      "▁맥 시",
      "▁7 25",
      "C4 FP1",
      "▁반 집업",
      "▁무선 충전",
      "▁J ean",
      "▁사 생활",
      "▁키 작녀",
      "▁스마트 폰",
      "▁128 GB\n",
      "▁내 복",
      "▁반팔 티",
      "▁유 니",
      "▁실 크",
      "▁PHD4 JP",
      "▁히 든",
      "컬러 \n",
      "▁세미 와이드",
      "▁EP D4",
      "▁그 레이",
      "▁에디션 \n",
      "▁라이 젠",
      "N4 W",
      "▁초 고속",
      "▁장 패드",
      "▁칼라 거펠",
      "en t",
      "▁갤럭시북 4",
      "▁10. 9",
      "▁중 기장",
      "▁호 환",
      "▁선 물",
      "▁스파 오",
      "▁브이 넥",
      "▁필 립스",
      "이너 웨어",
      "▁SO UP",
      "▁LE 12",
      "▁오리 지",
      "▁NVM e\n",
      "▁PL US",
      "▁크로 커다일",
      "▁결 혼",
      "▁꽈 배기",
      "▁팅 크웨어",
      "▁코데즈 컴바인",
      "▁GGP X",
      "▁Jean s",
      "- C",
      "1 3",
      "2 90",
      "3 60",
      "4 9",
      "4 00\n",
      "7 5",
      "A U",
      "D 9",
      "G H",
      "J U",
      "M E",
      "M W",
      "N \n",
      "N I",
      "T X",
      "U R",
      "W 3WH",
      "X D",
      "X G",
      "X M",
      "a t",
      "r ch",
      "s t",
      "▁ 걸",
      "▁ 공",
      "▁ 따",
      "▁ 렌",
      "▁ 몽",
      "▁ 성",
      "▁ 엘",
      "▁ 차",
      "▁ 치",
      "▁ 콤",
      "▁ 쿨",
      "▁ 펜",
      "▁ 햄",
      "▁ 혼",
      "▁ 흰",
      "▁ 언더",
      "▁ ]\n",
      "▁ 계절",
      "▁ 엄마",
      "게 이트",
      "결 점\n",
      "계 줄",
      "나 인",
      "대 여",
      "딩 스",
      "라 홀",
      "렁 크",
      "레 스",
      "레 치",
      "렉 스",
      "렌 드",
      "렙 샵",
      "리 어",
      "리 즈",
      "만 원",
      "미 힐",
      "박 스",
      "버 리",
      "부 착",
      "브 리드",
      "소 닉",
      "아 크",
      "없 는",
      "위 생",
      "음 전\n",
      "인 트",
      "잉 크\n",
      "장 \n",
      "컴 즈",
      "코 어",
      "클 랍",
      "탈 부착",
      "튜 브",
      "프 레",
      "플 레이",
      "피 거",
      "하 드",
      "한 잉크\n",
      "홀 더",
      "▁여 름",
      "▁2 00",
      "▁2 종\n",
      "▁여성 \n",
      "▁스 킨",
      "▁스 우시",
      "▁아 디다스",
      "▁S 8",
      "▁S 32",
      "▁S SD",
      "▁S IE",
      "▁1 3",
      "▁1 종\n",
      "▁1 +1",
      "▁P ro",
      "▁P PS",
      "▁A E",
      "▁A rch",
      "▁C C",
      "▁모 음전\n",
      "▁3 세대",
      "▁3 매\n",
      "▁3 in1",
      "▁에 센셜",
      "▁자 급제",
      "▁플 러",
      "▁플 리츠",
      "▁T IT",
      "▁T FG",
      "▁5 3N",
      "▁무 결점\n",
      "▁B H",
      "▁N B",
      "▁오 브",
      "▁하 의",
      "▁패딩 점퍼",
      "▁G MD",
      "▁W B",
      "▁울트라 기어",
      "▁로 엠",
      "▁파 우치",
      "▁4 K",
      "▁4 종\n",
      "▁미 아크",
      "▁에어 로",
      "▁U L",
      "▁크 리스",
      "▁F AU",
      "▁나 시",
      "▁나 이스",
      "▁브라 팬티",
      "▁커 버",
      "▁커 브",
      "▁빅사이즈 \n",
      "▁베 스트",
      "▁스트 레치",
      "SG JP",
      "▁시 계줄",
      "▁원피스 \n",
      "▁R M",
      "▁게이밍 \n",
      "▁제 로",
      "▁제 이",
      "▁루 컴즈",
      "▁인 터",
      "▁9 세대",
      "▁I I\n",
      "▁파자마 \n",
      "▁한 라홀",
      "▁메 이",
      "▁씨 게이트",
      "▁MS D4",
      "▁정품 토너",
      "or e",
      "or t",
      "▁내 의",
      "▁블루 종",
      "▁충전 기\n",
      "▁골 덴",
      "▁256 GB\n",
      "▁갤럭시S 24",
      "▁도 톰",
      "▁방 모",
      "ab le",
      "▁마우스 \n",
      "▁외장 하드",
      "E-53N \n",
      "▁동 글",
      "▁동 물",
      "▁셀 렙샵",
      "▁타 미힐",
      "▁본 딩",
      "▁스웨 트",
      "▁갤럭시워치 5",
      "▁QC Y",
      "BD U",
      "▁m icro",
      "▁텐 셀",
      "▁이지 스",
      "▁DD R",
      "▁TWHCT M",
      "▁보조배터 리",
      "co lor",
      "▁EP4TD 00",
      "▁런 닝",
      "▁볼 륨",
      "▁조립 PC",
      "▁한글 판",
      "▁SL-C 56",
      "▁SWHCT M4",
      "▁NT9 60",
      "▁앱 코",
      "▁스튜디오 톰보이",
      "▁오리지 널",
      "▁결혼 식",
      "▁계절 가전\n",
      "▁Arch er",
      "▁TIT AN",
      "▁FAU X",
      "▁나이스 클랍",
      "▁한라홀 딩스",
      "▁정품토너 포함\n",
      "▁타미힐 피거",
      "▁micro SD",
      "- G",
      "- L",
      "- 000",
      "- 36",
      "- Fi",
      "0 W",
      "0 5\n",
      "1 00\n",
      "3 .",
      "3 00",
      "3 00\n",
      "4 5",
      "5 10\n",
      "6 9",
      "6 1\n",
      "7 4",
      "7 9",
      "7 00",
      "7 39",
      "8 0\n",
      "A D",
      "A W",
      "B \n",
      "C G",
      "D V",
      "E A",
      "E U",
      "F T",
      "G \n",
      "H \n",
      "I O",
      "I S",
      "J J",
      "L I",
      "M X",
      "O C",
      "P 3X",
      "R \n",
      "R Y",
      "S K",
      "S M-",
      "T EN",
      "T -K",
      "X KR",
      "e w",
      "l d",
      "l us",
      "o u",
      "u r",
      "▁ n",
      "▁ 넥",
      "▁ 녹",
      "▁ 논",
      "▁ 등",
      "▁ 롤",
      "▁ 박",
      "▁ 변",
      "▁ 서",
      "▁ 쉐",
      "▁ 쉘",
      "▁ 예",
      "▁ 우",
      "▁ 운",
      "▁ 접",
      "▁ 젠",
      "▁ 쥬",
      "▁ 컨",
      "▁ 팔",
      "▁ 팰",
      "▁ 퓨",
      "▁ 허",
      "▁ 헬",
      "▁ 회",
      "▁ 힌",
      "▁ 힐",
      "▁ 00",
      "▁ 침대",
      "▁ 생활",
      "▁ 트라이",
      "▁ &amp;",
      "가 슴",
      "가 지",
      "국 내",
      "까 프",
      "내 의",
      "너 럴",
      "도 어",
      "라 이어",
      "런 스",
      "롤 러",
      "루 미",
      "리 더",
      "리 버",
      "리 콘",
      "릭 커",
      "링 본",
      "매 장판",
      "먼 스",
      "몬 스터",
      "발 송",
      "밴 딩",
      "밸 런스",
      "블 \n",
      "소 매",
      "스 크",
      "스 타",
      "스 텔",
      "슬 랙스",
      "신 상",
      "아 유",
      "에 스",
      "이 지",
      "이 터",
      "잔 치",
      "제 작",
      "제 품",
      "제 컬렉션",
      "조 절",
      "체 형",
      "추 가",
      "클 럽",
      "클 로",
      "클 릭커",
      "키 즈",
      "트 로",
      "트 레이닝",
      "트 롤러",
      "펜 터",
      "포 켓",
      "포 먼스",
      "플 랜",
      "플 리스",
      "플 립5",
      "하 트",
      "▁패 키지",
      "▁디 키즈",
      "▁스 테",
      "▁S H",
      "▁S 23",
      "▁S 27",
      "▁1 종",
      "▁1 TB",
      "▁아이 닉",
      "▁아이 리버",
      "▁남성 \n",
      "▁A 7",
      "▁A 라인",
      "▁카 멜",
      "▁카 키",
      "▁카 펜터",
      "▁케이 프",
      "▁갤럭시 Z",
      "▁L A",
      "▁롱 코트",
      "▁T OP",
      "▁T ab",
      "▁T RY",
      "▁라 인",
      "리스 토어",
      "▁5 매",
      "▁5 종",
      "▁5 세대",
      "▁무 소음",
      "▁B V",
      "▁B C3",
      "▁N J",
      "▁노 카라",
      "▁마 이",
      "▁마 리오",
      "▁후 아유",
      "▁E OS",
      "팬티 \n",
      "24 17",
      "▁다운 \n",
      "▁W D",
      "▁W in",
      "▁가 상",
      "▁겨울 잠옷",
      "▁트 렁크",
      "▁로 고",
      "▁로 리스토어",
      "▁파 스텔",
      "▁구스다운 \n",
      "▁지 클릭커",
      "D4 V",
      "▁블 렌드",
      "▁에어 4",
      "▁맥 북",
      "▁보 정",
      "패딩 점퍼",
      "▁아이폰 15",
      "30 C",
      "▁브라 \n",
      "▁7 15",
      "▁7 .1",
      "▁니 트\n",
      "▁Z 234PSG",
      "▁핸드메이드 코트",
      "90 1\n",
      "▁J A",
      "▁R GB",
      "▁R TX",
      "000 XM",
      "▁하이 브리드",
      "15 0\n",
      "▁8 0",
      "▁레 트로",
      "▁제 너럴",
      "▁헤 링본",
      "▁인 견",
      "▁9 17",
      "▁V 2",
      "▁V OV",
      "▁경량 패딩",
      "▁메 모",
      "99 \n",
      "99 00원",
      "▁스포츠 브라",
      "▁20 21",
      "▁투명 \n",
      "▁다 이슨",
      "▁유 선",
      "▁재 생",
      "▁골 지",
      "▁실 리콘",
      "▁부 츠컷",
      "▁TW W",
      "▁방 수",
      "▁64 GB\n",
      "▁상 의",
      "▁라이 브",
      "mm \n",
      "▁0 31\n",
      "▁SA PD",
      "-A 51",
      "▁배 그",
      "아이 디어",
      "▁MSC4 TC",
      "-1 000XM",
      "▁스커 트\n",
      "▁HD MI",
      "▁알파 플랜",
      "▁Wi Fi",
      "▁Wi -Fi",
      "▁벤 큐",
      "▁레이 스",
      "▁레이 어드",
      "디지 탈",
      "디지 털",
      "▁MI W",
      "▁발열 내의",
      "MB O",
      "▁SM- R",
      "▁100 W",
      "▁국내 매장판",
      "▁돌 잔치",
      "▁윈 터",
      "▁화 이트",
      "▁워크 팬츠",
      "▁LI GH",
      "▁Hom e",
      "▁PHC4 JP",
      "▁T23 8",
      "▁LE12 15",
      "▁크로커다일 레이디",
      "▁코데즈컴바인 이너웨어",
      "▁따 뜻",
      "▁치 노",
      "▁플러 피",
      "▁오브 제컬렉션",
      "▁GMD BDU",
      "▁UL TR",
      "▁NT960 XG",
      "▁운 동",
      "▁컨 트롤러",
      "▁회 전",
      "▁힌 지",
      "▁생활 가전\n",
      "▁TOP TEN",
      "▁715 3417",
      "▁제너럴 아이디어",
      "-A51 A\n",
      "( SWITCH)\n",
      "- 2",
      "- 00",
      "- 01",
      "- 001\n",
      "1 5\n",
      "1 39",
      "2 1\n",
      "2 65",
      "3 1",
      "3 D",
      "3 23",
      "3 FW",
      "3 3\n",
      "4 8",
      "4 60",
      "5 2\n",
      "6 1",
      "6 8",
      "7 1\n",
      "7 20",
      "7 50",
      "8 9",
      "9 4",
      "A 5",
      "A G",
      "A S",
      "B G",
      "D A",
      "D S",
      "D 90",
      "H L",
      "J 지",
      "L 04",
      "M 8",
      "M 9",
      "N K",
      "R EL",
      "S -",
      "S 7",
      "S L",
      "S T",
      "T -",
      "T A",
      "T E",
      "U N",
      "X C",
      "X 56",
      "a N",
      "b y",
      "d ow",
      "h i",
      "i t",
      "m ent",
      "o n",
      "p e",
      "u d",
      "w e",
      "w or",
      "x t",
      "y pe",
      "▁ c",
      "▁ e",
      "▁ s",
      "▁ 광",
      "▁ 구",
      "▁ 군",
      "▁ 금",
      "▁ 높",
      "▁ 덤",
      "▁ 랜",
      "▁ 북",
      "▁ 뷰",
      "▁ 샤",
      "▁ 숲",
      "▁ 언",
      "▁ 얼",
      "▁ 연",
      "▁ 종",
      "▁ 처",
      "▁ 캔",
      "▁ 케",
      "▁ 콜",
      "▁ 큰",
      "▁ 토",
      "▁ 핑",
      "▁ 헝",
      "▁ 000",
      "▁ ab",
      "▁ 당일",
      "▁ 위생",
      "▁ 탈부착",
      "가 리",
      "고 트",
      "그 램",
      "기 가",
      "너 스",
      "네 이",
      "노 락",
      "노 버",
      "니 트\n",
      "덕 다운",
      "데 님",
      "드 러",
      "드 지",
      "드 로이드",
      "라 글",
      "라 워",
      "라 우드",
      "로 우",
      "롱 패딩",
      "루 프",
      "리 아",
      "뮤 즈",
      "바 이",
      "배 송",
      "베 스트",
      "벤 처",
      "복 구",
      "브 릿",
      "사 지",
      "셔 블",
      "쇼 핑",
      "스 캔",
      "스 텐",
      "스 판",
      "스 포",
      "에 어",
      "울 트라",
      "월 드\n",
      "유 디지탈",
      "음 기",
      "이 트\n",
      "일 러",
      "지 \n",
      "착 보",
      "체 제작",
      "출 고",
      "카 메라",
      "칼 렛",
      "캉 스",
      "퀘 어",
      "터 치",
      "테 크",
      "텍 스",
      "트 리",
      "파 리",
      "파 이",
      "파 자마",
      "폴 로",
      "플 라워",
      "형 \n",
      "▁디 스",
      "▁디 테",
      "▁2 종",
      "▁2 .0",
      "▁2 5W",
      "▁스 칼렛",
      "▁아 노락",
      "▁S t",
      "▁1 37",
      "▁1 테라",
      "▁P al",
      "▁P ort",
      "▁아이 코어",
      "▁아이 뮤즈",
      "▁A K",
      "▁A c",
      "▁A 234",
      "▁A OC",
      "▁C \n",
      "▁C Z",
      "▁모 직",
      "케이 블\n",
      "▁M 2",
      "▁M 7",
      "▁M L",
      "▁3 0",
      "▁주 문",
      "▁자 바",
      "▁자 석",
      "▁자 수",
      "▁자 체제작",
      "▁프 린",
      "▁프 렌치",
      "▁T ype",
      "23 61\n",
      "▁5 000",
      "레이 디스",
      "▁무 한잉크\n",
      "▁B C",
      "▁B e",
      "▁B OS",
      "▁N JP",
      "▁하 드",
      "▁( SM-",
      "▁E V",
      "▁E xt",
      "24 시",
      "▁브 러",
      "▁G 5",
      "▁G 9",
      "▁G aN",
      "▁가 정",
      "10 3\n",
      "▁리 오",
      "▁트 랙",
      "▁트 리밍",
      "▁울트라 HD",
      "D4 9",
      "D4 TR",
      "▁미 쏘",
      "▁후드 집업",
      "▁에어 리",
      "▁D Q",
      "▁F B",
      "▁F HD",
      "▁캐 릭",
      "▁고 프로",
      "▁아이폰 14",
      "30 1\n",
      "▁게임 용",
      "▁6 8",
      "▁6 세대",
      "▁6 0W",
      "▁나 일",
      "▁7 7",
      "▁슬 립",
      "▁드 레스",
      "▁신 혼",
      "▁저 소음",
      "▁LG 그램",
      "C4 PP1",
      "속옷 \n",
      "▁반 목",
      "34 \n",
      "▁퍼 포먼스",
      "▁플러스 \n",
      "▁J J지",
      "▁R DS",
      "스트 릿",
      "▁데 스크",
      "▁데 이터",
      "▁면 팬티",
      "▁8 8",
      "▁레 더",
      "▁레 빅",
      "▁레 토",
      "▁레 노버",
      "▁헤 어",
      "▁15 00R",
      "▁루 프",
      "▁와이드 팬츠",
      "▁클 라우드",
      "▁투 피스",
      "▁9 10",
      "▁O C",
      "▁O LED",
      "▁포 유디지탈",
      "▁I I",
      "▁I N",
      "▁I P",
      "▁밴 드\n",
      "▁WI REL",
      "25 10\n",
      "▁심리스 브라",
      "▁알 루미",
      "▁비 스포",
      "KH \n",
      "▁WIFI \n",
      "▁탑텐 밸런스",
      "▁일 체형",
      "▁블랙 \n",
      "100 0\n",
      "OR MX",
      "▁X L",
      "▁골 드",
      "▁실 버",
      "▁실 내복",
      "▁홈 웨어\n",
      "▁푸퍼 \n",
      "▁PHD4 TR",
      "▁PHD4 PT",
      "MD J",
      "▁바지 \n",
      "▁테 리",
      "36 1\n",
      "▁하프 코트",
      "▁긴팔 티",
      "to n",
      "▁네 이",
      "▁방 한",
      "▁양 털",
      "▁요 일",
      "▁그 래픽",
      "▁상 하",
      "▁데님 팬츠",
      "▁27 M",
      "▁Y N4W",
      "▁터 치",
      "▁밍크 퍼",
      "▁WH -1000XM",
      "▁블루투스 \n",
      "38 C",
      "▁셀 카",
      "▁타 이즈",
      "▁갤럭시북 3",
      "▁알파 스캔",
      "18 0\n",
      "▁본 체",
      "▁필름 \n",
      "▁ST UD",
      "▁ST ORMX",
      "▁하객 룩",
      "▁버즈 2",
      "▁포켓 몬스터",
      "▁빈폴 레이디스",
      "▁르 까프",
      "▁드라이 기",
      "▁드라이 핏",
      "N8 20",
      "▁보조배터 리\n",
      "▁안 드로이드",
      "▁앤 드지",
      "▁워치 6",
      "한복 대여",
      "▁SM- X",
      "▁AH 460",
      "▁CL T-K",
      "▁양모 100",
      "▁TO MBO",
      "▁파인 뷰",
      "▁파인 디지털",
      "▁시그니 처",
      "▁시그니 쳐",
      "▁사가 폭스",
      "▁히트 텍",
      "▁와이 파이",
      "06 10",
      "BM 7",
      "WOP MK",
      "mAh \n",
      "▁뱅 뱅",
      "▁워 셔블",
      "▁L234PSG 04",
      "▁725 3417",
      "C4FP1 30",
      "▁사생활 보호",
      "▁칼라거펠 트",
      "st ore",
      "▁렌 즈",
      "▁몽 클",
      "▁성 인",
      "▁햄 라인",
      "▁Pro \n",
      "▁제로 스트릿",
      "▁스웨트 셔츠",
      "▁DDR 4",
      "-36 장\n",
      "▁박 서",
      "▁쉘 파",
      "▁팔 월드",
      "▁BC3 X",
      "▁Win dow",
      "▁메모 리",
      "▁LIGH TS",
      "▁따뜻 한",
      "▁ULTR ON",
      "X56 K\n",
      "wor ld",
      "▁헝 가리",
      "▁Pal world",
      "▁Port able",
      "▁BOS E",
      "▁NJP 3W",
      "▁JJ지 고트",
      "▁데스크 탑",
      "▁데이터 복구",
      "▁WIREL ES",
      "▁알루미 늄",
      "▁비스포 크",
      "▁STUD IO",
      "▁TOMBO Y",
      "▁Window s",
      "- H",
      "- CH",
      "- C\n",
      ". 5",
      ". 8",
      ". 9",
      "/ 스",
      "0 8",
      "0 3\n",
      "1 D",
      "1 234",
      "1 W\n",
      "1 30\n",
      "2 S",
      "2 2\n",
      "2 000",
      "2 F\n",
      "3 50\n",
      "4 E",
      "4 00",
      "4 5\n",
      "4 30",
      "6 5\n",
      "6 00\n",
      "7 8",
      "7 3\n",
      "8 000",
      "8 30\n",
      "9 1\n",
      "9 3\n",
      "A -",
      "A 4",
      "A 8",
      "A F",
      "A CK",
      "B 1",
      "B K",
      "B E\n",
      "B T\n",
      "C 65",
      "C P1",
      "D 5",
      "D 8",
      "E T",
      "E Y",
      "E AR",
      "F D\n",
      "G N",
      "H 2",
      "H C",
      "H AM",
      "I R",
      "I ME",
      "J I",
      "K Q",
      "K U",
      "K -K",
      "K 하이",
      "L 만",
      "M 20",
      "M AR",
      "M I\n",
      "N T",
      "N X",
      "N 500",
      "N C\n",
      "O -",
      "O W",
      "O X",
      "P \n",
      "P L",
      "P W",
      "P 3WH",
      "Q C65",
      "Q D8",
      "R L",
      "S 5",
      "S 9",
      "S P",
      "S Y",
      "S SD",
      "T M",
      "T P",
      "U B",
      "U I",
      "U DW",
      "V \n",
      "W T",
      "X \n",
      "X L",
      "X FT",
      "Z D90",
      "a c",
      "a y",
      "d er",
      "e p",
      "e s",
      "e t",
      "i l",
      "i v",
      "m o",
      "o t",
      "s mo",
      "u m",
      "u x",
      "v er",
      "▁ w",
      "▁ 각",
      "▁ 간",
      "▁ 개",
      "▁ 김",
      "▁ 끈",
      "▁ 란",
      "▁ 래",
      "▁ 랩",
      "▁ 막",
      "▁ 머",
      "▁ 몬",
      "▁ 뮤",
      "▁ 생",
      "▁ 샥",
      "▁ 셔",
      "▁ 손",
      "▁ 솔",
      "▁ 숨",
      "▁ 엔",
      "▁ 완",
      "▁ 임",
      "▁ 잭",
      "▁ 즉",
      "▁ 짱",
      "▁ 착",
      "▁ 컬",
      "▁ 콘",
      "▁ 퀄",
      "▁ 퀵",
      "▁ 톡",
      "▁ 펄",
      "▁ 폰",
      "▁ 항",
      "▁ 헌",
      "▁ 사이즈",
      "▁ JP",
      "▁ us",
      "▁ 엑스",
      "▁ 튜브",
      "▁ hi",
      "가 바",
      "가 복",
      "계 정",
      "골 덴",
      "공 점퍼",
      "관 리",
      "귤 러",
      "그 라",
      "글 런",
      "깅 스",
      "네 스",
      "네 통",
      "데 몬",
      "도 우",
      "도 희",
      "드 로즈",
      "드 브릿",
      "디 큐",
      "라 스",
      "라 이트",
      "라 우스",
      "란 넬",
      "란 트",
      "럭 스",
      "레 송",
      "렉 시블",
      "로 그",
      "로 란트",
      "롱 구스다운",
      "루 가",
      "룹 슨",
      "리 에",
      "링 쉴드",
      "마 르",
      "마 스",
      "마 운",
      "마 칸",
      "마 우스",
      "머 니",
      "모 도",
      "미 닌",
      "미 티드",
      "믹 스",
      "백 화",
      "밴 드",
      "벤 트",
      "벨 티드",
      "벼 운",
      "보 \n",
      "본 체",
      "봐 요",
      "브 릭",
      "비 비안",
      "삐 아",
      "사 양",
      "산 부",
      "상 봉",
      "셔 \n",
      "수 납",
      "스 커",
      "스 텀",
      "스 튜디오",
      "시 리즈",
      "씨 현",
      "아 머",
      "아 일랜드",
      "안 감",
      "앤 올",
      "양 지",
      "어 로",
      "어 스",
      "언 트",
      "엘 \n",
      "여 행",
      "여 공용",
      "여 봐요",
      "올 렛",
      "용 량",
      "윈 프레",
      "이 더",
      "이 브",
      "이 식",
      "이 질",
      "이 조절",
      "이 올렛",
      "인 원",
      "인 하",
      "임 스",
      "전 도",
      "절 기",
      "점 ]",
      "제 리",
      "즘 \n",
      "지 피",
      "진 가슴",
      "차 지",
      "처 블",
      "체 티",
      "촬 영",
      "최 신상",
      "커 루",
      "코 튼",
      "킹 형",
      "타 360",
      "터 프",
      "트 로이",
      "트 리밍",
      "티 지",
      "파 엘\n",
      "패 키지",
      "페 라글",
      "포 스",
      "폰 \n",
      "프 \n",
      "프 리",
      "프 린",
      "플 래",
      "피 겐",
      "픽 셀",
      "필 드",
      "회 용",
      "힐 즈",
      "▁패 치",
      "▁패 턴",
      "▁디 럭스",
      "▁디 트로이",
      "▁남 여공용",
      "▁2 장",
      "▁2 컬러",
      "▁여성 용\n",
      "▁스 웻",
      "▁스 팀",
      "▁스 트라이",
      "▁S SGJP",
      "▁S K하이",
      "▁S MI\n",
      "▁휴 양지",
      "▁P a",
      "▁P EN",
      "▁P OL",
      "▁P 33",
      "▁P lus",
      "▁P S5",
      "▁아이 보",
      "▁A B",
      "▁A S",
      "▁A 34",
      "▁C 234PSG",
      "▁C OL",
      "▁C AT",
      "▁모 던",
      "▁모 델",
      "▁모 디스",
      "▁모 여봐요",
      "▁코 모도",
      "▁M 1",
      "▁M 5",
      "▁M E",
      "▁M K",
      "▁M X",
      "▁M EN",
      "▁3 D",
      "▁3 M",
      "▁3 단",
      "▁3 매",
      "▁3 팩",
      "▁3 65",
      "▁3 739",
      "▁에 디",
      "▁에 이지",
      "▁기 장",
      "▁기 획",
      "▁기 가바",
      "▁자 가복",
      "▁플 랩",
      "▁플 립5",
      "▁플 란넬",
      "▁플 렉시블",
      "▁L MS",
      "▁L TE",
      "▁롱 구스",
      "▁T SGJP",
      "▁라 벨",
      "▁라 운",
      "▁라 펠",
      "▁라 삐아",
      "▁라 파엘\n",
      "▁울 100",
      "23 \n",
      "▁5 58",
      "▁5 600",
      "▁5 68",
      "▁B K",
      "▁B L",
      "▁B Z",
      "▁N A",
      "▁N 234",
      "▁노 스",
      "▁오 프",
      "▁오 닉스",
      "▁오 페라글",
      "▁하 이스",
      "▁( 20",
      "▁( 27",
      "▁( PS",
      "▁( 국내",
      "▁( 24시",
      "▁( KQ",
      "▁남자 반",
      "▁E ke",
      "▁E WOPMK",
      "24 11",
      "▁기모 바지",
      "▁기모 안감",
      "▁다운 점퍼",
      "▁다운 패딩",
      "▁브 레",
      "▁브 리",
      "▁G 3",
      "▁G M",
      "▁G O",
      "▁G o",
      "▁가 벼운",
      "10 6\n",
      "▁트 루",
      "▁트 리",
      "▁트 윈프레",
      "▁이 벤트",
      "▁이 상봉",
      "▁울트라 와이드",
      "▁로 보",
      "▁파 격",
      "▁4 D",
      "▁4 도어",
      "▁지 문",
      "▁지 지피",
      "▁지 포스",
      "▁미 드",
      "▁미 로",
      "▁블 라우스",
      "▁폴 리오",
      "▁에어 메이드",
      "▁에어 클로",
      "20 27",
      "▁D 6",
      "▁D M",
      "▁D 234PSG",
      "▁D JI",
      "▁U NI",
      "▁맥 코트",
      "▁빅 카라",
      "▁H Z",
      "▁H L만",
      "▁크 림",
      "▁크 레송",
      "▁크 리에",
      "▁F IT",
      "▁F UR",
      "▁보 온",
      "▁[ 한복대여",
      "▁더 아이",
      "▁수 트",
      "패딩 \n",
      "▁고 급",
      "▁고 사양",
      "▁원 더",
      "▁원 목",
      "30 4",
      "30 3\n",
      "▁6 9",
      "▁6 종",
      "▁나 인",
      "필름 \n",
      "▁7 세대",
      "▁7 1234",
      "▁커 스텀",
      "▁풀 세트\n",
      "▁드 라이어",
      "▁조 이",
      "▁Z R",
      "▁Z 플립5",
      "▁정 리",
      "▁정 보",
      "속옷 세트",
      "▁베 네통",
      "50 1",
      "50 1\n",
      "le ss",
      "▁시 크",
      "▁시 리즈",
      "JP D4",
      "JP M4",
      "▁원피스 잠옷",
      "11 5\n",
      "34 1\n",
      "▁퍼 카라",
      "▁R O",
      "▁사 운드",
      "▁사 계절",
      "▁사 파리",
      "▁면 스판",
      "▁버 미어",
      "▁버 버리",
      "▁버 커루",
      "맨투맨 \n",
      "15 5\n",
      "▁올 스텐",
      "▁올 인원",
      "▁게이밍 컴퓨터",
      "▁8 세대",
      "▁8 70",
      "▁레 귤러",
      "▁제 작",
      "▁헤 론",
      "▁루 앤",
      "▁푸 파",
      "▁클 리어",
      "▁여자 슬랙스",
      "▁더블 니",
      "▁더블 디",
      "▁더블 버튼",
      "▁O H",
      "▁O n",
      "▁O smo",
      "▁V 넥",
      "▁V 234PSG",
      "▁포 터",
      "▁포 함",
      "▁포 인트",
      "▁팬티 \n",
      "▁맨투맨 \n",
      "▁Q LED",
      "▁Q XD",
      "▁가디건 \n",
      "▁커플 파자마",
      "25 20\n",
      "3W CM",
      "▁메 디큐",
      "▁128 G",
      "▁128 기가",
      "▁MS I",
      "▁비 버리",
      "▁USB 3.",
      "▁블루 핏",
      "22 9",
      "▁긴 바지",
      "▁유 튜브",
      "▁일 회용",
      "▁블랙 박스",
      "▁풀커버 \n",
      "▁티셔츠 \n",
      "▁오버 워치",
      "▁골 전도",
      "▁PHD4 PP",
      "HD D",
      "▁갤럭시S 22",
      "▁노와이어 브라",
      "AR T",
      "SW \n",
      "▁히 어로",
      "▁NE P3X",
      "▁도 도희",
      "▁도 킹형",
      "▁발 로란트",
      "▁발 마칸",
      "▁칼 하트",
      "▁스트랩 \n",
      "▁남녀공용 \n",
      "▁누 디",
      "▁스탠 바이",
      "▁(M K",
      "▁그 립",
      "▁리얼 핏",
      "N4 D9",
      "▁바 캉스",
      "▁바 이올렛",
      "▁24 M",
      "▁SL- M20",
      "51 3W",
      "▁배 색",
      "▁WH -CH",
      "▁외장 SSD",
      "▁외장 HDD",
      "3X 30C",
      "en der",
      "▁슈 피겐",
      "▁타 루가",
      "▁청바지 \n",
      "▁SW ITCH",
      "▁16 5\n",
      "▁NT 750",
      "la y",
      "▁링 케",
      "▁써 마",
      "자켓 \n",
      "▁스웨 터",
      "구스다운 \n",
      "▁QC 65",
      "▁10. 2",
      "BD O",
      "▁르 샵",
      "▁인스 타360",
      "▁삼각대 \n",
      "600 SW\n",
      "▁웨 딩",
      "▁셋업 \n",
      "토어 \n",
      "▁스파 이더",
      "▁브이 로그",
      "▁미디 엄",
      "▁앤 나인",
      "▁컴퓨터 본체",
      "한복 ]",
      "▁SP JPD4",
      "▁CL AW",
      "▁BF 3X30C",
      "▁폴라 티",
      "▁폴라 로이드",
      "▁메탈 쉴드",
      "▁스탠드 카라",
      "▁테이퍼드 핏",
      "110 4\n",
      "224 PSG",
      "ow n",
      "▁목 폴라",
      "▁컴 포트",
      "하이 저",
      "▁여성팬티 \n",
      "▁AA B4",
      "▁플라 워",
      "▁오토 비",
      "▁오픈 런",
      "▁오피스 프로",
      "▁Hom e\n",
      "▁ZO C4FP130",
      "▁스마트커버 \n",
      "▁다이아 퀼팅",
      "▁스타일 러스",
      "JD D4V",
      "ke t",
      "re m",
      "re less",
      "▁대 용량",
      "▁매 트",
      "▁뱅 앤올",
      "▁쇼 시",
      "당일 출고",
      "▁아웃 포켓",
      "▁SD 카드",
      "▁SZ A",
      "▁SZ BDO",
      "▁마인 드브릿",
      "▁GN RL",
      "▁40 mm",
      "▁PHD4JP 24",
      "▁칼라거펠 드",
      "▁10.9 인치",
      "▁선물 \n",
      "290 2\n",
      "49 -00",
      "▁걸 스",
      "▁걸 즈",
      "▁공 주",
      "▁콤 비",
      "▁혼 주",
      "▁흰 티",
      "▁언더 아머",
      "만원 인하",
      "▁SSD JPM4",
      "▁SIE K",
      "▁53N \n",
      "▁WB C3",
      "▁크리스 탈",
      "▁크리스 마스",
      "▁커버 낫",
      "▁커브 드",
      "▁시계줄 \n",
      "▁제이 씨현",
      "▁루컴즈 전자",
      "▁인터 넷",
      "▁인터 픽셀",
      "▁메이 튼",
      "▁메이 플라워",
      "▁MSD4 TC",
      "▁동글 \n",
      "▁동물 의",
      "▁TWHCTM 800",
      "color )\n",
      "▁SWHCTM4 20",
      "-G X56K\n",
      "XKR )\n",
      "ou nd",
      "▁n ew",
      "▁녹 음기",
      "▁변 색",
      "▁접 이식",
      "▁젠 하이저",
      "▁쥬 크",
      "▁팰 월드\n",
      "▁퓨 전",
      "▁헬 스",
      "▁힐 링쉴드",
      "가지 기장",
      "리더 기\n",
      "발송 )",
      "▁스테 이",
      "▁LA I",
      "▁NJ W3WH",
      "▁마이 데몬",
      "▁7.1 채널",
      "▁JA JU",
      "▁917 34",
      "▁재생 토너",
      "▁T238 MDJ",
      "▁GMDBDU 99",
      "▁7153417 00",
      "▁높 이조절",
      "▁덤 블",
      "▁북 스",
      "▁종 이질",
      "▁처 진가슴",
      "▁케 네스",
      "▁콜 마르",
      "▁핑 크",
      "사지 기",
      "착보 장",
      "▁AK G",
      "▁A234 PW",
      "▁프린 팅",
      "▁Be o",
      "▁(SM- T",
      "▁EV O",
      "▁Ext ender",
      "▁가정 용\n",
      "▁리오 벨",
      "▁68 cm",
      "▁나일 론",
      "▁레빅 터프",
      "▁910 34",
      "▁II I\n",
      "▁YN4W 58",
      "▁터치 펜",
      "▁셀카 봉",
      "▁AH460 E-53N",
      "▁CLT-K 5",
      "▁렌즈 보호",
      "▁몽클 레어",
      "▁BC3X 38C",
      "▁WIRELES S\n",
      "/스 팀",
      "AF XKR)\n",
      "K-K 71",
      "QC65 AFXKR)\n",
      "ep ment",
      "iv e",
      "▁간 절기",
      "▁란 제리",
      "▁막 스",
      "▁몬 스타",
      "▁샥 즈",
      "▁손 목",
      "▁솔 리드",
      "▁완 제품",
      "▁임 산부",
      "▁잭 필드",
      "▁즉 석",
      "▁짱 구",
      "▁퀵 차지",
      "▁톡 홀더",
      "▁폰 트리",
      "▁항 공점퍼",
      "▁us b",
      "▁hi store",
      "마운 트",
      "▁디트로이 트",
      "▁스트라이 프",
      "▁SK하이 닉스",
      "▁POL HAM",
      "▁COL MAR",
      "▁에이지 알",
      "▁기가바 이트",
      "▁자가복 원",
      "▁라삐아 프",
      "▁558 49-00",
      "▁하이스 토어\n",
      "▁Eke epment",
      "▁트윈프레 셔\n",
      "▁이벤트 속옷",
      "▁지지피 엑스",
      "▁D234PSG 27",
      "▁HL만 도",
      "▁더아이 잗",
      "▁71234 17",
      "▁버미어 \n",
      "▁메디큐 브",
      "▁비버리 힐즈",
      "▁USB3. 0\n",
      "▁스탠바이 미",
      "▁뱅앤올 룹슨",
      "▁마인드브릿 지",
      "▁제이씨현 \n",
      "▁종이질 감",
      "▁케네스 레이디",
      "( 1",
      "+ \n",
      "+ 선",
      "+ 32",
      "- 4",
      "- 7",
      "- D",
      "- M",
      "- P",
      "- T",
      "- 01\n",
      "- 1000\n",
      "/ 4",
      "/ 5",
      "/ 20",
      "0 11",
      "0 CT",
      "0 6\n",
      "0 8\n",
      "0 50\n",
      "0 JK",
      "1 C",
      "1 E",
      "1 번",
      "1 30",
      "1 90",
      "1 6\n",
      "1 3X",
      "1 361\n",
      "1 HC",
      "2 K",
      "2 종",
      "2 10",
      "2 234",
      "2 15",
      "2 A\n",
      "2 6\n",
      "2 KH/A)\n",
      "2 E-53N\n",
      "3 2\n",
      "3 000",
      "3 25",
      "3 6\n",
      "3 21",
      "3 37",
      "3 -1",
      "3 001\n",
      "3 .1",
      "3 cm",
      "3 KU",
      "4 4",
      "4 S",
      "4 3\n",
      "4 4\n",
      "4 A\n",
      "4 mm",
      "4 E-53N",
      "4 UDW",
      "5 1\n",
      "5 )\n",
      "5 3\n",
      "5 28",
      "5 3N",
      "5 4T",
      "5 43",
      "5 35\n",
      "6 2",
      "6 6",
      "6 M",
      "6 24",
      "6 10",
      "6 50",
      "6 45",
      "6 361\n",
      "7 7",
      "7 N",
      "7 2\n",
      "7 000",
      "7 27",
      "7 4\n",
      "7 7\n",
      "7 50\n",
      "7 2A\n",
      "8 4",
      "8 6",
      "8 W",
      "8 핀",
      "8 5\n",
      "8 20",
      "8 00\n",
      "8 50\n",
      "8 73",
      "9 1",
      "9 Z",
      "9 00",
      "9 20",
      "9 39",
      "9 8\n",
      "9 80",
      "9 20\n",
      "9 40\n",
      "9 15\n",
      "9 34\n",
      "A 7",
      "A O",
      "A LI",
      "B P",
      "B R",
      "B W",
      "B IT",
      "B 02\n",
      "B 2361\n",
      "C -",
      "C D",
      "C X",
      "C 컵",
      "C OL",
      "D C",
      "D J",
      "D O",
      "D 컵",
      "D AN",
      "D IT",
      "D EA",
      "E B",
      "E E",
      "E 컵",
      "E AN",
      "E CK",
      "E ED",
      "E 265",
      "E 53N",
      "F 0",
      "F 7",
      "F E",
      "F P",
      "F Z",
      "F 16",
      "G 54T",
      "H P",
      "H TR",
      "H C3",
      "H W\n",
      "H ECK",
      "I A",
      "I Q",
      "I FI",
      "I OR",
      "I ON",
      "J L",
      "J CT",
      "J HD",
      "K A",
      "K S",
      "K EY",
      "L A",
      "L D",
      "L E",
      "L X",
      "L 05",
      "L 600SW\n",
      "M 3",
      "M AN",
      "M 7\n",
      "M OP",
      "M C4FP1",
      "M N500",
      "N 1",
      "N 800",
      "N 9Z",
      "O MAN",
      "P 4",
      "P U",
      "P 20",
      "P OL",
      "P AD",
      "P D4V",
      "P lay",
      "P EED",
      "Q -",
      "Q N",
      "Q W",
      "Q 500",
      "Q 400\n",
      "Q -A51A\n",
      "R 9",
      "R U",
      "R E\n",
      "R JCT",
      "T 4",
      "T G",
      "T N",
      "T 16",
      "T ON",
      "T 350\n",
      "T 873",
      "U T",
      "U SB",
      "U JK",
      "V E",
      "V T",
      "V 11",
      "V 7N",
      "W C",
      "W P",
      "W IFI",
      "X E",
      "X O",
      "X 20",
      "X 3D",
      "X XO",
      "Y HL",
      "Y D4TR",
      "Y E265",
      "Z \n",
      "a f",
      "c ket",
      "c af",
      "d ay",
      "e l",
      "e ss",
      "e caf",
      "f f",
      "f t",
      "f w",
      "h t",
      "h ur",
      "i ro",
      "i es",
      "i um",
      "k \n",
      "k in",
      "l an",
      "l ig",
      "m ore",
      "o d",
      "o cket",
      "o ft",
      "p ort",
      "p ac",
      "s \n",
      "s day",
      "s lan",
      "s oft",
      "u n",
      "u al",
      "u PAD",
      "▁ -",
      "▁ a",
      "▁ f",
      "▁ p",
      "▁ z",
      "▁ 갈",
      "▁ 감",
      "▁ 곰",
      "▁ 글",
      "▁ 까",
      "▁ 깔",
      "▁ 꽃",
      "▁ 날",
      "▁ 냉",
      "▁ 덮",
      "▁ 두",
      "▁ 릴",
      "▁ 만",
      "▁ 망",
      "▁ 멜",
      "▁ 문",
      "▁ 물",
      "▁ 민",
      "▁ 범",
      "▁ 별",
      "▁ 분",
      "▁ 빛",
      "▁ 뽕",
      "▁ 산",
      "▁ 샘",
      "▁ 설",
      "▁ 섹",
      "▁ 센",
      "▁ 숄",
      "▁ 쌍",
      "▁ 씽",
      "▁ 얇",
      "▁ 왕",
      "▁ 욜",
      "▁ 용",
      "▁ 월",
      "▁ 웰",
      "▁ 융",
      "▁ 점",
      "▁ 젤",
      "▁ 좋",
      "▁ 줄",
      "▁ 짐",
      "▁ 집",
      "▁ 짭",
      "▁ 총",
      "▁ 축",
      "▁ 통",
      "▁ 특",
      "▁ 판",
      "▁ 팜",
      "▁ 핀",
      "▁ 할",
      "▁ 핫",
      "▁ 휠",
      "▁ 전자",
      "▁ 잠옷\n",
      "▁ 펜슬",
      "▁ 컬러",
      "▁ 토너",
      "▁ 엣지",
      "▁ 톰보이",
      "▁ 월드",
      "▁ by",
      "▁ ot",
      "▁ 믹스",
      "가 용",
      "가 죽",
      "같 이",
      "개 \n",
      "객 룩",
      "게 스",
      "견 례",
      "과 컴퓨터",
      "교 환",
      "구 로",
      "구 제품",
      "국 정품",
      "국 백화",
      "그 레이",
      "기 업",
      "기 기/",
      "깔 이",
      "끼 털",
      "나 모",
      "나 무",
      "나 이키",
      "놀 로",
      "니 아",
      "니 어",
      "니 우",
      "다 리",
      "다 이아",
      "단 \n",
      "담 곰",
      "더 \n",
      "더 스",
      "데 이",
      "도 기",
      "도 라",
      "도 마",
      "도 조절",
      "동 발송)",
      "드 5",
      "드 웨이",
      "드 벤처",
      "등 록",
      "디 드",
      "디 움",
      "디 바이스",
      "라 시",
      "라 왕",
      "라 클",
      "라 이즈",
      "래 방",
      "래 프트",
      "랩 TM",
      "레 르",
      "렌 디드",
      "로 드",
      "로 미",
      "로 아",
      "로 배송",
      "롬 마",
      "롬 캐",
      "룩 \n",
      "르 디",
      "르 르",
      "르 이너웨어",
      "리 슨",
      "리 안",
      "리 야",
      "리 트\n",
      "릭 키",
      "마 니",
      "마 스터",
      "마 사지기",
      "머 \n",
      "먼 트",
      "메 일",
      "메 이트",
      "모 피",
      "목 티",
      "무 늬",
      "무 선",
      "무 용",
      "무 스탕",
      "무 한잉크\n",
      "문 가용",
      "물 2종",
      "미 국백화",
      "민 기업",
      "바 닉",
      "바 유",
      "바 로배송",
      "버 시",
      "번 짐",
      "베 이",
      "보 안",
      "복 \n",
      "부 부",
      "부 츠컷",
      "부 관리",
      "북 리더",
      "브 \n",
      "블 랙",
      "블 루",
      "비 에",
      "비 전",
      "상 품",
      "서 트",
      "서 포트",
      "선 택",
      "성 민기업",
      "션 캠",
      "쇄 \n",
      "숏 코트",
      "수 령",
      "쉬 는",
      "쉬 드",
      "쉬 테",
      "슐 레이트",
      "스 루",
      "스 뷰",
      "스 턴",
      "스 템",
      "스 톤",
      "스 틱",
      "스 포츠",
      "스 프레",
      "슬 립",
      "슬 링",
      "시 드",
      "시 스템",
      "씨 네트워크",
      "아 로",
      "아 디다스",
      "안 경",
      "액 티브",
      "어 디션",
      "여 성",
      "여 우",
      "연 테크",
      "예 인",
      "오 트",
      "오 피스",
      "외 여행",
      "용 실",
      "운 틴",
      "원 \n",
      "원 경",
      "원 전자",
      "유 기\n",
      "이 코",
      "이 티브",
      "이 벤처",
      "익 미",
      "인 \n",
      "일 즈",
      "입 고",
      "자 수",
      "자 크",
      "자 동발송)",
      "정 ]\n",
      "제 임스",
      "조 끼",
      "조 이",
      "조 프린",
      "존 02",
      "주 얼",
      "주 파",
      "즈 노",
      "증 정]\n",
      "지 스",
      "지 컬",
      "지 웨어",
      "진 한복]",
      "차 단",
      "쳐 블",
      "추 천",
      "츠 미",
      "치 온",
      "컴 퍼",
      "컴 오피스",
      "컵 C컵",
      "케 어",
      "켄 지",
      "코 듀로이",
      "코 리아",
      "큐 엠",
      "크 5",
      "크 웨이",
      "크 래프트",
      "키 리스",
      "타 이즈",
      "탄 력",
      "탄 브라",
      "택 \n",
      "터 링",
      "터 샥",
      "터 용",
      "터 네이",
      "토 우",
      "투 시",
      "투 아",
      "툰 3",
      "트 넥",
      "특 전",
      "티 스",
      "티 셔츠",
      "티 디바이스",
      "티 메이트",
      "패 스",
      "퍼 블",
      "포 트\n",
      "포 리오",
      "프 라이어",
      "프 터샥",
      "플 레어",
      "플 렉스",
      "하 스",
      "하 객룩",
      "학 기기/",
      "한 국정품",
      "해 은",
      "행 용",
      "허 브\n",
      "혼 방",
      "화 이트\n",
      "▁패 드\n",
      "▁패 브릭",
      "▁디 자",
      "▁디 씨네트워크",
      "▁여 행용",
      "00 29",
      "00 mAh\n",
      "▁2 1",
      "▁2 2",
      "▁2 9",
      "▁2 X",
      "▁2 단",
      "▁2 배",
      "▁2 000",
      "▁2 TB",
      "▁2 테라",
      "▁2 89",
      "▁2 .5",
      "▁2 +32",
      "▁여성 면",
      "▁여성 용",
      "▁여성 잠옷",
      "▁여성 패딩\n",
      "▁스 톤",
      "▁스 토어",
      "▁스 퀘어",
      "▁스 플래",
      "▁스 투시",
      "▁아 미",
      "▁아 킴",
      "▁아 리스",
      "▁아 라시",
      "▁S 펜",
      "▁S PP",
      "▁S la",
      "▁S 43",
      "▁S we",
      "▁S il",
      "▁S ound",
      "▁S kin",
      "▁휴 롬",
      "▁1 팩",
      "▁1 세대",
      "▁1 11",
      "▁1 12",
      "▁1 65",
      "▁1 만원인하",
      "▁1 8W",
      "▁1 939",
      "▁P Q",
      "▁P U",
      "▁P 34",
      "▁P OW",
      "▁P rem",
      "▁P RJCT",
      "▁P ocket",
      "다운 \n",
      "▁아이 케어",
      "▁남성 용",
      "▁남성 팬티",
      "▁남성 속옷",
      "▁남성 드로즈",
      "▁A M",
      "▁A R",
      "▁A T",
      "▁A 36",
      "▁A 200",
      "▁A PP",
      "▁A 300",
      "▁A NK",
      "▁A IR",
      "▁C P",
      "▁C o",
      "▁C 234",
      "▁C 56",
      "▁C 27",
      "▁C 32",
      "▁C la",
      "▁C 43",
      "▁C OX",
      "▁C HECK",
      "▁모 임",
      "케이 스",
      "▁카 트",
      "▁카 플레이",
      "▁카 치온",
      "▁코 드웨이",
      "▁케이 탑",
      "▁케이 베스트",
      "▁M O",
      "▁M y",
      "▁M 20",
      "▁M ar",
      "▁M icro",
      "▁3 7",
      "▁3 장",
      "▁3 60",
      "▁3 37",
      "▁3 04",
      "▁3 73",
      "▁3 가지기장",
      "▁주 름",
      "▁주 연테크",
      "▁에 잇",
      "▁에 스티",
      "▁L B4",
      "▁L it",
      "▁L ux",
      "▁L ecaf",
      "▁롱 원피스",
      "▁롱 코트\n",
      "▁롱 스커",
      "▁모니터 받침대",
      "▁프 라",
      "▁프 라이",
      "▁프 롬마",
      "▁T N",
      "▁T S",
      "▁T i",
      "▁T 21",
      "▁T L-",
      "▁T RO",
      "▁T 13",
      "▁T ou",
      "▁T 13X",
      "▁T PU",
      "▁T hur",
      "▁라 도마",
      "▁라 익미",
      "▁울 50",
      "▁울 혼방",
      "23 +\n",
      "▁5 +",
      "▁5 0",
      "▁5 A",
      "▁5 01",
      "▁5 33",
      "▁5 만원",
      "▁5 mm\n",
      "레이 크",
      "▁무 광",
      "▁B D",
      "▁B 3W",
      "▁B la",
      "▁B us",
      "▁B EA",
      "▁B EAN",
      "▁N N",
      "▁N 21",
      "▁N KEY",
      "▁노 이즈",
      "▁노 래방",
      "▁세 인트",
      "▁세 이브",
      "▁오 르",
      "▁오 아로",
      "▁오 조이",
      "팬츠 \n",
      "▁하 고",
      "▁하 찌",
      "▁하 성민기업",
      "▁패딩 \n",
      "▁( 3",
      "▁( E",
      "▁( R",
      "▁( PC",
      "▁( 정품",
      "▁( T873",
      "▁마 리",
      "▁마 운틴",
      "▁남자 겨울",
      "▁남자 니트",
      "▁남자 맨투맨\n",
      "▁E L",
      "▁E ig",
      "▁E 224PSG",
      "▁E DIT",
      "▁E QW",
      "▁E YD4TR",
      "24 01\n",
      "PC 4",
      "▁카메라 \n",
      "▁기모 셋업",
      "▁G 7",
      "▁G R",
      "▁G W",
      "▁G 80",
      "▁G EN",
      "▁G en",
      "▁G -C",
      "▁G 304",
      "▁G IOR",
      "▁W OMAN",
      "▁가 족",
      "10 2",
      "10 1\n",
      "10 10",
      "10 4\n",
      "▁겨울 \n",
      "▁리 본",
      "▁리 브",
      "▁리 펠",
      "▁리 미티드",
      "▁리 니어",
      "▁리 진한복]",
      "▁리 큐엠",
      "▁리 하스",
      "▁트 레",
      "▁트 임",
      "▁프로 용",
      "▁프로 360",
      "▁이 북리더",
      "▁이 츠미",
      "▁23FW \n",
      "▁23FW 최신상",
      "▁PC 4",
      "▁PC /스팀",
      "▁PC 3-1",
      "▁벨 벳",
      "▁벨 로아",
      "▁울트라 하이",
      "▁로 렌",
      "▁로 브",
      "▁로 우",
      "▁숏 푸",
      "▁파 라",
      "▁파 워",
      "▁파 카",
      "▁파 티",
      "▁4 단",
      "▁4 종",
      "▁4 K\n",
      "▁4 5W",
      "▁4 컬러\n",
      "▁4 4mm",
      "▁지 스튜디오",
      "D4 ER",
      "D4 FP1",
      "▁미 러",
      "▁미 라클",
      "▁미 용실",
      "▁미 즈노",
      "▁블 프",
      "▁에어 랩TM",
      "20 )",
      "20 10\n",
      "▁D P",
      "▁D W",
      "▁D 톤",
      "▁D EL",
      "▁D own",
      "▁D ual",
      "▁U 넥",
      "▁U nd",
      "▁U TP",
      "▁H 라인",
      "▁H OO",
      "▁H CG",
      "▁크 롬캐",
      "핸드 메이드",
      "▁F 1",
      "▁F 24",
      "▁보 아",
      "▁보 이",
      "▁캐 리어",
      "▁캐 주얼",
      "▁폭스 후드",
      "▁폭스 클럽",
      "▁[ 도",
      "▁[ 네이",
      "▁[ 당일출고",
      "▁[ 미국백화",
      "▁더 마",
      "▁더 치",
      "▁더 플",
      "▁고 주파",
      "▁고 탄력",
      "▁원 버튼",
      "30 7",
      "30 1W\n",
      "30 HW\n",
      "▁6 5W",
      "▁6 인치",
      "▁브라 캡",
      "▁7 부",
      "▁7 종",
      "▁7 5\n",
      "▁7 12",
      "▁7 500",
      "▁커 비",
      "▁풀 집",
      "▁풀 컵",
      "▁풀 세트",
      "▁풀 스킨",
      "▁신 부",
      "▁신 구로",
      "▁저 스트",
      "C4 CP1",
      "▁Z V",
      "▁Z 폴",
      "▁Z 234MSG",
      "▁Z MC4FP1",
      "▁소 량",
      "▁소 매",
      "▁소 형",
      "▁소 가죽",
      "와이드 팬츠",
      "▁케이블 니트",
      "56 00\n",
      "▁K 5",
      "▁K 10",
      "▁K HD",
      "▁베 아",
      "50 2\n",
      "50 3\n",
      "▁스트 릿",
      "▁스트 링",
      "in ess",
      "▁반 후드",
      "▁반 폴라",
      "▁시 즌",
      "▁시 나모",
      "▁시 놀로",
      "▁시 스루",
      "▁저장장 치",
      "JP 2902\n",
      "11 30\n",
      "34 Q",
      "90 1",
      "▁폭스퍼 후드",
      "▁폭스퍼 트리밍",
      "▁니트 카라",
      "▁퍼 프",
      "28 \n",
      "60 G",
      "▁J MW",
      "▁J 2234",
      "▁사 무용",
      "커버 리",
      "000 시리즈",
      "▁게이 트",
      "▁면 티",
      "▁면 바지",
      "▁면 티\n",
      "▁면 도기",
      "▁8 74",
      "▁8 9900원",
      "▁8 528",
      "▁8 BIT",
      "▁레 인",
      "▁레 깅스",
      "▁레 터링",
      "▁제 우스",
      "▁헤 지스",
      "▁15 W",
      "▁15 70",
      "▁멀티 허브\n",
      "▁루 엠",
      "▁인 조",
      "▁인 이어",
      "▁인 쇄\n",
      "▁와이드 핏",
      "▁클 릭키",
      "▁여자 속옷세트",
      "17 \n",
      "▁9 9",
      "▁9 H",
      "▁9 00원",
      "▁O DV",
      "▁O P3X",
      "▁O ff",
      "▁V X",
      "▁애 프터샥",
      "▁액 티브",
      "▁액 션캠",
      "▁포 밍",
      "▁포 크5",
      "▁PH D5",
      "▁수면 잠옷\n",
      "▁I PS",
      "▁I SK",
      "▁I slan",
      "▁심 플",
      "▁스마트 톡",
      "▁듀 플렉스",
      "▁한 컴오피스",
      "▁WI NT",
      "CT C",
      "▁메 리야",
      "▁카라 넥",
      "▁갤럭시탭 S7",
      "99 00\n",
      "er \n",
      "er we",
      "er ies",
      "▁씨 빅",
      "▁씨 티지",
      "▁MS C",
      "▁드로즈 \n",
      "▁정품 100",
      "▁정품 무한잉크\n",
      "▁비 너스",
      "▁10 세대",
      "▁10 2027",
      "▁USB 3.1",
      "▁베이 지",
      "21 -000",
      "39 10",
      "39 00\n",
      "39 12\n",
      "프로 2",
      "22 0\n",
      "22 5\n",
      "3N )",
      "65 0\n",
      "P1 4",
      "▁피 크",
      "▁피 에스",
      "▁피 부관리",
      "▁피 쉬테",
      "▁20 24",
      "▁20 22",
      "▁다 크",
      "▁유 무선",
      "▁일 리",
      "▁일 본",
      "▁미니 샷",
      "▁미니 12",
      "▁블랙 진",
      "TR 3900\n",
      "▁재 원전자",
      "▁잠옷 바지",
      "OR T",
      "▁X &amp;",
      "▁골 든",
      "▁홈 쇼핑",
      "▁256 00",
      "▁마이크 위생",
      "▁PHD4 TC",
      "ER ALI",
      "16 4\n",
      "16 6\n",
      "16 E-53N",
      "AR \n",
      "AR A",
      "▁부 스터",
      "▁부 드러",
      "▁테 일러",
      "▁MA 1",
      "▁MA -1",
      "▁TW WOP",
      "▁고속충전 기",
      "36 2",
      "C3 10\n",
      "▁도 씨",
      "▁도 착보장",
      "▁하프 집업",
      "▁리버 네트워크",
      "▁밴딩 슬랙스",
      "▁오버핏 \n",
      "▁네 모",
      "▁네 스프레",
      "▁네 티스",
      "▁쉬 폰",
      "▁영 구제품",
      "▁요 가",
      "▁요 크",
      "▁스탠 카라",
      "▁프리 싱",
      "▁프리 컷",
      "▁(M P",
      "▁(M ME",
      "▁(M M9",
      "▁(M NX",
      "▁(M QD8",
      "▁(M V7N",
      "▁가을 \n",
      "▁듀얼 용",
      "▁상 품",
      "▁상 견례",
      "▁무지 티",
      "▁리얼 \n",
      "▁에어팟 프로2",
      "800 0\n",
      "800 X3D",
      "N4 30HW\n",
      "an more",
      "▁0 739",
      "▁바 디",
      "▁바 바",
      "▁엠 비에",
      "▁엠 포리오",
      "▁초 경",
      "▁초 경량",
      "▁24 인치",
      "▁27 UP",
      "▁27 GP",
      "▁SA CTC",
      "▁SL- T16",
      "▁(2 color)\n",
      "▁수납 홀더",
      "-A 58",
      "200 2\n",
      "58 4E-53N",
      "BL \n",
      "▁Y P3WH",
      "▁Y N4D9",
      "▁배 기",
      "▁배 터",
      "▁야 한",
      "▁장 기모",
      "▁장 마우스",
      "▁CK I",
      "▁CK 언더웨어",
      "▁모달 팬티",
      "▁MSC4 TR",
      "▁MSC4 UI",
      "▁칼라 리스",
      "▁16 3cm",
      "▁카드 수납",
      "▁카드 리더기\n",
      "▁카드 케이스",
      "▁갤럭시북 2",
      "▁32 GB\n",
      "▁32 GP",
      "▁32 MN500",
      "▁32 YE265",
      "▁NT 550",
      "▁HD \n",
      "29 12\n",
      "M4 2510\n",
      "▁쿠 로미",
      "모니터 암",
      "지오 지아",
      "▁스웨 터\n",
      "▁AX 15",
      "▁AX 2000",
      "▁갤럭시워치 4",
      "▁오디 언트",
      "▁Wi reless",
      "▁프로젝트 M",
      "▁이어 프리",
      "▁정장 원피스",
      "▁비비안 스킨",
      "▁10. 4",
      "▁64G \n",
      "▁Ultra \n",
      "JK D49",
      "ic e",
      "▁m iro",
      "▁m uPAD",
      "▁르 오트",
      "▁르 투아",
      "▁벤 치",
      "▁벤 투스",
      "▁전 기",
      "▁전 략",
      "▁전 문가용",
      "▁받침대 \n",
      "▁스타 디움",
      "▁플레이 텍스",
      "▁이너 웨어",
      "▁헤드 폰\n",
      "73 3\n",
      "73 3N)",
      "ES T",
      "KR \n",
      "N8 2520\n",
      "ss 10",
      "ss port",
      "▁랄 프",
      "▁선 반",
      "▁어 깨",
      "▁어 댑",
      "▁어 니우",
      "▁어 드벤처",
      "▁웨 이코",
      "▁웨 일즈",
      "▁텐 션",
      "▁텐 키리스",
      "▁스페 인",
      "▁MI XXO",
      "▁브라탑 \n",
      "▁사각 팬티",
      "▁갤럭시S23 플러스",
      "▁갤럭시S23 울트라",
      "▁TWHCT N820",
      "▁슈퍼 소닉",
      "MK 430",
      "▁i 5",
      "▁안 감",
      "▁앤 커",
      "▁필 터\n",
      "폴라 니트",
      "▁아우터 \n",
      "▁SE T-",
      "▁SP AO",
      "▁12 .9",
      "▁AH 20",
      "▁CL BW",
      "▁롱패딩 \n",
      "▁라이트 닝",
      "▁무스탕 \n",
      "▁오리 털",
      "▁폴라 플리스",
      "▁보호 필름",
      "▁이어폰 \n",
      "▁플레이스테이션 5",
      "▁NVM e",
      "110 2\n",
      "110 3\n",
      "224 MSG",
      "CM 501\n",
      "▁단 추",
      "▁단 품\n",
      "▁단 체티",
      "▁런 칭",
      "▁목 티",
      "▁볼 펜",
      "▁윈 드러",
      "▁컴 플",
      "▁화 이트\n",
      "▁워크 퀘어",
      "▁IT MB",
      "▁IT MA",
      "▁IT NC",
      "▁IT N9Z",
      "▁플라 핏",
      "▁플라 스틱",
      "▁오픈 형",
      "▁조립 컴퓨터",
      "▁PHC4 TC",
      "▁한글 과컴퓨터",
      "▁다이아 몬",
      "▁SL-C 513W",
      "▁SWHCT N4",
      "▁NT9 40",
      "▁스타일 러",
      "▁와이 셔츠",
      "▁대 체",
      "▁매 장판",
      "▁쇼 트",
      "▁페 더",
      "▁페 이크",
      "▁페 미닌",
      "▁해 비",
      "▁해 리슨",
      "▁해 외여행",
      "▁C234MSG 51",
      "▁T23 6M",
      "▁BA PD",
      "▁마인 크래프트",
      "▁40 60",
      "▁725 2417",
      "▁무선충전 기\n",
      "▁키작녀 \n",
      "▁키작녀 바지\n",
      "▁유니 클로",
      "▁PHD4JP 27",
      "▁히든 밴딩",
      "▁EPD4 JD",
      "▁EPD4 JJ",
      "▁라이젠 5",
      "▁초고속 충전",
      "▁장패드 \n",
      "▁LE12 1",
      "290 8\n",
      "UR E",
      "W3WH 4",
      "▁성 해은",
      "▁엘 르이너웨어",
      "▁차 콜",
      "▁콤 보\n",
      "▁펜 톤",
      "▁햄 팬티",
      "▁혼 방",
      "▁흰 색",
      "▁200 -36장\n",
      "▁200 00mAh\n",
      "▁스킨 핏",
      "▁S32 BM7",
      "▁SSD \n",
      "▁AE C4",
      "▁CC W",
      "▁CC 콜렉트",
      "▁TFG 27",
      "▁TFG 34Q",
      "▁BH 584E-53N",
      "▁WB C4",
      "▁파우치 증정]\n",
      "▁에어로 쿨",
      "▁에어로 핏",
      "▁커브 형\n",
      "▁RM JDD4V",
      "▁RM JL",
      "▁RM JKD49",
      "▁도톰 한",
      "▁DDR 3",
      "▁TWHCTM 80",
      "color \n",
      "▁SL-C56 3W",
      "▁SL-C56 3FW",
      "▁결혼식 하객룩",
      "▁microSD XC",
      "-L P",
      "700 0\n",
      "EU 1104\n",
      "JJ 1",
      "XKR \n",
      "▁넥 시",
      "▁논 퀼팅",
      "▁논 슬립",
      "▁등 산",
      "▁변 환",
      "▁서 포트",
      "▁쉐 도우",
      "▁예 뻐",
      "▁접 지",
      "▁젠 더\n",
      "▁허 리",
      "▁허 벅",
      "▁힐 러",
      "▁00 501",
      "추가 )",
      "트레이닝 복",
      "▁패키지 \n",
      "▁SH URE",
      "▁갤럭시Z 플립5",
      "▁라인 어디션",
      "▁BV 26",
      "▁Z234PSG 18",
      "▁80 11",
      "▁917 2411",
      "▁TWW SL",
      "▁라이브 쇼핑",
      "▁MSC4TC 3912\n",
      "▁MIW JHD",
      "▁SM-R 510\n",
      "▁돌잔치 엄마",
      "▁PHC4JP 22",
      "▁치노 팬츠",
      "▁플러피 플리스",
      "▁NT960XG K-K71",
      "▁컨트롤러 \n",
      "▁힌지 보호",
      "720 N\n",
      "94 8\n",
      "by 비비안",
      "ud ent",
      "▁s eries",
      "▁광 학기기/",
      "▁구 글",
      "▁군 인",
      "▁금 장",
      "▁랜 케이블\n",
      "▁뷰 티디바이스",
      "▁얼 굴",
      "▁얼 티메이트",
      "▁연 예인",
      "▁캔 스톤",
      "▁캔 슬링",
      "▁큰 컵",
      "▁000 원",
      "▁위생 팬티",
      "폴로 클럽",
      "▁디스 플레이",
      "▁디스 커버리",
      "▁디테 처블",
      "▁디테 쳐블",
      "▁2종 세트\n",
      "▁St anmore",
      "▁St udent",
      "▁137 980",
      "▁Ac ton",
      "▁ML B",
      "▁자바 라",
      "▁Type -C\n",
      "▁5000 mAh",
      "▁BC BG",
      "▁브러 시드",
      "▁G9 13",
      "▁에어리 즘\n",
      "▁FB 75",
      "▁캐릭 터",
      "▁캐릭 터\n",
      "▁신혼 부부",
      "C4PP1 10",
      "▁88 사이즈",
      "▁클라우드 패딩",
      "▁투피스 세트",
      "▁XL 25",
      "▁PHD4PT 2401\n",
      "▁네이 비",
      "▁네이 처",
      "▁WH-1000XM 5\n",
      "▁WH-1000XM 4\n",
      "N820 20\n",
      "0610 FW",
      "▁7253417 11",
      "▁메모리 카드",
      "▁LIGHTS Y",
      "▁LIGHTS PEED",
      "▁헝가리 구스다운\n",
      "▁NJP3W M9",
      "A4 341\n",
      "O- I",
      "PL )\n",
      "XFT -A51A\n",
      "ZD90 RU",
      "▁w i",
      "▁각 도조절",
      "▁개 조프린",
      "▁래 글런",
      "▁뮤 지컬",
      "▁생 리",
      "▁셔 링",
      "▁숨 쉬는",
      "▁엔 산",
      "▁착 장",
      "▁컬 링",
      "▁콘 서트",
      "▁퀄 컴",
      "▁헌 터네이",
      "▁스웻 팬츠",
      "▁SSGJP M42510\n",
      "▁Pa ssport",
      "▁PEN TON",
      "▁아이보 리\n",
      "▁AS JU",
      "▁C234PSG 18",
      "▁ME X",
      "▁MK 2\n",
      "▁기장 선택",
      "▁플렉시블 \n",
      "▁라운 지웨어",
      "▁BZ -",
      "▁노스 바유",
      "▁오페라글 라스",
      "▁(27 ART",
      "▁(PS 5)\n",
      "▁남자반 폴라니트",
      "▁GO 3\n",
      "▁트루 젠",
      "▁이상봉 에디션",
      "▁파격 초",
      "▁4D 플러스\n",
      "▁지문 방지",
      "▁블라우스 \n",
      "▁DM 500",
      "▁크리에 이티브",
      "▁원더 브라",
      "▁드라이어 \n",
      "▁조이 콘",
      "▁정보 보안",
      "▁870 L",
      "▁레귤러 핏",
      "▁OH 3WCM",
      "▁포터 블",
      "▁포함 )",
      "▁QXD 8000",
      "▁PHD4PP 20",
      "▁NEP3X H",
      "▁WH-CH 720N\n",
      "▁웨딩 촬영",
      "▁컴퓨터본체 \n",
      "▁SPJPD4 TG",
      "▁CLAW DW",
      "▁컴포트 핏",
      "▁ZOC4FP130 6\n",
      "▁SZBDO 32\n",
      "▁SSDJPM4 10",
      "▁WBC3 L04",
      "▁변색 방지",
      "▁LAI NE",
      "▁T238MDJ 24",
      "▁A234PW DA",
      "▁(SM-T 733N)",
      "▁Extender -A",
      "▁레빅터프 플러스\n",
      "▁CLT-K5 10",
      "▁즉석 카메라",
      "▁비버리힐즈 폴로클럽",
      "+선 물2종",
      "-7 30",
      "1HC 0",
      "2K 3KH/A)\n",
      "3KU G\n",
      "4S E\n",
      "CX 플러스\n",
      "D컵 E컵",
      "DAN O",
      "F16 V",
      "G54T \n",
      "HTR 0610FW",
      "POL E",
      "PD4V U",
      "lig ht",
      "▁갈 바닉",
      "▁감 탄브라",
      "▁깔 깔이",
      "▁꽃 무늬",
      "▁덮 개",
      "▁릴 렉스",
      "▁망 원경",
      "▁민 소매",
      "▁범 퍼",
      "▁별 의",
      "▁빛 번짐",
      "▁뽕 브라",
      "▁산 리오",
      "▁샘 방지",
      "▁섹 시",
      "▁쌍 안경",
      "▁씽 크웨이",
      "▁얇 은",
      "▁왕 뽕",
      "▁욜 로",
      "▁용 과",
      "▁웰 론",
      "▁짐 웨어",
      "▁축 교환",
      "▁판 도라",
      "▁핀 턱",
      "▁할 머니",
      "▁핫 멜",
      "▁전자 책",
      "베이 직",
      "이벤처 스",
      "컴퍼 니",
      "▁2.5 CX플러스\n",
      "▁스플래 툰3",
      "▁아리스 토우",
      "▁아라시 비전",
      "▁SPP PD4VU",
      "▁S43 BM7",
      "▁Sil ver",
      "▁Skin IQ",
      "▁POW ER",
      "▁Prem ium",
      "▁A36 66",
      "▁APP \n",
      "▁ANK ER",
      "▁Cla ss10",
      "▁Mar k",
      "▁Micro soft",
      "▁373 90",
      "▁에스티 나인",
      "▁LB4 1HC0",
      "▁Lit e",
      "▁Lux e",
      "▁프라이 버시",
      "▁프롬마 치",
      "▁T21 8",
      "▁TRO IS",
      "▁Tou ch",
      "▁Thur sday",
      "▁Bus iness",
      "▁BEA M\n",
      "▁BEAN POLE",
      "▁N21 4UDW",
      "▁세인트 제임스",
      "▁세이브 존02",
      "▁Eig er",
      "▁E224PSG 18",
      "▁EDIT ION",
      "▁EQW EAR",
      "▁G80 /20",
      "▁GEN ERALI",
      "▁G-C UT",
      "▁GIOR DANO",
      "▁이북리더 기",
      "▁PC3-1 28",
      "▁DEL L",
      "▁Und erwe",
      "▁HOO D",
      "▁크롬캐 스트",
      "▁[네이 버",
      "▁[미국백화 점]",
      "▁고주파 마사지기",
      "▁712 2417",
      "▁신구로 점",
      "▁시나모 롤",
      "▁시놀로 지",
      "▁8528 3\n",
      "▁8BIT DO",
      "▁제우스 랩",
      "▁클릭키 \n",
      "▁Off ice",
      "▁PHD5 TR3900\n",
      "▁Islan d",
      "▁WINT ER",
      "▁메리야 스",
      "▁피에스 이벤처스",
      "▁피부관리 기\n",
      "▁피쉬테 일",
      "▁X&amp; X",
      "▁마이크위생 커버",
      "▁PHD4TC 29",
      "▁부드러 운",
      "▁테일러 드",
      "▁네스프레 소",
      "▁영구제품 키",
      "▁(MQD8 3KH/A)\n",
      "▁엠비에 프",
      "▁SL-T16 70",
      "-A58 A\n",
      "▁YP3WH 830\n",
      "▁장마우스 패드",
      "▁비비안스킨 핏",
      "▁miro -",
      "▁어니우 니",
      "▁웨이코 스",
      "▁SET- UP",
      "▁CLBW DW",
      "▁윈드러 너",
      "▁플라스틱 아일랜드",
      "▁매장판 )",
      "▁RMJDD4V R",
      "▁RMJL D4TR",
      "▁RMJKD49 R",
      "▁9172411 98",
      "▁MIWJHD V11",
      "▁광학기기/ 용품\n",
      "ZD90RU -GX56K\n",
      "▁개조프린 터용",
      "▁헌터네이 비",
      "▁(27ART 10",
      "▁판도라 by비비안",
      "▁Business \n",
      "▁GENERALI DEA",
      "▁Underwe ar"
    ]
  }
}