{
  "version": "1.0",
  "truncation": null,
  "padding": null,
  "added_tokens": [
    {
      "id": 0,
      "content": "[PAD]",
      "single_word": false,
      "lstrip": false,
      "rstrip": false,
      "normalized": false,
      "special": true
    },
    {
      "id": 1,
      "content": "[UNK]",
      "single_word": false,
      "lstrip": false,
      "rstrip": false,
      "normalized": false,
      "special": true
    },
    {
      "id": 2,
      "content": "[CLS]",
      "single_word": false,
      "lstrip": false,
      "rstrip": false,
      "normalized": false,
      "special": true
    },
    {
      "id": 3,
      "content": "[SEP]",
      "single_word": false,
      "lstrip": false,
      "rstrip": false,
      "normalized": false,
      "special": true
    },
    {
      "id": 4,
      "content": "[MASK]",
      "single_word": false,
      "lstrip": false,
      "rstrip": false,
      "normalized": false,
      "special": true
    }
  ],
  "normalizer": {
    "type": "BertNormalizer",
    "clean_text": true,
    "handle_chinese_chars": true,
    "strip_accents": false,
    "lowercase": false
  },
  "pre_tokenizer": {
    "type": "BertPreTokenizer"
  },
  "post_processor": null,
  "decoder": {
    "type": "WordPiece",
    "prefix": "##",
    "cleanup": true
  },
  "model": {
    "type": "WordPiece",
    "unk_token": "[UNK]",
    "continuing_subword_prefix": "##",
    "max_input_chars_per_word": 100,
    "vocab": {
      "[PAD]": 0,
      "[UNK]": 1,
      "[CLS]": 2,
      "[SEP]": 3,
      "[MASK]": 4,
      "%": 5,
      "&": 6,
      "(": 7,
      ")": 8,
      "+": 9,
      ",": 10,
      "-": 11,
      ".": 12,
      "/": 13,
      "0": 14,
      "1": 15,
      "2": 16,
      "3": 17,
      "4": 18,
      "5": 19,
      "6": 20,
      "7": 21,
      "8": 22,
      "9": 23,
      ";": 24,
      "A": 25,
      "B": 26,
      "C": 27,
      "D": 28,
      "E": 29,
      "F": 30,
      "G": 31,
      "H": 32,
      "I": 33,
      "J": 34,
      "K": 35,
      "L": 36,
      "M": 37,
      "N": 38,
      "O": 39,
      "P": 40,
      "Q": 41,
      "R": 42,
      "S": 43,
      "T": 44,
      "U": 45,
      "V": 46,
      "W": 47,
      "X": 48,
      "Y": 49,
      "Z": 50,
      "[": 51,
      "]": 52,
      "a": 53,
      "b": 54,
      "c": 55,
      "d": 56,
      "e": 57,
      "f": 58,
      "g": 59,
      "h": 60,
      "i": 61,
      "j": 62,
      "k": 63,
      "l": 64,
      "m": 65,
      "n": 66,
      "o": 67,
      "p": 68,
      "r": 69,
      "s": 70,
      "t": 71,
      "u": 72,
      "v": 73,
      "w": 74,
      "x": 75,
      "y": 76,
      "z": 77,
      "™": 78,
      "Ⅰ": 79,
      "Ⅲ": 80,
      "가": 81,
      "각": 82,
      "간": 83,
      "갈": 84,
      "감": 85,
      "강": 86,
      "같": 87,
      "개": 88,
      "객": 89,
      "갤": 90,
      "거": 91,
      "건": 92,
      "걸": 93,
      "검": 94,
      "게": 95,
      "겐": 96,
      "겨": 97,
      "격": 98,
      "견": 99,
      "결": 100,
      "겹": 101,
      "경": 102,
      "계": 103,
      "고": 104,
      "골": 105,
      "곰": 106,
      "공": 107,
      "과": 108,
      "관": 109,
      "광": 110,
      "교": 111,
      "구": 112,
      "국": 113,
      "군": 114,
      "굴": 115,
      "굿": 116,
      "규": 117,
      "귤": 118,
      "그": 119,
      "극": 120,
      "근": 121,
      "글": 122,
      "금": 123,
      "급": 124,
      "기": 125,
      "긴": 126,
      "길": 127,
      "김": 128,
      "깅": 129,
      "까": 130,
      "깍": 131,
      "깔": 132,
      "깨": 133,
      "꺼": 134,
      "께": 135,
      "꼭": 136,
      "꼴": 137,
      "꽃": 138,
      "꽈": 139,
      "꾸": 140,
      "꿀": 141,
      "끄": 142,
      "끈": 143,
      "끌": 144,
      "끼": 145,
      "낌": 146,
      "나": 147,
      "낚": 148,
      "난": 149,
      "날": 150,
      "남": 151,
      "납": 152,
      "낫": 153,
      "내": 154,
      "냅": 155,
      "냉": 156,
      "너": 157,
      "널": 158,
      "넓": 159,
      "넛": 160,
      "네": 161,
      "넥": 162,
      "넨": 163,
      "넬": 164,
      "넷": 165,
      "녀": 166,
      "년": 167,
      "노": 168,
      "녹": 169,
      "논": 170,
      "놀": 171,
      "높": 172,
      "누": 173,
      "눕": 174,
      "뉴": 175,
      "늄": 176,
      "느": 177,
      "는": 178,
      "능": 179,
      "늬": 180,
      "니": 181,
      "닉": 182,
      "닌": 183,
      "닐": 184,
      "님": 185,
      "닝": 186,
      "다": 187,
      "닥": 188,
      "단": 189,
      "달": 190,
      "담": 191,
      "당": 192,
      "대": 193,
      "댄": 194,
      "댑": 195,
      "더": 196,
      "덕": 197,
      "던": 198,
      "덤": 199,
      "덮": 200,
      "데": 201,
      "덴": 202,
      "델": 203,
      "도": 204,
      "돈": 205,
      "돌": 206,
      "동": 207,
      "돼": 208,
      "두": 209,
      "둘": 210,
      "뒤": 211,
      "뒷": 212,
      "듀": 213,
      "드": 214,
      "든": 215,
      "들": 216,
      "듬": 217,
      "등": 218,
      "디": 219,
      "딘": 220,
      "딜": 221,
      "딥": 222,
      "딩": 223,
      "따": 224,
      "떠": 225,
      "떼": 226,
      "똥": 227,
      "뜨": 228,
      "뜸": 229,
      "뜻": 230,
      "라": 231,
      "락": 232,
      "란": 233,
      "랄": 234,
      "람": 235,
      "랍": 236,
      "랑": 237,
      "래": 238,
      "랙": 239,
      "랜": 240,
      "램": 241,
      "랩": 242,
      "랭": 243,
      "략": 244,
      "량": 245,
      "러": 246,
      "럭": 247,
      "런": 248,
      "럴": 249,
      "럼": 250,
      "럽": 251,
      "렁": 252,
      "레": 253,
      "렉": 254,
      "렌": 255,
      "렙": 256,
      "렛": 257,
      "력": 258,
      "령": 259,
      "례": 260,
      "로": 261,
      "록": 262,
      "론": 263,
      "롤": 264,
      "롬": 265,
      "롭": 266,
      "롯": 267,
      "롱": 268,
      "료": 269,
      "룡": 270,
      "루": 271,
      "룩": 272,
      "룸": 273,
      "룹": 274,
      "류": 275,
      "륨": 276,
      "르": 277,
      "름": 278,
      "리": 279,
      "릭": 280,
      "린": 281,
      "릴": 282,
      "림": 283,
      "립": 284,
      "릿": 285,
      "링": 286,
      "마": 287,
      "막": 288,
      "만": 289,
      "많": 290,
      "말": 291,
      "맘": 292,
      "망": 293,
      "매": 294,
      "맥": 295,
      "맨": 296,
      "맵": 297,
      "머": 298,
      "먼": 299,
      "멀": 300,
      "멈": 301,
      "메": 302,
      "멕": 303,
      "멘": 304,
      "멜": 305,
      "면": 306,
      "명": 307,
      "모": 308,
      "목": 309,
      "몬": 310,
      "몰": 311,
      "몽": 312,
      "무": 313,
      "묶": 314,
      "문": 315,
      "물": 316,
      "뮤": 317,
      "므": 318,
      "미": 319,
      "믹": 320,
      "민": 321,
      "밀": 322,
      "밍": 323,
      "바": 324,
      "박": 325,
      "반": 326,
      "받": 327,
      "발": 328,
      "밤": 329,
      "방": 330,
      "배": 331,
      "백": 332,
      "밴": 333,
      "밸": 334,
      "뱃": 335,
      "뱅": 336,
      "버": 337,
      "벅": 338,
      "번": 339,
      "범": 340,
      "베": 341,
      "벤": 342,
      "벨": 343,
      "벳": 344,
      "벼": 345,
      "변": 346,
      "별": 347,
      "보": 348,
      "복": 349,
      "본": 350,
      "볼": 351,
      "봄": 352,
      "봉": 353,
      "봐": 354,
      "부": 355,
      "북": 356,
      "분": 357,
      "뷔": 358,
      "뷰": 359,
      "브": 360,
      "븐": 361,
      "블": 362,
      "비": 363,
      "빅": 364,
      "빈": 365,
      "빌": 366,
      "빔": 367,
      "빙": 368,
      "빛": 369,
      "뻐": 370,
      "뽀": 371,
      "뽕": 372,
      "쁜": 373,
      "삐": 374,
      "사": 375,
      "산": 376,
      "살": 377,
      "삼": 378,
      "상": 379,
      "새": 380,
      "색": 381,
      "샌": 382,
      "샘": 383,
      "생": 384,
      "샤": 385,
      "샥": 386,
      "샬": 387,
      "샵": 388,
      "샷": 389,
      "서": 390,
      "석": 391,
      "선": 392,
      "설": 393,
      "성": 394,
      "세": 395,
      "섹": 396,
      "센": 397,
      "셀": 398,
      "셉": 399,
      "셋": 400,
      "셔": 401,
      "션": 402,
      "셜": 403,
      "소": 404,
      "속": 405,
      "손": 406,
      "솔": 407,
      "솜": 408,
      "송": 409,
      "쇄": 410,
      "쇼": 411,
      "숄": 412,
      "숏": 413,
      "수": 414,
      "순": 415,
      "술": 416,
      "숨": 417,
      "숲": 418,
      "쉐": 419,
      "쉘": 420,
      "쉬": 421,
      "쉴": 422,
      "슈": 423,
      "슐": 424,
      "스": 425,
      "슨": 426,
      "슬": 427,
      "슴": 428,
      "습": 429,
      "승": 430,
      "시": 431,
      "식": 432,
      "신": 433,
      "실": 434,
      "심": 435,
      "싱": 436,
      "쌍": 437,
      "써": 438,
      "썬": 439,
      "쎄": 440,
      "쏘": 441,
      "쓸": 442,
      "씨": 443,
      "씽": 444,
      "아": 445,
      "안": 446,
      "알": 447,
      "암": 448,
      "앙": 449,
      "앞": 450,
      "애": 451,
      "액": 452,
      "앤": 453,
      "앱": 454,
      "앵": 455,
      "야": 456,
      "약": 457,
      "얇": 458,
      "양": 459,
      "어": 460,
      "언": 461,
      "얼": 462,
      "엄": 463,
      "업": 464,
      "없": 465,
      "에": 466,
      "엑": 467,
      "엔": 468,
      "엘": 469,
      "엠": 470,
      "엡": 471,
      "엣": 472,
      "여": 473,
      "역": 474,
      "연": 475,
      "열": 476,
      "염": 477,
      "영": 478,
      "옆": 479,
      "예": 480,
      "오": 481,
      "온": 482,
      "올": 483,
      "옴": 484,
      "옵": 485,
      "옷": 486,
      "와": 487,
      "완": 488,
      "왕": 489,
      "외": 490,
      "요": 491,
      "욕": 492,
      "욜": 493,
      "용": 494,
      "우": 495,
      "운": 496,
      "울": 497,
      "움": 498,
      "웃": 499,
      "워": 500,
      "웍": 501,
      "원": 502,
      "월": 503,
      "웜": 504,
      "웨": 505,
      "웰": 506,
      "웻": 507,
      "위": 508,
      "윈": 509,
      "윌": 510,
      "윙": 511,
      "유": 512,
      "육": 513,
      "윤": 514,
      "율": 515,
      "융": 516,
      "은": 517,
      "을": 518,
      "음": 519,
      "의": 520,
      "이": 521,
      "익": 522,
      "인": 523,
      "일": 524,
      "임": 525,
      "입": 526,
      "잇": 527,
      "있": 528,
      "잉": 529,
      "잎": 530,
      "자": 531,
      "작": 532,
      "잔": 533,
      "잗": 534,
      "잠": 535,
      "장": 536,
      "재": 537,
      "잭": 538,
      "쟈": 539,
      "저": 540,
      "전": 541,
      "절": 542,
      "점": 543,
      "접": 544,
      "정": 545,
      "제": 546,
      "젝": 547,
      "젠": 548,
      "젤": 549,
      "젯": 550,
      "져": 551,
      "조": 552,
      "족": 553,
      "존": 554,
      "좀": 555,
      "종": 556,
      "좋": 557,
      "주": 558,
      "죽": 559,
      "준": 560,
      "줄": 561,
      "중": 562,
      "쥐": 563,
      "쥬": 564,
      "즈": 565,
      "즉": 566,
      "즌": 567,
      "즘": 568,
      "증": 569,
      "지": 570,
      "직": 571,
      "진": 572,
      "질": 573,
      "짐": 574,
      "집": 575,
      "짜": 576,
      "짭": 577,
      "짱": 578,
      "쫄": 579,
      "쭈": 580,
      "찌": 581,
      "찢": 582,
      "차": 583,
      "착": 584,
      "찬": 585,
      "채": 586,
      "책": 587,
      "처": 588,
      "천": 589,
      "첩": 590,
      "청": 591,
      "체": 592,
      "쳐": 593,
      "초": 594,
      "촉": 595,
      "촌": 596,
      "총": 597,
      "촬": 598,
      "최": 599,
      "추": 600,
      "축": 601,
      "출": 602,
      "충": 603,
      "츄": 604,
      "츠": 605,
      "치": 606,
      "침": 607,
      "칩": 608,
      "칭": 609,
      "카": 610,
      "칸": 611,
      "칼": 612,
      "캉": 613,
      "캐": 614,
      "캔": 615,
      "캘": 616,
      "캠": 617,
      "캡": 618,
      "커": 619,
      "컨": 620,
      "컬": 621,
      "컴": 622,
      "컵": 623,
      "컷": 624,
      "케": 625,
      "켄": 626,
      "켓": 627,
      "코": 628,
      "콘": 629,
      "콜": 630,
      "콤": 631,
      "쿠": 632,
      "쿡": 633,
      "쿤": 634,
      "쿨": 635,
      "쿼": 636,
      "퀄": 637,
      "퀘": 638,
      "퀵": 639,
      "퀼": 640,
      "큐": 641,
      "크": 642,
      "큰": 643,
      "클": 644,
      "키": 645,
      "킨": 646,
      "킴": 647,
      "킷": 648,
      "킹": 649,
      "타": 650,
      "탁": 651,
      "탄": 652,
      "탈": 653,
      "탑": 654,
      "탕": 655,
      "태": 656,
      "택": 657,
      "탠": 658,
      "탭": 659,
      "터": 660,
      "턱": 661,
      "턴": 662,
      "털": 663,
      "텀": 664,
      "테": 665,
      "텍": 666,
      "텐": 667,
      "텔": 668,
      "템": 669,
      "텝": 670,
      "텡": 671,
      "토": 672,
      "톡": 673,
      "톤": 674,
      "톰": 675,
      "통": 676,
      "투": 677,
      "툰": 678,
      "튜": 679,
      "트": 680,
      "특": 681,
      "튼": 682,
      "틀": 683,
      "티": 684,
      "틱": 685,
      "틴": 686,
      "틸": 687,
      "팀": 688,
      "팅": 689,
      "파": 690,
      "판": 691,
      "팔": 692,
      "팜": 693,
      "팝": 694,
      "팟": 695,
      "패": 696,
      "팩": 697,
      "팬": 698,
      "팰": 699,
      "팽": 700,
      "퍼": 701,
      "펄": 702,
      "페": 703,
      "펙": 704,
      "펜": 705,
      "펠": 706,
      "편": 707,
      "포": 708,
      "폭": 709,
      "폰": 710,
      "폴": 711,
      "폼": 712,
      "푸": 713,
      "풀": 714,
      "품": 715,
      "풍": 716,
      "퓨": 717,
      "프": 718,
      "픈": 719,
      "플": 720,
      "피": 721,
      "픽": 722,
      "핀": 723,
      "필": 724,
      "핏": 725,
      "핑": 726,
      "하": 727,
      "학": 728,
      "한": 729,
      "할": 730,
      "함": 731,
      "합": 732,
      "핫": 733,
      "항": 734,
      "해": 735,
      "핵": 736,
      "핸": 737,
      "햄": 738,
      "햅": 739,
      "행": 740,
      "향": 741,
      "허": 742,
      "헌": 743,
      "헝": 744,
      "헤": 745,
      "헬": 746,
      "헴": 747,
      "현": 748,
      "형": 749,
      "호": 750,
      "혼": 751,
      "홀": 752,
      "홈": 753,
      "홑": 754,
      "화": 755,
      "확": 756,
      "환": 757,
      "활": 758,
      "회": 759,
      "획": 760,
      "효": 761,
      "후": 762,
      "휘": 763,
      "휠": 764,
      "휴": 765,
      "흑": 766,
      "흥": 767,
      "희": 768,
      "흰": 769,
      "히": 770,
      "힌": 771,
      "힐": 772,
      "힙": 773,
      "##스": 774,
      "##토": 775,
      "##퍼": 776,
      "##블": 777,
      "##카": 778,
      "##라": 779,
      "##킨": 780,
      "##핏": 781,
      "##칭": 782,
      "##가": 783,
      "##7": 784,
      "##9": 785,
      "##0": 786,
      "##원": 787,
      "##리": 788,
      "##에": 789,
      "##이": 790,
      "##터": 791,
      "##찬": 792,
      "##치": 793,
      "##F": 794,
      "##3": 795,
      "##X": 796,
      "##C": 797,
      "##5": 798,
      "##B": 799,
      "##파": 800,
      "##M": 801,
      "##A": 802,
      "##2": 803,
      "##P": 804,
      "##4": 805,
      "##L": 806,
      "##6": 807,
      "##택": 808,
      "##비": 809,
      "##메": 810,
      "##르": 811,
      "##J": 812,
      "##D": 813,
      "##T": 814,
      "##R": 815,
      "##1": 816,
      "##버": 817,
      "##서": 818,
      "##론": 819,
      "##O": 820,
      "##E": 821,
      "##N": 822,
      "##랙": 823,
      "##디": 824,
      "##션": 825,
      "##코": 826,
      "##테": 827,
      "##혼": 828,
      "##모": 829,
      "##바": 830,
      "##지": 831,
      "##로": 832,
      "##U": 833,
      "##장": 834,
      "##피": 835,
      "##박": 836,
      "##크": 837,
      "##튼": 838,
      "##달": 839,
      "##자": 840,
      "##안": 841,
      "##인": 842,
      "##해": 843,
      "##은": 844,
      "##K": 845,
      "##G": 846,
      "##u": 847,
      "##a": 848,
      "##l": 849,
      "##8": 850,
      "##W": 851,
      "##어": 852,
      "##팟": 853,
      "##Z": 854,
      "##Q": 855,
      "##생": 856,
      "##팬": 857,
      "##티": 858,
      "##접": 859,
      "##캡": 860,
      "##k": 861,
      "##e": 862,
      "##p": 863,
      "##m": 864,
      "##n": 865,
      "##t": 866,
      "##활": 867,
      "##보": 868,
      "##호": 869,
      "##c": 870,
      "##럭": 871,
      "##시": 872,
      "##S": 873,
      "##울": 874,
      "##트": 875,
      "##름": 876,
      "##츠": 877,
      "##타": 878,
      "##입": 879,
      "##렌": 880,
      "##H": 881,
      "##체": 882,
      "##영": 883,
      "##엔": 884,
      "##먼": 885,
      "##우": 886,
      "##브": 887,
      "##존": 888,
      "##화": 889,
      "##유": 890,
      "##청": 891,
      "##븐": 892,
      "##소": 893,
      "##닉": 894,
      "##h": 895,
      "##도": 896,
      "##마": 897,
      "##I": 898,
      "##용": 899,
      "##드": 900,
      "##일": 901,
      "##형": 902,
      "##녀": 903,
      "##래": 904,
      "##픽": 905,
      "##음": 906,
      "##강": 907,
      "##귤": 908,
      "##러": 909,
      "##워": 910,
      "##프": 911,
      "##머": 912,
      "##니": 913,
      "##성": 914,
      "##레": 915,
      "##닝": 916,
      "##온": 917,
      "##넥": 918,
      "##언": 919,
      "##V": 920,
      "##고": 921,
      "##아": 922,
      "##패": 923,
      "##딩": 924,
      "##톤": 925,
      "##랜": 926,
      "##케": 927,
      "##희": 928,
      "##루": 929,
      "##잠": 930,
      "##옷": 931,
      "##b": 932,
      "##o": 933,
      "##w": 934,
      "##동": 935,
      "##발": 936,
      "##송": 937,
      "##즈": 938,
      "##d": 939,
      "##운": 940,
      "##i": 941,
      "##물": 942,
      "##종": 943,
      "##롱": 944,
      "##구": 945,
      "##다": 946,
      "##와": 947,
      "##미": 948,
      "##전": 949,
      "##오": 950,
      "##키": 951,
      "##더": 952,
      "##액": 953,
      "##플": 954,
      "##펜": 955,
      "##슬": 956,
      "##쿠": 957,
      "##품": 958,
      "##임": 959,
      "##싱": 960,
      "##포": 961,
      "##센": 962,
      "##클": 963,
      "##켓": 964,
      "##저": 965,
      "##목": 966,
      "##제": 967,
      "##컬": 968,
      "##렉": 969,
      "##컵": 970,
      "##셔": 971,
      "##널": 972,
      "##그": 973,
      "##업": 974,
      "##산": 975,
      "##나": 976,
      "##세": 977,
      "##데": 978,
      "##님": 979,
      "##속": 980,
      "##퀼": 981,
      "##팅": 982,
      "##밍": 983,
      "##허": 984,
      "##링": 985,
      "##덕": 986,
      "##숏": 987,
      "##점": 988,
      "##펙": 989,
      "##판": 990,
      "##듀": 991,
      "##츄": 992,
      "##문": 993,
      "##방": 994,
      "##푸": 995,
      "##s": 996,
      "##웨": 997,
      "##핸": 998,
      "##던": 999,
      "##교": 1000,
      "##환": 1001,
      "##퀄": 1002,
      "##실": 1003,
      "##멜": 1004,
      "##든": 1005,
      "##북": 1006,
      "##볼": 1007,
      "##웃": 1008,
      "##베": 1009,
      "##왕": 1010,
      "##기": 1011,
      "##상": 1012,
      "##컴": 1013,
      "##수": 1014,
      "##셜": 1015,
      "##팀": 1016,
      "##잇": 1017,
      "##컨": 1018,
      "##위": 1019,
      "##앙": 1020,
      "##무": 1021,
      "##착": 1022,
      "##중": 1023,
      "##넛": 1024,
      "##립": 1025,
      "##커": 1026,
      "##주": 1027,
      "##매": 1028,
      "##진": 1029,
      "##슴": 1030,
      "##얼": 1031,
      "##욕": 1032,
      "##학": 1033,
      "##절": 1034,
      "##조": 1035,
      "##칼": 1036,
      "##렛": 1037,
      "##틸": 1038,
      "##융": 1039,
      "##함": 1040,
      "##핑": 1041,
      "##백": 1042,
      "##정": 1043,
      "##필": 1044,
      "##픈": 1045,
      "##런": 1046,
      "##들": 1047,
      "##채": 1048,
      "##린": 1049,
      "##여": 1050,
      "##즌": 1051,
      "##Y": 1052,
      "##겨": 1053,
      "##태": 1054,
      "##처": 1055,
      "##량": 1056,
      "##각": 1057,
      "##대": 1058,
      "##사": 1059,
      "##양": 1060,
      "##너": 1061,
      "##란": 1062,
      "##넬": 1063,
      "##족": 1064,
      "##탭": 1065,
      "##텀": 1066,
      "##색": 1067,
      "##릿": 1068,
      "##톰": 1069,
      "##페": 1070,
      "##선": 1071,
      "##f": 1072,
      "##략": 1073,
      "##배": 1074,
      "##력": 1075,
      "##탄": 1076,
      "##헬": 1077,
      "##복": 1078,
      "##팩": 1079,
      "##킹": 1080,
      "##빙": 1081,
      "##랩": 1082,
      "##없": 1083,
      "##는": 1084,
      "##근": 1085,
      "##림": 1086,
      "##폰": 1087,
      "##뱅": 1088,
      "##벨": 1089,
      "##게": 1090,
      "##작": 1091,
      "##쥬": 1092,
      "##면": 1093,
      "##엘": 1094,
      "##개": 1095,
      "##내": 1096,
      "##부": 1097,
      "##계": 1098,
      "##줄": 1099,
      "##까": 1100,
      "##씨": 1101,
      "##콜": 1102,
      "##r": 1103,
      "##끈": 1104,
      "##본": 1105,
      "##거": 1106,
      "##펠": 1107,
      "##힐": 1108,
      "##y": 1109,
      "##삐": 1110,
      "##x": 1111,
      "##공": 1112,
      "##앵": 1113,
      "##글": 1114,
      "##의": 1115,
      "##투": 1116,
      "##륨": 1117,
      "##한": 1118,
      "##잉": 1119,
      "##밴": 1120,
      "##샷": 1121,
      "##신": 1122,
      "##홀": 1123,
      "##튜": 1124,
      "##톡": 1125,
      "##넷": 1126,
      "##z": 1127,
      "##몬": 1128,
      "##하": 1129,
      "##견": 1130,
      "##딘": 1131,
      "##롬": 1132,
      "##캐": 1133,
      "##캔": 1134,
      "##국": 1135,
      "##엠": 1136,
      "##집": 1137,
      "##끼": 1138,
      "##털": 1139,
      "##릭": 1140,
      "##광": 1141,
      "##추": 1142,
      "##맨": 1143,
      "##암": 1144,
      "##럴": 1145,
      "##폴": 1146,
      "##탠": 1147,
      "##탁": 1148,
      "##뷰": 1149,
      "##후": 1150,
      "##댑": 1151,
      "##람": 1152,
      "##쥐": 1153,
      "##록": 1154,
      "##셀": 1155,
      "##네": 1156,
      "##감": 1157,
      "##충": 1158,
      "##객": 1159,
      "##룩": 1160,
      "##외": 1161,
      "##행": 1162,
      "##담": 1163,
      "##곰": 1164,
      "##즘": 1165,
      "##틀": 1166,
      "##콤": 1167,
      "##간": 1168,
      "##핫": 1169,
      "##램": 1170,
      "##떼": 1171,
      "##텐": 1172,
      "##밸": 1173,
      "##술": 1174,
      "##잔": 1175,
      "##엄": 1176,
      "##직": 1177,
      "##단": 1178,
      "##맥": 1179,
      "##락": 1180,
      "##월": 1181,
      "##냅": 1182,
      "##밀": 1183,
      "##탈": 1184,
      "##향": 1185,
      "##쇼": 1186,
      "##알": 1187,
      "##덴": 1188,
      "##셋": 1189,
      "##벅": 1190,
      "##돼": 1191,
      "##만": 1192,
      "##년": 1193,
      "##격": 1194,
      "##텍": 1195,
      "##재": 1196,
      "##룸": 1197,
      "##슨": 1198,
      "##롤": 1199,
      "##탑": 1200,
      "##랑": 1201,
      "##홈": 1202,
      "##벤": 1203,
      "##질": 1204,
      "##과": 1205,
      "##렙": 1206,
      "##샵": 1207,
      "##납": 1208,
      "##컷": 1209,
      "##축": 1210,
      "##결": 1211,
      "##날": 1212,
      "##팔": 1213,
      "##번": 1214,
      "##경": 1215,
      "##텔": 1216,
      "##큐": 1217,
      "##예": 1218,
      "##쁜": 1219,
      "##례": 1220,
      "##쉴": 1221,
      "##노": 1222,
      "##늄": 1223,
      "##초": 1224,
      "##촬": 1225,
      "##쎄": 1226,
      "##턴": 1227,
      "##젝": 1228,
      "##웻": 1229,
      "##쉬": 1230,
      "##킷": 1231,
      "##류": 1232,
      "##럽": 1233,
      "##찌": 1234,
      "##칸": 1235,
      "##틱": 1236,
      "##요": 1237,
      "##햄": 1238,
      "##봉": 1239,
      "##김": 1240,
      "##열": 1241,
      "##설": 1242,
      "##올": 1243,
      "##굿": 1244,
      "##큰": 1245,
      "##논": 1246,
      "##돌": 1247,
      "##쿤": 1248,
      "##젠": 1249,
      "##손": 1250,
      "##폭": 1251,
      "##석": 1252,
      "##합": 1253,
      "##누": 1254,
      "##쳐": 1255,
      "##닌": 1256,
      "##별": 1257,
      "##막": 1258,
      "##차": 1259,
      "##멘": 1260,
      "##살": 1261,
      "##웜": 1262,
      "##증": 1263,
      "##릴": 1264,
      "##핀": 1265,
      "##급": 1266,
      "##순": 1267,
      "##슐": 1268,
      "##잎": 1269,
      "##겹": 1270,
      "##슈": 1271,
      "##샤": 1272,
      "##깔": 1273,
      "##야": 1274,
      "##캉": 1275,
      "##템": 1276,
      "##심": 1277,
      "##빔": 1278,
      "##몰": 1279,
      "##침": 1280,
      "##벳": 1281,
      "##골": 1282,
      "##v": 1283,
      "##능": 1284,
      "##듬": 1285,
      "##숄": 1286,
      "##뜨": 1287,
      "##몽": 1288,
      "##윙": 1289,
      "##께": 1290,
      "##있": 1291,
      "##뻐": 1292,
      "##료": 1293,
      "##퀘": 1294,
      "##뮤": 1295,
      "##당": 1296,
      "##출": 1297,
      "##셉": 1298,
      "##최": 1299,
      "##육": 1300,
      "##팽": 1301,
      "##텡": 1302,
      "##끌": 1303,
      "##반": 1304,
      "##굴": 1305,
      "##흥": 1306,
      "##g": 1307,
      "##쿨": 1308,
      "##랭": 1309,
      "##윈": 1310,
      "##죽": 1311,
      "##깅": 1312,
      "##녹": 1313,
      "##엑": 1314,
      "##식": 1315,
      "##촉": 1316,
      "##멈": 1317,
      "##현": 1318,
      "##퓨": 1319,
      "##렁": 1320,
      "##델": 1321,
      "##변": 1322,
      "##남": 1323,
      "##넨": 1324,
      "##느": 1325,
      "##낌": 1326,
      "##받": 1327,
      "##익": 1328,
      "##말": 1329,
      "##령": 1330,
      "##회": 1331,
      "##콘": 1332,
      "##밤": 1333,
      "##앤": 1334,
      "##샥": 1335,
      "##롭": 1336,
      "##쟈": 1337,
      "##뜻": 1338,
      "##승": 1339,
      "##같": 1340,
      "##깨": 1341,
      "##뽕": 1342,
      "##습": 1343,
      "##획": 1344,
      "##럼": 1345,
      "##움": 1346,
      "##잗": 1347,
      "##턱": 1348,
      "##등": 1349,
      "##맵": 1350,
      "##쏘": 1351,
      "##규": 1352,
      "##놀": 1353,
      "##™": 1354,
      "##천": 1355,
      "##웍": 1356,
      "##벼": 1357,
      "##쿼": 1358,
      "##뉴": 1359,
      "##연": 1360,
      "##탕": 1361,
      "##짜": 1362,
      "##편": 1363,
      "##특": 1364,
      "##낫": 1365,
      "##빅": 1366,
      "##솔": 1367,
      "##끄": 1368,
      "##빈": 1369,
      "##많": 1370,
      "##뜸": 1371,
      "##짐": 1372,
      "##금": 1373,
      "##약": 1374,
      "##룹": 1375,
      "##꺼": 1376,
      "##룡": 1377,
      "##항": 1378,
      "##닥": 1379,
      "##닐": 1380,
      "##폼": 1381,
      "##첩": 1382,
      "##꼭": 1383,
      "##덤": 1384,
      "##쿡": 1385,
      "##엣": 1386,
      "##두": 1387,
      "##건": 1388,
      "##젯": 1389,
      "##봄": 1390,
      "##틴": 1391,
      "##텝": 1392,
      "##할": 1393,
      "##딜": 1394,
      "##분": 1395,
      "##꾸": 1396,
      "##샬": 1397,
      "##꼴": 1398,
      "##헴": 1399,
      "##랍": 1400,
      "##쉘": 1401,
      "##헤": 1402,
      "##캠": 1403,
      "##넓": 1404,
      "##툰": 1405,
      "##명": 1406,
      "##겐": 1407,
      "##젤": 1408,
      "##킴": 1409,
      "##풀": 1410,
      "##옵": 1411,
      "##옴": 1412,
      "##므": 1413,
      "##봐": 1414,
      "##관": 1415,
      "##뱃": 1416,
      "##늬": 1417,
      "##통": 1418,
      "##쭈": 1419,
      "##을": 1420,
      "##믹": 1421,
      "##멕": 1422,
      "##켄": 1423,
      "##책": 1424,
      "##풍": 1425,
      "##율": 1426,
      "##민": 1427,
      "##히": 1428,
      "##j": 1429,
      "##빌": 1430,
      "##쇄": 1431,
      "##의류": 1432,
      "디지": 1433,
      "디지털": 1434,
      "가전": 1435,
      "패션": 1436,
      "패션의류": 1437,
      "##성의류": 1438,
      "여성의류": 1439,
      "남성의류": 1440,
      "##00": 1441,
      "여성": 1442,
      "##웨어": 1443,
      "##서리": 1444,
      "##액세": 1445,
      "##액세서리": 1446,
      "휴대": 1447,
      "아이": 1448,
      "##가전": 1449,
      "휴대폰": 1450,
      "##전자": 1451,
      "잠옷": 1452,
      "삼성": 1453,
      "##더웨어": 1454,
      "남성": 1455,
      "휴대폰액세서리": 1456,
      "##언더웨어": 1457,
      "케이": 1458,
      "갤럭": 1459,
      "갤럭시": 1460,
      "삼성전자": 1461,
      "##니터": 1462,
      "##다운": 1463,
      "##10": 1464,
      "##기기": 1465,
      "모니터": 1466,
      "여성언더웨어": 1467,
      "구스": 1468,
      "##이드": 1469,
      "##23": 1470,
      "음향": 1471,
      "음향가전": 1472,
      "패딩": 1473,
      "##메라": 1474,
      "##레이": 1475,
      "남자": 1476,
      "23": 1477,
      "기모": 1478,
      "카메라": 1479,
      "##리스": 1480,
      "다운": 1481,
      "점퍼": 1482,
      "##PC": 1483,
      "##FW": 1484,
      "코트": 1485,
      "##24": 1486,
      "겨울": 1487,
      "케이스": 1488,
      "태블": 1489,
      "##01": 1490,
      "##트라": 1491,
      "태블릿": 1492,
      "프로": 1493,
      "##스트": 1494,
      "캠코": 1495,
      "##용품": 1496,
      "##더용품": 1497,
      "캠코더용품": 1498,
      "##변기기": 1499,
      "PC": 1500,
      "23FW": 1501,
      "##티드": 1502,
      "태블릿PC": 1503,
      "##GB": 1504,
      "울트라": 1505,
      "##20": 1506,
      "##엠듀": 1507,
      "아이엠듀": 1508,
      "##피스": 1509,
      "##이즈": 1510,
      "구스다운": 1511,
      "세트": 1512,
      "벨티드": 1513,
      "에어": 1514,
      "후드": 1515,
      "##D4": 1516,
      "##50": 1517,
      "자켓": 1518,
      "##세대": 1519,
      "##30": 1520,
      "주변기기": 1521,
      "##팬티": 1522,
      "##러스": 1523,
      "폭스": 1524,
      "핸드": 1525,
      "##패딩": 1526,
      "아이폰": 1527,
      "게임": 1528,
      "##바지": 1529,
      "##장비": 1530,
      "남성언더웨어": 1531,
      "노트": 1532,
      "브라": 1533,
      "노트북": 1534,
      "##사이즈": 1535,
      "LG": 1536,
      "##메이드": 1537,
      "타이": 1538,
      "##11": 1539,
      "##팬츠": 1540,
      "타이틀": 1541,
      "##C4": 1542,
      "케이블": 1543,
      "게임기": 1544,
      "주방": 1545,
      "팬츠": 1546,
      "##이스": 1547,
      "##60": 1548,
      "##코트": 1549,
      "##234": 1550,
      "주방가전": 1551,
      "니트": 1552,
      "빅사이즈": 1553,
      "##12": 1554,
      "##패드": 1555,
      "LG전자": 1556,
      "##56": 1557,
      "핸드메이드": 1558,
      "스트": 1559,
      "무선": 1560,
      "저장": 1561,
      "##장치": 1562,
      "##le": 1563,
      "##SG": 1564,
      "##in": 1565,
      "저장장치": 1566,
      "원피스": 1567,
      "##AN": 1568,
      "##000": 1569,
      "##이트": 1570,
      "##34": 1571,
      "폭스퍼": 1572,
      "12": 1573,
      "폴햄": 1574,
      "플러스": 1575,
      "##라인": 1576,
      "신지": 1577,
      "하이": 1578,
      "##JP": 1579,
      "##15": 1580,
      "##잠옷": 1581,
      "##커버": 1582,
      "##필름": 1583,
      "##스테": 1584,
      "##90": 1585,
      "##모루": 1586,
      "##투맨": 1587,
      "신지모루": 1588,
      "게이": 1589,
      "지오": 1590,
      "##이어": 1591,
      "##보호": 1592,
      "게이밍": 1593,
      "15": 1594,
      "강화": 1595,
      "멀티": 1596,
      "자동": 1597,
      "##자마": 1598,
      "##유리": 1599,
      "##워크": 1600,
      "##셔츠": 1601,
      "##세이": 1602,
      "강화유리": 1603,
      "S24": 1604,
      "고속": 1605,
      "나이": 1606,
      "와이드": 1607,
      "##27": 1608,
      "##트워크": 1609,
      "##미어": 1610,
      "나이키": 1611,
      "더블": 1612,
      "슬림": 1613,
      "여자": 1614,
      "캐시": 1615,
      "##지텍": 1616,
      "##IT": 1617,
      "##차기기": 1618,
      "아이패드": 1619,
      "자동차기기": 1620,
      "PH": 1621,
      "경량": 1622,
      "맨투맨": 1623,
      "수면": 1624,
      "스마": 1625,
      "팬티": 1626,
      "##리브": 1627,
      "##25": 1628,
      "##디건": 1629,
      "태블릿PC액세서리": 1630,
      "스마트": 1631,
      "WI": 1632,
      "가디건": 1633,
      "정품": 1634,
      "파자마": 1635,
      "##02": 1636,
      "##프트": 1637,
      "##운드": 1638,
      "네트워크": 1639,
      "애플": 1640,
      "이미": 1641,
      "자급": 1642,
      "커플": 1643,
      "##17": 1644,
      "##로즈": 1645,
      "##SB": 1646,
      "##용가전": 1647,
      "##충전": 1648,
      "캐시미어": 1649,
      "네트워크장비": 1650,
      "이미용가전": 1651,
      "자급제": 1652,
      "속옷": 1653,
      "심리스": 1654,
      "##카라": 1655,
      "##3W": 1656,
      "##CT": 1657,
      "##로이": 1658,
      "##80": 1659,
      "##포츠": 1660,
      "##세트": 1661,
      "##듀로이": 1662,
      "128": 1663,
      "MS": 1664,
      "액정": 1665,
      "조거": 1666,
      "카라": 1667,
      "플리스": 1668,
      "##부품": 1669,
      "##퓨터": 1670,
      "갤럭시탭": 1671,
      "##레이닝": 1672,
      "PC부품": 1673,
      "SW": 1674,
      "USB": 1675,
      "거치": 1676,
      "드로즈": 1677,
      "스포츠": 1678,
      "코듀로이": 1679,
      "##이크": 1680,
      "##39": 1681,
      "##65": 1682,
      "##디션": 1683,
      "##디어": 1684,
      "##er": 1685,
      "##워치": 1686,
      "10": 1687,
      "라코": 1688,
      "맥세이": 1689,
      "베이": 1690,
      "퀼팅": 1691,
      "##99": 1692,
      "##FI": 1693,
      "액정보호": 1694,
      "거치대": 1695,
      "라코스테": 1696,
      "맥세이프": 1697,
      "닌텐": 1698,
      "라운드": 1699,
      "로지텍": 1700,
      "리스트": 1701,
      "블루": 1702,
      "##OO": 1703,
      "##우스": 1704,
      "##프로": 1705,
      "##or": 1706,
      "WIFI": 1707,
      "닌텐도": 1708,
      "공용": 1709,
      "반팔": 1710,
      "탑텐": 1711,
      "투명": 1712,
      "##3N": 1713,
      "##PSG": 1714,
      "##점퍼": 1715,
      "3종": 1716,
      "Ap": 1717,
      "미니": 1718,
      "블랙": 1719,
      "트레이닝": 1720,
      "티셔츠": 1721,
      "풀커버": 1722,
      "##32": 1723,
      "##P1": 1724,
      "##KH": 1725,
      "##ple": 1726,
      "##타입": 1727,
      "##브라": 1728,
      "액정보호필름": 1729,
      "Apple": 1730,
      "256": 1731,
      "덕다운": 1732,
      "오버": 1733,
      "충전": 1734,
      "##디스": 1735,
      "##미디어": 1736,
      "멀티미디어": 1737,
      "베이직": 1738,
      "멀티미디어장비": 1739,
      "C타입": 1740,
      "게스": 1741,
      "마이크": 1742,
      "크롭": 1743,
      "푸퍼": 1744,
      "##33": 1745,
      "##CK": 1746,
      "##22": 1747,
      "##40": 1748,
      "##TR": 1749,
      "##100": 1750,
      "##OR": 1751,
      "##ED": 1752,
      "##다노": 1753,
      "##공용": 1754,
      "PC액세서리": 1755,
      "##234PSG": 1756,
      "하이넥": 1757,
      "지오다노": 1758,
      "PHD4": 1759,
      "128GB": 1760,
      "53N": 1761,
      "NE": 1762,
      "남녀": 1763,
      "노와": 1764,
      "바지": 1765,
      "소니": 1766,
      "##라이": 1767,
      "##70": 1768,
      "##이아": 1769,
      "##MD": 1770,
      "##14": 1771,
      "##ER": 1772,
      "##HD": 1773,
      "##기모": 1774,
      "##위드": 1775,
      "갤럭시S": 1776,
      "노와이어": 1777,
      "20": 1778,
      "5G": 1779,
      "EP": 1780,
      "MA": 1781,
      "TW": 1782,
      "##CH": 1783,
      "##AR": 1784,
      "##바이스": 1785,
      "##al": 1786,
      "##펜슬": 1787,
      "##컴퓨터": 1788,
      "고속충전": 1789,
      "27": 1790,
      "24": 1791,
      "2세대": 1792,
      "긴팔": 1793,
      "리버": 1794,
      "밴딩": 1795,
      "세미": 1796,
      "숏패딩": 1797,
      "트위드": 1798,
      "하프": 1799,
      "##16": 1800,
      "##지아": 1801,
      "##보드": 1802,
      "##시블": 1803,
      "##SD": 1804,
      "##HCT": 1805,
      "##렉트": 1806,
      "##콜렉트": 1807,
      "##레이트": 1808,
      "스트랩": 1809,
      "조거팬츠": 1810,
      "256GB": 1811,
      "오버핏": 1812,
      "남녀공용": 1813,
      "64": 1814,
      "SL": 1815,
      "가을": 1816,
      "듀얼": 1817,
      "리바이스": 1818,
      "스탠": 1819,
      "싱글": 1820,
      "키보드": 1821,
      "프리": 1822,
      "##05": 1823,
      "##3X": 1824,
      "##36": 1825,
      "##21": 1826,
      "##EN": 1827,
      "##800": 1828,
      "##구스": 1829,
      "##속옷": 1830,
      "##주변기기": 1831,
      "##채널": 1832,
      "모니터주변기기": 1833,
      "SWIT": 1834,
      "32": 1835,
      "PD": 1836,
      "SM": 1837,
      "데님": 1838,
      "루즈": 1839,
      "리얼": 1840,
      "무지": 1841,
      "소프트": 1842,
      "씨씨": 1843,
      "에디션": 1844,
      "올리브": 1845,
      "홈웨어": 1846,
      "##04": 1847,
      "##35": 1848,
      "##OP": 1849,
      "##닉스": 1850,
      "##미스": 1851,
      "##컬러": 1852,
      "##커트": 1853,
      "##ro": 1854,
      "##투스": 1855,
      "##네트": 1856,
      "에어팟": 1857,
      "애플펜슬": 1858,
      "SWITCH": 1859,
      "씨씨콜렉트": 1860,
      "EF": 1861,
      "FE": 1862,
      "KAN": 1863,
      "SA": 1864,
      "라이": 1865,
      "마우스": 1866,
      "샌디스": 1867,
      "수납": 1868,
      "쉬즈": 1869,
      "영상": 1870,
      "온앤": 1871,
      "주파": 1872,
      "집업": 1873,
      "캐논": 1874,
      "편한": 1875,
      "##71": 1876,
      "##31": 1877,
      "##3KH": 1878,
      "##500": 1879,
      "##M네트": 1880,
      "##600": 1881,
      "##비안": 1882,
      "##RO": 1883,
      "##N4": 1884,
      "##랙스": 1885,
      "##피타": 1886,
      "##an": 1887,
      "##mm": 1888,
      "##오버": 1889,
      "##웍스": 1890,
      "아이피타": 1891,
      "케이안": 1892,
      "스트레이트": 1893,
      "지오지아": 1894,
      "충전기": 1895,
      "리버시블": 1896,
      "EFM네트": 1897,
      "샌디스크": 1898,
      "쉬즈미스": 1899,
      "온앤온": 1900,
      "주파집": 1901,
      "아이피타임": 1902,
      "EFM네트웍스": 1903,
      "CK": 1904,
      "S9": 1905,
      "WH": 1906,
      "마그": 1907,
      "모달": 1908,
      "밍크": 1909,
      "순면": 1910,
      "스판": 1911,
      "외장": 1912,
      "재킷": 1913,
      "칼라": 1914,
      "캘빈": 1915,
      "풀오버": 1916,
      "##38": 1917,
      "##51": 1918,
      "##58": 1919,
      "##BL": 1920,
      "##M4": 1921,
      "##TC": 1922,
      "##래픽": 1923,
      "##래식": 1924,
      "##랜드": 1925,
      "##플러스": 1926,
      "##클라인": 1927,
      "##데올": 1928,
      "##ra": 1929,
      "##집업": 1930,
      "남자팬티": 1931,
      "MSC4": 1932,
      "블루투스": 1933,
      "소프트웨어": 1934,
      "영상가전": 1935,
      "캘빈클라인": 1936,
      "14": 1937,
      "2채널": 1938,
      "HD": 1939,
      "NT": 1940,
      "QC": 1941,
      "SP": 1942,
      "ST": 1943,
      "to": 1944,
      "국내": 1945,
      "밴드": 1946,
      "스커트": 1947,
      "알파": 1948,
      "청바지": 1949,
      "카드": 1950,
      "코튼": 1951,
      "클래식": 1952,
      "필름": 1953,
      "##리츠": 1954,
      "##리오": 1955,
      "##37": 1956,
      "##300": 1957,
      "##200": 1958,
      "##OL": 1959,
      "##ON": 1960,
      "##en": 1961,
      "##니트": 1962,
      "##레어": 1963,
      "##와이드": 1964,
      "##네틱": 1965,
      "##침대": 1966,
      "갤럭시북": 1967,
      "갤럭시워치": 1968,
      "노트북액세서리": 1969,
      "마이크로": 1970,
      "MAX": 1971,
      "올리브데올": 1972,
      "마그네틱": 1973,
      "올리브데올리브": 1974,
      "AX": 1975,
      "Ul": 1976,
      "Wi": 1977,
      "ZOO": 1978,
      "극세": 1979,
      "무봉": 1980,
      "버즈": 1981,
      "보조": 1982,
      "비비안": 1983,
      "빈폴": 1984,
      "삼각": 1985,
      "스웨": 1986,
      "야상": 1987,
      "언더웨어": 1988,
      "오디": 1989,
      "올젠": 1990,
      "이어": 1991,
      "정장": 1992,
      "포켓": 1993,
      "플레이": 1994,
      "피치": 1995,
      "하객": 1996,
      "##리닝": 1997,
      "##터리": 1998,
      "##MSG": 1999,
      "##PD": 2000,
      "##PS": 2001,
      "##4T": 2002,
      "##DW": 2003,
      "##TS": 2004,
      "##버튼": 2005,
      "##모니터": 2006,
      "##지오": 2007,
      "##자켓": 2008,
      "##GP": 2009,
      "##la": 2010,
      "##tra": 2011,
      "##렌치": 2012,
      "##우터": 2013,
      "##소프트": 2014,
      "##일랜드": 2015,
      "##아이": 2016,
      "##포트": 2017,
      "##기장": 2018,
      "##젝트": 2019,
      "프로젝트": 2020,
      "수면잠옷": 2021,
      "64G": 2022,
      "##구스다운": 2023,
      "Ultra": 2024,
      "ZOOC": 2025,
      "극세사": 2026,
      "무봉제": 2027,
      "16": 2028,
      "1종": 2029,
      "2매": 2030,
      "512": 2031,
      "CU": 2032,
      "NV": 2033,
      "PRO": 2034,
      "기능": 2035,
      "듀엘": 2036,
      "드라이": 2037,
      "로랜": 2038,
      "받침대": 2039,
      "버튼": 2040,
      "스타": 2041,
      "에코": 2042,
      "이지": 2043,
      "이너": 2044,
      "인스": 2045,
      "일자": 2046,
      "크루": 2047,
      "폴로": 2048,
      "한성": 2049,
      "헤드": 2050,
      "##스탕": 2051,
      "##91": 2052,
      "##원피스": 2053,
      "##이션": 2054,
      "##55": 2055,
      "##5W": 2056,
      "##BD": 2057,
      "##29": 2058,
      "##PP": 2059,
      "##JK": 2060,
      "##ES": 2061,
      "##UP": 2062,
      "##ab": 2063,
      "##래스": 2064,
      "##ic": 2065,
      "##셔널": 2066,
      "##위치": 2067,
      "##후드": 2068,
      "##틀넥": 2069,
      "슬림핏": 2070,
      "애플워치": 2071,
      "NEW": 2072,
      "마이크로소프트": 2073,
      "삼각대": 2074,
      "512GB": 2075,
      "기능성": 2076,
      "로랜텍": 2077,
      "한성컴퓨터": 2078,
      "100": 2079,
      "2종": 2080,
      "3매": 2081,
      "DD": 2082,
      "MI": 2083,
      "SE": 2084,
      "가죽": 2085,
      "기본": 2086,
      "내셔널": 2087,
      "누빔": 2088,
      "라이트": 2089,
      "맥스": 2090,
      "미디": 2091,
      "발열": 2092,
      "보브": 2093,
      "브이": 2094,
      "빅쏘": 2095,
      "사각": 2096,
      "셋업": 2097,
      "슈퍼": 2098,
      "스파": 2099,
      "스페": 2100,
      "스위치": 2101,
      "슬랙스": 2102,
      "시슬": 2103,
      "알래스": 2104,
      "에고": 2105,
      "오리": 2106,
      "츄리닝": 2107,
      "코닥": 2108,
      "터틀넥": 2109,
      "패드": 2110,
      "푸마": 2111,
      "##토어": 2112,
      "##73": 2113,
      "##98": 2114,
      "##리드": 2115,
      "##이스트": 2116,
      "##CM": 2117,
      "##B4": 2118,
      "##AM": 2119,
      "##26": 2120,
      "##LA": 2121,
      "##OS": 2122,
      "##NC": 2123,
      "##N8": 2124,
      "##디지": 2125,
      "##디오": 2126,
      "##US": 2127,
      "##인치": 2128,
      "##소음": 2129,
      "##미엄": 2130,
      "##포함": 2131,
      "##그래픽": 2132,
      "##링크": 2133,
      "##ss": 2134,
      "##배터리": 2135,
      "##튜디오": 2136,
      "디지지": 2137,
      "휴대용": 2138,
      "브라렛": 2139,
      "브라탑": 2140,
      "##234MSG": 2141,
      "##in1": 2142,
      "##3417": 2143,
      "##스테이션": 2144,
      "##3WH": 2145,
      "갤럭시S23": 2146,
      "2023": 2147,
      "TWHCT": 2148,
      "스탠드": 2149,
      "프리미엄": 2150,
      "루즈핏": 2151,
      "보조배터리": 2152,
      "피치기모": 2153,
      "##지오그래픽": 2154,
      "프로젝트엠": 2155,
      "크루넥": 2156,
      "내셔널지오그래픽": 2157,
      "시슬리": 2158,
      "알래스카": 2159,
      "에고이스트": 2160,
      "000": 2161,
      "202": 2162,
      "4세대": 2163,
      "AH": 2164,
      "BF": 2165,
      "BC": 2166,
      "BY": 2167,
      "CR": 2168,
      "Ho": 2169,
      "II": 2170,
      "JBL": 2171,
      "LE": 2172,
      "SO": 2173,
      "국산": 2174,
      "롱패딩": 2175,
      "메탈": 2176,
      "무스탕": 2177,
      "보호": 2178,
      "선물": 2179,
      "써스": 2180,
      "아우터": 2181,
      "양모": 2182,
      "요이": 2183,
      "워치": 2184,
      "컴퓨터": 2185,
      "테이": 2186,
      "티피": 2187,
      "폴라": 2188,
      "학습": 2189,
      "후디": 2190,
      "후지": 2191,
      "##스터": 2192,
      "##토너": 2193,
      "##퍼드": 2194,
      "##06": 2195,
      "##이너": 2196,
      "##FP1": 2197,
      "##MB": 2198,
      "##MA": 2199,
      "##Me": 2200,
      "##400": 2201,
      "##61": 2202,
      "##KR": 2203,
      "##GAN": 2204,
      "##me": 2205,
      "##보이": 2206,
      "##ch": 2207,
      "##co": 2208,
      "##일리": 2209,
      "##그니": 2210,
      "##데이아": 2211,
      "##퀼팅": 2212,
      "##웨스트": 2213,
      "##폴라": 2214,
      "##월드": 2215,
      "후드티": 2216,
      "핸드폰": 2217,
      "라운드넥": 2218,
      "로지텍G": 2219,
      "##CKOO": 2220,
      "EP4T": 2221,
      "오디세이": 2222,
      "이어폰": 2223,
      "플레이스테이션": 2224,
      "CUCKOO": 2225,
      "NVMe": 2226,
      "BYC": 2227,
      "써스데이아": 2228,
      "요이치": 2229,
      "테이퍼드": 2230,
      "학습기기": 2231,
      "EP4TD": 2232,
      "써스데이아일랜드": 2233,
      "4K": 2234,
      "4종": 2235,
      "AA": 2236,
      "C56": 2237,
      "Cal": 2238,
      "IT": 2239,
      "Kle": 2240,
      "LI": 2241,
      "LED": 2242,
      "MOR": 2243,
      "PL": 2244,
      "TO": 2245,
      "ZO": 2246,
      "am": 2247,
      "기계": 2248,
      "노라인": 2249,
      "다이아": 2250,
      "더엣": 2251,
      "데일리": 2252,
      "랄프로": 2253,
      "롱다운": 2254,
      "마샬": 2255,
      "모르": 2256,
      "부클": 2257,
      "사가": 2258,
      "셔츠": 2259,
      "시그니": 2260,
      "아디": 2261,
      "엠지텍": 2262,
      "오토": 2263,
      "오픈": 2264,
      "오피스": 2265,
      "와이": 2266,
      "워크": 2267,
      "잇미": 2268,
      "제닉스": 2269,
      "조립": 2270,
      "조끼": 2271,
      "체크": 2272,
      "쿠쿠": 2273,
      "크로": 2274,
      "클럽": 2275,
      "트렌치": 2276,
      "파인": 2277,
      "펠틱": 2278,
      "플라": 2279,
      "플레어": 2280,
      "한글": 2281,
      "헤비": 2282,
      "화이트": 2283,
      "히트": 2284,
      "##스킨": 2285,
      "##74": 2286,
      "##에디션": 2287,
      "##301": 2288,
      "##MK": 2289,
      "##MI": 2290,
      "##AT": 2291,
      "##28": 2292,
      "##224": 2293,
      "##PT": 2294,
      "##LED": 2295,
      "##TB": 2296,
      "##RE": 2297,
      "##19": 2298,
      "##110": 2299,
      "##UD": 2300,
      "##us": 2301,
      "##ar": 2302,
      "##티브": 2303,
      "##트로": 2304,
      "##우치": 2305,
      "##IE": 2306,
      "##on": 2307,
      "##ow": 2308,
      "##다스": 2309,
      "##키지": 2310,
      "##립5": 2311,
      "##하이": 2312,
      "##탁스": 2313,
      "##쉴드": 2314,
      "##vin": 2315,
      "여성팬티": 2316,
      "##레이디": 2317,
      "하이웨스트": 2318,
      "PHC4": 2319,
      "스마트커버": 2320,
      "스마트모니터": 2321,
      "커플잠옷": 2322,
      "SWHCT": 2323,
      "스포츠웨어": 2324,
      "트레이닝복": 2325,
      "NT9": 2326,
      "스타일": 2327,
      "인스탁스": 2328,
      "헤드셋": 2329,
      "##icro": 2330,
      "스페이스": 2331,
      "CRP": 2332,
      "Home": 2333,
      "티피링크": 2334,
      "후지필름": 2335,
      "Calvin": 2336,
      "Klein": 2337,
      "MORGAN": 2338,
      "amp": 2339,
      "기계식": 2340,
      "더엣지": 2341,
      "랄프로렌": 2342,
      "모르간": 2343,
      "아디다스": 2344,
      "잇미샤": 2345,
      "쿠쿠전자": 2346,
      "펠틱스": 2347,
      "11": 2348,
      "1000": 2349,
      "40": 2350,
      "725": 2351,
      "AMD": 2352,
      "BA": 2353,
      "C234MSG": 2354,
      "GN": 2355,
      "GGP": 2356,
      "Je": 2357,
      "L234PSG": 2358,
      "MK": 2359,
      "SD": 2360,
      "SZ": 2361,
      "TF": 2362,
      "T23": 2363,
      "결혼": 2364,
      "그레이": 2365,
      "꽈배": 2366,
      "내복": 2367,
      "롱코트": 2368,
      "마인": 2369,
      "맥시": 2370,
      "반집업": 2371,
      "베스트": 2372,
      "브리츠": 2373,
      "사생": 2374,
      "숏다운": 2375,
      "스튜디오": 2376,
      "실크": 2377,
      "아웃": 2378,
      "에센": 2379,
      "유니": 2380,
      "장패드": 2381,
      "제이": 2382,
      "중기장": 2383,
      "지컷": 2384,
      "초고": 2385,
      "카고": 2386,
      "코데": 2387,
      "키작": 2388,
      "타입": 2389,
      "트리": 2390,
      "팅크": 2391,
      "파우치": 2392,
      "필립": 2393,
      "호환": 2394,
      "히든": 2395,
      "##스티": 2396,
      "##카드": 2397,
      "##75": 2398,
      "##510": 2399,
      "##550": 2400,
      "##M8": 2401,
      "##MW": 2402,
      "##MS": 2403,
      "##Ah": 2404,
      "##PP1": 2405,
      "##43": 2406,
      "##45": 2407,
      "##48": 2408,
      "##JD": 2409,
      "##18": 2410,
      "##OV": 2411,
      "##테라": 2412,
      "##바인": 2413,
      "##로이드": 2414,
      "##장판": 2415,
      "##lor": 2416,
      "##WOP": 2417,
      "##ke": 2418,
      "##mAh": 2419,
      "##nd": 2420,
      "##cm": 2421,
      "##츠컷": 2422,
      "##우시": 2423,
      "##브리드": 2424,
      "##즈컴": 2425,
      "##ig": 2426,
      "##다일": 2427,
      "##렉션": 2428,
      "##나비": 2429,
      "##방지": 2430,
      "##기어": 2431,
      "##커다일": 2432,
      "##내복": 2433,
      "##re": 2434,
      "##거펠": 2435,
      "##잉크": 2436,
      "##폭스": 2437,
      "##00원": 2438,
      "아이나비": 2439,
      "에어5": 2440,
      "##C4FP1": 2441,
      "무선충전": 2442,
      "스마트폰": 2443,
      "반팔티": 2444,
      "PHD4JP": 2445,
      "EPD4": 2446,
      "세미와이드": 2447,
      "라이젠": 2448,
      "##N4W": 2449,
      "##ans": 2450,
      "칼라거펠": 2451,
      "##ent": 2452,
      "갤럭시북4": 2453,
      "브이넥": 2454,
      "스파오": 2455,
      "오리지": 2456,
      "LE12": 2457,
      "SOUP": 2458,
      "##이너웨어": 2459,
      "PLUS": 2460,
      "크로커다일": 2461,
      "GGPX": 2462,
      "Jeans": 2463,
      "꽈배기": 2464,
      "사생활": 2465,
      "초고속": 2466,
      "코데즈컴": 2467,
      "키작녀": 2468,
      "팅크웨어": 2469,
      "필립스": 2470,
      "코데즈컴바인": 2471,
      "01": 2472,
      "031": 2473,
      "13": 2474,
      "200": 2475,
      "36": 2476,
      "3세대": 2477,
      "3in1": 2478,
      "5세대": 2479,
      "9세대": 2480,
      "AE": 2481,
      "Ar": 2482,
      "BH": 2483,
      "CC": 2484,
      "CL": 2485,
      "CH": 2486,
      "FA": 2487,
      "GX": 2488,
      "GMD": 2489,
      "NB": 2490,
      "PS": 2491,
      "Pro": 2492,
      "PPS": 2493,
      "RM": 2494,
      "S8": 2495,
      "S32": 2496,
      "SSD": 2497,
      "SIE": 2498,
      "TR": 2499,
      "TIT": 2500,
      "UL": 2501,
      "WB": 2502,
      "micro": 2503,
      "계절": 2504,
      "골덴": 2505,
      "나시": 2506,
      "나이스": 2507,
      "내의": 2508,
      "네이": 2509,
      "당일": 2510,
      "도톰": 2511,
      "동물": 2512,
      "동글": 2513,
      "런닝": 2514,
      "로엠": 2515,
      "루컴": 2516,
      "메이": 2517,
      "모음": 2518,
      "무결": 2519,
      "미아": 2520,
      "방모": 2521,
      "본딩": 2522,
      "볼륨": 2523,
      "블렌": 2524,
      "셀렙": 2525,
      "스킨": 2526,
      "스팀": 2527,
      "스우시": 2528,
      "시계": 2529,
      "씨게": 2530,
      "앱코": 2531,
      "언더": 2532,
      "엄마": 2533,
      "여름": 2534,
      "오브": 2535,
      "인터": 2536,
      "제로": 2537,
      "커버": 2538,
      "커브": 2539,
      "크리스": 2540,
      "타미": 2541,
      "텐셀": 2542,
      "플러": 2543,
      "플리츠": 2544,
      "하의": 2545,
      "한라": 2546,
      "##700": 2547,
      "##750": 2548,
      "##리어": 2549,
      "##리즈": 2550,
      "##이슨": 2551,
      "##310": 2552,
      "##XD": 2553,
      "##BM": 2554,
      "##ME": 2555,
      "##69": 2556,
      "##JU": 2557,
      "##버리": 2558,
      "##NE": 2559,
      "##NI": 2560,
      "##코어": 2561,
      "##모리": 2562,
      "##UX": 2563,
      "##피거": 2564,
      "##박스": 2565,
      "##인트": 2566,
      "##GH": 2567,
      "##at": 2568,
      "##W3WH": 2569,
      "##SK": 2570,
      "##트리": 2571,
      "##우드": 2572,
      "##소닉": 2573,
      "##프레": 2574,
      "##레치": 2575,
      "##딩스": 2576,
      "##클랍": 2577,
      "##컬렉션": 2578,
      "##나인": 2579,
      "##st": 2580,
      "##웨이": 2581,
      "##톰보이": 2582,
      "##부착": 2583,
      "##힐피거": 2584,
      "##한복": 2585,
      "##한잉크": 2586,
      "##홀더": 2587,
      "##홀딩스": 2588,
      "##하드": 2589,
      "##만원": 2590,
      "##렁크": 2591,
      "패딩점퍼": 2592,
      "울트라기어": 2593,
      "에어4": 2594,
      "에어로": 2595,
      "브라팬티": 2596,
      "##60X": 2597,
      "스트레치": 2598,
      "##SGJP": 2599,
      "##902": 2600,
      "정품토너": 2601,
      "MSD4": 2602,
      "블루종": 2603,
      "##ore": 2604,
      "##ort": 2605,
      "갤럭시S24": 2606,
      "외장하드": 2607,
      "MSC4TC": 2608,
      "QCY": 2609,
      "갤럭시워치5": 2610,
      "스웨트": 2611,
      "이지스": 2612,
      "##BDU": 2613,
      "##able": 2614,
      "DDR": 2615,
      "2021": 2616,
      "##cher": 2617,
      "##color": 2618,
      "EP4TD00": 2619,
      "조립PC": 2620,
      "한글판": 2621,
      "SWHCTM4": 2622,
      "TFG": 2623,
      "결혼식": 2624,
      "스튜디오톰보이": 2625,
      "에센셜": 2626,
      "오리지널": 2627,
      "Archer": 2628,
      "FAUX": 2629,
      "TITAN": 2630,
      "microSD": 2631,
      "계절가전": 2632,
      "나이스클랍": 2633,
      "루컴즈": 2634,
      "모음전": 2635,
      "무결점": 2636,
      "미아크": 2637,
      "셀렙샵": 2638,
      "시계줄": 2639,
      "씨게이트": 2640,
      "타미힐피거": 2641,
      "한라홀딩스": 2642,
      "정품토너포함": 2643,
      "001": 2644,
      "165": 2645,
      "1TB": 2646,
      "37": 2647,
      "5종": 2648,
      "5매": 2649,
      "715": 2650,
      "917": 2651,
      "A7": 2652,
      "AO": 2653,
      "A라인": 2654,
      "A51": 2655,
      "BV": 2656,
      "EOS": 2657,
      "Fi": 2658,
      "G5": 2659,
      "JA": 2660,
      "LA": 2661,
      "M20": 2662,
      "NJ": 2663,
      "RT": 2664,
      "RGB": 2665,
      "SH": 2666,
      "S23": 2667,
      "S27": 2668,
      "TOP": 2669,
      "Tab": 2670,
      "V2": 2671,
      "VOV": 2672,
      "WD": 2673,
      "Win": 2674,
      "XL": 2675,
      "Z234PSG": 2676,
      "가상": 2677,
      "골지": 2678,
      "노카라": 2679,
      "다이슨": 2680,
      "돌잔": 2681,
      "디스": 2682,
      "디키": 2683,
      "따뜻": 2684,
      "라인": 2685,
      "레이스": 2686,
      "레이어": 2687,
      "레트로": 2688,
      "로고": 2689,
      "로리스": 2690,
      "마이": 2691,
      "마리오": 2692,
      "맥북": 2693,
      "메모리": 2694,
      "무소음": 2695,
      "방수": 2696,
      "배그": 2697,
      "벤큐": 2698,
      "보정": 2699,
      "부츠컷": 2700,
      "상의": 2701,
      "생활": 2702,
      "스테": 2703,
      "실리": 2704,
      "실버": 2705,
      "운동": 2706,
      "윈터": 2707,
      "유선": 2708,
      "인견": 2709,
      "재생": 2710,
      "제너": 2711,
      "지클": 2712,
      "치노": 2713,
      "침대": 2714,
      "카키": 2715,
      "카펜": 2716,
      "카멜": 2717,
      "컨트": 2718,
      "트라이": 2719,
      "트렁크": 2720,
      "파스": 2721,
      "팔월드": 2722,
      "패키지": 2723,
      "풀세트": 2724,
      "헤어": 2725,
      "헤링": 2726,
      "회전": 2727,
      "후아": 2728,
      "힌지": 2729,
      "##스타": 2730,
      "##라이어": 2731,
      "##가지": 2732,
      "##가슴": 2733,
      "##77": 2734,
      "##901": 2735,
      "##리버": 2736,
      "##리더": 2737,
      "##에스": 2738,
      "##이블": 2739,
      "##이터": 2740,
      "##이프": 2741,
      "##FT": 2742,
      "##Fi": 2743,
      "##3D": 2744,
      "##360": 2745,
      "##XKR": 2746,
      "##CG": 2747,
      "##BE": 2748,
      "##MX": 2749,
      "##AD": 2750,
      "##P3X": 2751,
      "##49": 2752,
      "##JJ": 2753,
      "##D1": 2754,
      "##DV": 2755,
      "##TEN": 2756,
      "##ur": 2757,
      "##ld": 2758,
      "##lus": 2759,
      "##85": 2760,
      "##ew": 2761,
      "##te": 2762,
      "##SE": 2763,
      "##트레이닝": 2764,
      "##HC": 2765,
      "##HL": 2766,
      "##체형": 2767,
      "##먼스": 2768,
      "##소매": 2769,
      "##도어": 2770,
      "##IO": 2771,
      "##IS": 2772,
      "##레스": 2773,
      "##루미": 2774,
      "##ou": 2775,
      "##발송": 2776,
      "##플랜": 2777,
      "##플레이": 2778,
      "##플리스": 2779,
      "##플립5": 2780,
      "##슬랙스": 2781,
      "##포켓": 2782,
      "##포먼스": 2783,
      "##클로": 2784,
      "##클럽": 2785,
      "##제품": 2786,
      "##제작": 2787,
      "##제컬렉션": 2788,
      "##렉스": 2789,
      "##매장판": 2790,
      "##조절": 2791,
      "##정용": 2792,
      "##정품": 2793,
      "##런스": 2794,
      "##겨울": 2795,
      "##대여": 2796,
      "##없는": 2797,
      "##내의": 2798,
      "##까프": 2799,
      "##밴딩": 2800,
      "##신상": 2801,
      "##릭커": 2802,
      "##추가": 2803,
      "##맨투맨": 2804,
      "##럴아이": 2805,
      "##롤러": 2806,
      "##00R": 2807,
      "##001": 2808,
      "여성용": 2809,
      "아이닉": 2810,
      "아이리버": 2811,
      "케이프": 2812,
      "갤럭시Z": 2813,
      "##2417": 2814,
      "겨울잠옷": 2815,
      "##D4V": 2816,
      "##30C": 2817,
      "##패딩점퍼": 2818,
      "아이폰15": 2819,
      "핸드메이드코트": 2820,
      "하이브리드": 2821,
      "경량패딩": 2822,
      "USB3": 2823,
      "스포츠브라": 2824,
      "##9900원": 2825,
      "TWW": 2826,
      "긴팔티": 2827,
      "64GB": 2828,
      "SAPD": 2829,
      "라이브": 2830,
      "##600S": 2831,
      "##38C": 2832,
      "HDMI": 2833,
      "국내매장판": 2834,
      "알파플랜": 2835,
      "WiFi": 2836,
      "스웨터": 2837,
      "##ESS": 2838,
      "100W": 2839,
      "MIW": 2840,
      "발열내의": 2841,
      "##디지털": 2842,
      "##디지탈": 2843,
      "##MBO": 2844,
      "LIGH": 2845,
      "워크팬츠": 2846,
      "PHC4JP": 2847,
      "NT960X": 2848,
      "1000X": 2849,
      "MK2": 2850,
      "T238": 2851,
      "LE1215": 2852,
      "크로커다일레이디": 2853,
      "코데즈컴바인이너웨어": 2854,
      "GMDBDU": 2855,
      "PS5": 2856,
      "TRY": 2857,
      "ULTR": 2858,
      "블렌드": 2859,
      "오브제컬렉션": 2860,
      "플러피": 2861,
      "7153417": 2862,
      "A51A": 2863,
      "RTX": 2864,
      "TOPTEN": 2865,
      "돌잔치": 2866,
      "디키즈": 2867,
      "레이어드": 2868,
      "로리스토어": 2869,
      "생활가전": 2870,
      "실리콘": 2871,
      "제너럴아이": 2872,
      "지클릭커": 2873,
      "카펜터": 2874,
      "컨트롤러": 2875,
      "파스텔": 2876,
      "헤링본": 2877,
      "후아유": 2878,
      "##리더기": 2879,
      "제너럴아이디어": 2880,
      "18": 2881,
      "1채널": 2882,
      "137": 2883,
      "1테라": 2884,
      "28": 2885,
      "2컬러": 2886,
      "25W": 2887,
      "30": 2888,
      "50": 2889,
      "5000": 2890,
      "60": 2891,
      "68": 2892,
      "6세대": 2893,
      "77": 2894,
      "88": 2895,
      "910": 2896,
      "9인치": 2897,
      "A6": 2898,
      "AK": 2899,
      "Ac": 2900,
      "A234": 2901,
      "BT": 2902,
      "BE": 2903,
      "Be": 2904,
      "BOS": 2905,
      "CZ": 2906,
      "DE": 2907,
      "DQ": 2908,
      "EV": 2909,
      "Ex": 2910,
      "FB": 2911,
      "FHD": 2912,
      "G7": 2913,
      "Ga": 2914,
      "IN": 2915,
      "JJ": 2916,
      "K5": 2917,
      "M7": 2918,
      "MX": 2919,
      "M2": 2920,
      "ML": 2921,
      "MN": 2922,
      "MQ": 2923,
      "MV": 2924,
      "NJP": 2925,
      "OC": 2926,
      "OH": 2927,
      "OLED": 2928,
      "Pal": 2929,
      "PEN": 2930,
      "Port": 2931,
      "RD": 2932,
      "St": 2933,
      "T1": 2934,
      "Ty": 2935,
      "YN4W": 2936,
      "ab": 2937,
      "가정용": 2938,
      "고프로": 2939,
      "골드": 2940,
      "그래픽": 2941,
      "기장": 2942,
      "긴바지": 2943,
      "나일": 2944,
      "녹음": 2945,
      "데스": 2946,
      "데이터": 2947,
      "드레스": 2948,
      "디테": 2949,
      "레토": 2950,
      "레더": 2951,
      "레노": 2952,
      "레빅": 2953,
      "렌즈": 2954,
      "루프": 2955,
      "르까프": 2956,
      "리오": 2957,
      "매트": 2958,
      "면티": 2959,
      "면팬티": 2960,
      "모직": 2961,
      "몽클": 2962,
      "무한잉크": 2963,
      "미쏘": 2964,
      "박서": 2965,
      "반목": 2966,
      "방한": 2967,
      "뱅뱅": 2968,
      "본체": 2969,
      "브러": 2970,
      "비스": 2971,
      "상하": 2972,
      "성인": 2973,
      "셀카": 2974,
      "쉘파": 2975,
      "스칼": 2976,
      "슬립": 2977,
      "신혼": 2978,
      "실내복": 2979,
      "아노": 2980,
      "안드": 2981,
      "알루미": 2982,
      "앤드": 2983,
      "양털": 2984,
      "에이": 2985,
      "요일": 2986,
      "울100": 2987,
      "워셔": 2988,
      "위생": 2989,
      "일체형": 2990,
      "자바": 2991,
      "자체": 2992,
      "자수": 2993,
      "자석": 2994,
      "저소음": 2995,
      "주문": 2996,
      "초경": 2997,
      "캐릭": 2998,
      "컴포트": 2999,
      "클라": 3000,
      "타이즈": 3001,
      "탈부착": 3002,
      "터치": 3003,
      "테리": 3004,
      "투피스": 3005,
      "트랙": 3006,
      "팰월드": 3007,
      "퍼포먼스": 3008,
      "포유": 3009,
      "프린": 3010,
      "프렌치": 3011,
      "하드": 3012,
      "한복": 3013,
      "햄라인": 3014,
      "헝가": 3015,
      "흰티": 3016,
      "##스판": 3017,
      "##스캔": 3018,
      "##스텐": 3019,
      "##카메라": 3020,
      "##라워": 3021,
      "##라글": 3022,
      "##7000": 3023,
      "##920": 3024,
      "##07": 3025,
      "##08": 3026,
      "##리아": 3027,
      "##리기": 3028,
      "##터치": 3029,
      "##FD": 3030,
      "##323": 3031,
      "##3FW": 3032,
      "##350": 3033,
      "##501": 3034,
      "##BT": 3035,
      "##BK": 3036,
      "##BG": 3037,
      "##파리": 3038,
      "##파이": 3039,
      "##파자마": 3040,
      "##M9": 3041,
      "##M5": 3042,
      "##M800": 3043,
      "##AG": 3044,
      "##AS": 3045,
      "##201": 3046,
      "##265": 3047,
      "##44": 3048,
      "##4E": 3049,
      "##460": 3050,
      "##LI": 3051,
      "##L04": 3052,
      "##LESS": 3053,
      "##68": 3054,
      "##650": 3055,
      "##DA": 3056,
      "##D90": 3057,
      "##TA": 3058,
      "##TE": 3059,
      "##130": 3060,
      "##139": 3061,
      "##EU": 3062,
      "##NK": 3063,
      "##테크": 3064,
      "##바이": 3065,
      "##지고": 3066,
      "##로우": 3067,
      "##UR": 3068,
      "##UN": 3069,
      "##크탑": 3070,
      "##GK": 3071,
      "##ud": 3072,
      "##850": 3073,
      "##8000": 3074,
      "##WDW": 3075,
      "##pe": 3076,
      "##ment": 3077,
      "##ton": 3078,
      "##보장": 3079,
      "##울트라": 3080,
      "##브릿": 3081,
      "##청바지": 3082,
      "##드러": 3083,
      "##일러": 3084,
      "##케이블": 3085,
      "##루프": 3086,
      "##we": 3087,
      "##wor": 3088,
      "##dow": 3089,
      "##ie": 3090,
      "##ist": 3091,
      "##롱패딩": 3092,
      "##플라워": 3093,
      "##포크": 3094,
      "##그램": 3095,
      "##데님": 3096,
      "##덕다운": 3097,
      "##베스트": 3098,
      "##기가": 3099,
      "##착보장": 3100,
      "##사지": 3101,
      "##너스": 3102,
      "##배송": 3103,
      "##복구": 3104,
      "##몬스터": 3105,
      "##하트": 3106,
      "##네트워크": 3107,
      "##밸런스": 3108,
      "##쇼핑": 3109,
      "##셋업": 3110,
      "##벤처": 3111,
      "##캉스": 3112,
      "##퀘어": 3113,
      "##뮤즈": 3114,
      "##출고": 3115,
      "##엑스": 3116,
      "아이코어": 3117,
      "아이뮤즈": 3118,
      "##103": 3119,
      "##2361": 3120,
      "##레이디스": 3121,
      "##스트릿": 3122,
      "울트라HD": 3123,
      "에어리": 3124,
      "후드집업": 3125,
      "##D49": 3126,
      "##D4TR": 3127,
      "##303": 3128,
      "##304": 3129,
      "##30H": 3130,
      "아이폰14": 3131,
      "게임용": 3132,
      "LG그램": 3133,
      "##C4PP1": 3134,
      "##56K": 3135,
      "1500R": 3136,
      "와이드팬츠": 3137,
      "##2510": 3138,
      "WIRE": 3139,
      "심리스브라": 3140,
      "갤럭시탭S": 3141,
      "##992": 3142,
      "탑텐밸런스": 3143,
      "##TR39": 3144,
      "##ORMX": 3145,
      "PHD4PT": 3146,
      "##MDJ": 3147,
      "27M": 3148,
      "24시": 3149,
      "하프코트": 3150,
      "##3X30C": 3151,
      "##361": 3152,
      "32GB": 3153,
      "데님팬츠": 3154,
      "밍크퍼": 3155,
      "STUD": 3156,
      "STORMX": 3157,
      "알파스캔": 3158,
      "갤럭시북3": 3159,
      "버즈2": 3160,
      "빈폴레이디스": 3161,
      "포켓몬스터": 3162,
      "하객룩": 3163,
      "드라이핏": 3164,
      "드라이기": 3165,
      "##N820": 3166,
      "AH460": 3167,
      "양모100": 3168,
      "워치6": 3169,
      "##0610": 3170,
      "TOMBO": 3171,
      "사가폭스": 3172,
      "시그니처": 3173,
      "시그니쳐": 3174,
      "와이파이": 3175,
      "파인뷰": 3176,
      "파인디지털": 3177,
      "히트텍": 3178,
      "7253417": 3179,
      "L234PSG04": 3180,
      "트리밍": 3181,
      "##WOPMK": 3182,
      "칼라거펠트": 3183,
      "사생활보호": 3184,
      "36장": 3185,
      "CLT": 3186,
      "제로스트릿": 3187,
      "스웨트셔츠": 3188,
      "DDR4": 3189,
      "AOC": 3190,
      "Window": 3191,
      "따뜻한": 3192,
      "LIGHTS": 3193,
      "ULTRON": 3194,
      "60W": 3195,
      "BOSE": 3196,
      "Ext": 3197,
      "GaN": 3198,
      "JJ지고": 3199,
      "NJP3W": 3200,
      "Palwor": 3201,
      "Portable": 3202,
      "RDS": 3203,
      "Type": 3204,
      "데스크탑": 3205,
      "데이터복구": 3206,
      "레노버": 3207,
      "비스포크": 3208,
      "스칼렛": 3209,
      "아노락": 3210,
      "안드로이드": 3211,
      "알루미늄": 3212,
      "앤드지": 3213,
      "워셔블": 3214,
      "자체제작": 3215,
      "캐릭터": 3216,
      "클라우드": 3217,
      "포유디지탈": 3218,
      "헝가리": 3219,
      "##istore": 3220,
      "WIRELESS": 3221,
      "STUDIO": 3222,
      "AH460E": 3223,
      "TOMBOY": 3224,
      "Windows": 3225,
      "JJ지고트": 3226,
      "Palworld": 3227,
      "07": 3228,
      "005": 3229,
      "004": 3230,
      "19": 3231,
      "29": 3232,
      "21": 3233,
      "2장": 3234,
      "2color": 3235,
      "3M": 3236,
      "3D": 3237,
      "3팩": 3238,
      "3단": 3239,
      "365": 3240,
      "304": 3241,
      "4D": 3242,
      "4도어": 3243,
      "5C": 3244,
      "52": 3245,
      "5600": 3246,
      "558": 3247,
      "568": 3248,
      "69": 3249,
      "6종": 3250,
      "70": 3251,
      "75": 3252,
      "71": 3253,
      "7종": 3254,
      "7세대": 3255,
      "8세대": 3256,
      "870": 3257,
      "AB": 3258,
      "A34": 3259,
      "BK": 3260,
      "BZ": 3261,
      "CO": 3262,
      "Co": 3263,
      "C234PSG": 3264,
      "C51": 3265,
      "COL": 3266,
      "CLA": 3267,
      "CAT": 3268,
      "DP": 3269,
      "D6": 3270,
      "DJ": 3271,
      "D234PSG": 3272,
      "EL": 3273,
      "Eke": 3274,
      "EWOPMK": 3275,
      "FIT": 3276,
      "FUR": 3277,
      "G3": 3278,
      "GM": 3279,
      "GO": 3280,
      "Go": 3281,
      "H4": 3282,
      "HL": 3283,
      "HZ": 3284,
      "IP": 3285,
      "IPS": 3286,
      "JP": 3287,
      "KQ": 3288,
      "K71": 3289,
      "K200": 3290,
      "LP": 3291,
      "LMS": 3292,
      "LTE": 3293,
      "M5": 3294,
      "M1": 3295,
      "ME": 3296,
      "MEN": 3297,
      "NA": 3298,
      "N234": 3299,
      "On": 3300,
      "Os": 3301,
      "Pa": 3302,
      "P33": 3303,
      "POL": 3304,
      "Plus": 3305,
      "QLED": 3306,
      "QXD": 3307,
      "RO": 3308,
      "R510": 3309,
      "SK": 3310,
      "SSGJP": 3311,
      "TL": 3312,
      "TSGJP": 3313,
      "UNI": 3314,
      "V넥": 3315,
      "V234PSG": 3316,
      "YP": 3317,
      "ZR": 3318,
      "Z플립5": 3319,
      "histore": 3320,
      "new": 3321,
      "us": 3322,
      "가벼": 3323,
      "간절": 3324,
      "걸스": 3325,
      "걸즈": 3326,
      "고사": 3327,
      "고급": 3328,
      "골전": 3329,
      "공주": 3330,
      "그립": 3331,
      "기가": 3332,
      "기획": 3333,
      "나인": 3334,
      "남여": 3335,
      "노스": 3336,
      "높이": 3337,
      "누디": 3338,
      "다크": 3339,
      "단체": 3340,
      "단품": 3341,
      "대용": 3342,
      "더아이": 3343,
      "덤블": 3344,
      "도도": 3345,
      "도킹": 3346,
      "도착보장": 3347,
      "드라이어": 3348,
      "디럭": 3349,
      "디트로": 3350,
      "라파": 3351,
      "라운": 3352,
      "라벨": 3353,
      "라펠": 3354,
      "라삐": 3355,
      "란제": 3356,
      "레귤": 3357,
      "로보": 3358,
      "롱구스": 3359,
      "루앤": 3360,
      "르샵": 3361,
      "링케": 3362,
      "막스": 3363,
      "맥코트": 3364,
      "메디": 3365,
      "면스판": 3366,
      "모던": 3367,
      "모여": 3368,
      "모델": 3369,
      "모디스": 3370,
      "목폴라": 3371,
      "몬스타": 3372,
      "미로": 3373,
      "미용": 3374,
      "미드": 3375,
      "미국": 3376,
      "바이": 3377,
      "바캉스": 3378,
      "발로": 3379,
      "발마": 3380,
      "배색": 3381,
      "뱅앤": 3382,
      "버커": 3383,
      "버미어": 3384,
      "버버리": 3385,
      "베네": 3386,
      "변색": 3387,
      "보온": 3388,
      "북스": 3389,
      "브리": 3390,
      "브레": 3391,
      "블라": 3392,
      "비버리": 3393,
      "비너스": 3394,
      "빅카라": 3395,
      "사계": 3396,
      "사이즈": 3397,
      "사운드": 3398,
      "사파리": 3399,
      "상품": 3400,
      "샥즈": 3401,
      "손목": 3402,
      "솔리드": 3403,
      "쇼시": 3404,
      "수트": 3405,
      "슈피": 3406,
      "스웻": 3407,
      "스트라": 3408,
      "시크": 3409,
      "시리즈": 3410,
      "써마": 3411,
      "앤나인": 3412,
      "에디": 3413,
      "엑스": 3414,
      "오프": 3415,
      "오페": 3416,
      "오닉스": 3417,
      "올인": 3418,
      "올스텐": 3419,
      "완제품": 3420,
      "원더": 3421,
      "원목": 3422,
      "웨이": 3423,
      "웨딩": 3424,
      "유튜": 3425,
      "이상": 3426,
      "이벤": 3427,
      "일회": 3428,
      "임산": 3429,
      "자가": 3430,
      "잭필": 3431,
      "접이": 3432,
      "정보": 3433,
      "제작": 3434,
      "젠하이": 3435,
      "조이": 3436,
      "종이": 3437,
      "쥬크": 3438,
      "즉석": 3439,
      "지지": 3440,
      "지포": 3441,
      "지문": 3442,
      "짱구": 3443,
      "처진": 3444,
      "칼하트": 3445,
      "커스": 3446,
      "케네": 3447,
      "코모": 3448,
      "콜마": 3449,
      "콤비": 3450,
      "콤보": 3451,
      "퀵차": 3452,
      "크리": 3453,
      "크레": 3454,
      "크림": 3455,
      "클리어": 3456,
      "타루": 3457,
      "톡홀더": 3458,
      "튜브": 3459,
      "트루": 3460,
      "트윈": 3461,
      "파티": 3462,
      "파격": 3463,
      "패치": 3464,
      "패턴": 3465,
      "퍼카라": 3466,
      "포터": 3467,
      "포함": 3468,
      "포인트": 3469,
      "폰트리": 3470,
      "폴리오": 3471,
      "푸파": 3472,
      "퓨전": 3473,
      "플렉": 3474,
      "플란": 3475,
      "플랩": 3476,
      "플립5": 3477,
      "핑크": 3478,
      "하트": 3479,
      "하이스": 3480,
      "항공": 3481,
      "헤론": 3482,
      "헬스": 3483,
      "혼주": 3484,
      "휴양": 3485,
      "히어": 3486,
      "힐링": 3487,
      "##스커트": 3488,
      "##스튜디오": 3489,
      "##스레이디": 3490,
      "##라스": 3491,
      "##라이트": 3492,
      "##79": 3493,
      "##72": 3494,
      "##701": 3495,
      "##720": 3496,
      "##93": 3497,
      "##95": 3498,
      "##900": 3499,
      "##915": 3500,
      "##03": 3501,
      "##010": 3502,
      "##리트": 3503,
      "##에어": 3504,
      "##이더": 3505,
      "##터프": 3506,
      "##FXKR": 3507,
      "##XC": 3508,
      "##XL": 3509,
      "##XE": 3510,
      "##XFT": 3511,
      "##C3": 3512,
      "##CA": 3513,
      "##CD": 3514,
      "##C65": 3515,
      "##CP1": 3516,
      "##MAR": 3517,
      "##A5": 3518,
      "##A4": 3519,
      "##AFXKR": 3520,
      "##2S": 3521,
      "##250": 3522,
      "##2000": 3523,
      "##215": 3524,
      "##2902": 3525,
      "##PW": 3526,
      "##41": 3527,
      "##LL": 3528,
      "##66": 3529,
      "##610": 3530,
      "##비비안": 3531,
      "##D5": 3532,
      "##DO": 3533,
      "##DE": 3534,
      "##D8": 3535,
      "##TP": 3536,
      "##TER": 3537,
      "##RL": 3538,
      "##180": 3539,
      "##OW": 3540,
      "##EY": 3541,
      "##N500": 3542,
      "##코튼": 3543,
      "##바이트": 3544,
      "##지알": 3545,
      "##로그": 3546,
      "##UB": 3547,
      "##UI": 3548,
      "##UDW": 3549,
      "##피엑스": 3550,
      "##안감": 3551,
      "##인하": 3552,
      "##KU": 3553,
      "##GN": 3554,
      "##um": 3555,
      "##ux": 3556,
      "##ac": 3557,
      "##ay": 3558,
      "##86": 3559,
      "##830": 3560,
      "##어스": 3561,
      "##ZD90": 3562,
      "##QC65": 3563,
      "##티지": 3564,
      "##ep": 3565,
      "##et": 3566,
      "##mo": 3567,
      "##mi": 3568,
      "##보리": 3569,
      "##시리즈": 3570,
      "##SP": 3571,
      "##SL": 3572,
      "##SY": 3573,
      "##SSD": 3574,
      "##트속옷": 3575,
      "##타360": 3576,
      "##HAM": 3577,
      "##브릭": 3578,
      "##화점": 3579,
      "##도우": 3580,
      "##마스": 3581,
      "##마운": 3582,
      "##마우스": 3583,
      "##IR": 3584,
      "##IME": 3585,
      "##드로즈": 3586,
      "##드브릿": 3587,
      "##픽셀": 3588,
      "##프리": 3589,
      "##프린": 3590,
      "##머니": 3591,
      "##언트": 3592,
      "##아프": 3593,
      "##아머": 3594,
      "##아일랜드": 3595,
      "##패키지": 3596,
      "##der": 3597,
      "##iv": 3598,
      "##ite": 3599,
      "##롱구스다운": 3600,
      "##미닌": 3601,
      "##미티드": 3602,
      "##플래": 3603,
      "##임스": 3604,
      "##그라": 3605,
      "##데몬": 3606,
      "##핸드": 3607,
      "##베이": 3608,
      "##수납": 3609,
      "##여행": 3610,
      "##처블": 3611,
      "##란트": 3612,
      "##복원": 3613,
      "##벨티드": 3614,
      "##씨현": 3615,
      "##본체": 3616,
      "##힐즈": 3617,
      "##글런": 3618,
      "##밴드": 3619,
      "##만도": 3620,
      "##텍스": 3621,
      "##질감": 3622,
      "##큐브": 3623,
      "##올렛": 3624,
      "##올룹": 3625,
      "##골덴": 3626,
      "##ver": 3627,
      "##깅스": 3628,
      "##봐요": 3629,
      "##004": 3630,
      "##00mAh": 3631,
      "아이보리": 3632,
      "##104": 3633,
      "##106": 3634,
      "##1010": 3635,
      "##레이크": 3636,
      "남자반": 3637,
      "기모바지": 3638,
      "기모안감": 3639,
      "다운패딩": 3640,
      "다운점퍼": 3641,
      "##2411": 3642,
      "##011": 3643,
      "울트라와이드": 3644,
      "##2027": 3645,
      "에어메이드": 3646,
      "에어클로": 3647,
      "##502": 3648,
      "##307": 3649,
      "##306": 3650,
      "##115": 3651,
      "케이블니트": 3652,
      "##23417": 3653,
      "##less": 3654,
      "원피스잠옷": 3655,
      "##341": 3656,
      "##JPD4": 3657,
      "##JPM4": 3658,
      "##908": 3659,
      "게이밍컴퓨터": 3660,
      "더블디": 3661,
      "더블니": 3662,
      "더블버튼": 3663,
      "여자속옷": 3664,
      "여자슬랙스": 3665,
      "##2520": 3666,
      "커플파자마": 3667,
      "##3WCM": 3668,
      "128G": 3669,
      "128기가": 3670,
      "MSI": 3671,
      "베이지": 3672,
      "블루핏": 3673,
      "블랙박스": 3674,
      "25600": 3675,
      "오버워치": 3676,
      "##229": 3677,
      "PHD4TR": 3678,
      "PHD4PP": 3679,
      "NEP3X": 3680,
      "##HDD": 3681,
      "갤럭시S22": 3682,
      "노와이어브라": 3683,
      "##ART": 3684,
      "24M": 3685,
      "스탠바이": 3686,
      "##3X38C": 3687,
      "##362": 3688,
      "SMI": 3689,
      "리얼핏": 3690,
      "##N4D": 3691,
      "외장SSD": 3692,
      "외장HDD": 3693,
      "NT750": 3694,
      "QC65": 3695,
      "SPJPD4": 3696,
      "##3001": 3697,
      "##2002": 3698,
      "##2004": 3699,
      "##ender": 3700,
      "갤럭시워치4": 3701,
      "##lay": 3702,
      "인스타360": 3703,
      "##BDO": 3704,
      "SET": 3705,
      "미디엄": 3706,
      "브이로그": 3707,
      "스파이더": 3708,
      "오리털": 3709,
      "TWHCTM8": 3710,
      "TWHCTM800": 3711,
      "스탠드카라": 3712,
      "2022": 3713,
      "BF3X30C": 3714,
      "BC3X38C": 3715,
      "III": 3716,
      "메탈쉴드": 3717,
      "컴퓨터본체": 3718,
      "폴라티": 3719,
      "폴라로이드": 3720,
      "테이퍼드핏": 3721,
      "AAB4": 3722,
      "C563W": 3723,
      "C563FW": 3724,
      "ZOC4FP1": 3725,
      "다이아퀼팅": 3726,
      "오토비": 3727,
      "오픈형": 3728,
      "오픈런": 3729,
      "오피스프로": 3730,
      "플라워": 3731,
      "##224PSG": 3732,
      "##1104": 3733,
      "##own": 3734,
      "##하이닉스": 3735,
      "스타일러스": 3736,
      "40mm": 3737,
      "C234MSG5": 3738,
      "GNRL": 3739,
      "SD카드": 3740,
      "SZA": 3741,
      "SZBDO": 3742,
      "마인드브릿": 3743,
      "아웃포켓": 3744,
      "제이씨현": 3745,
      "##JDD4V": 3746,
      "##ket": 3747,
      "##reless": 3748,
      "무선충전기": 3749,
      "PHD4JP24": 3750,
      "칼라거펠드": 3751,
      "GX56K": 3752,
      "SSDJPM4": 3753,
      "SIEK": 3754,
      "WBC3": 3755,
      "당일출고": 3756,
      "동물의": 3757,
      "메이튼": 3758,
      "메이플라워": 3759,
      "언더아머": 3760,
      "인터넷": 3761,
      "인터픽셀": 3762,
      "커버낫": 3763,
      "커브드": 3764,
      "커브형": 3765,
      "크리스탈": 3766,
      "크리스마스": 3767,
      "##프레셔": 3768,
      "##만원인하": 3769,
      "MSD4TC": 3770,
      "MSC4TC39": 3771,
      "SWHCTM420": 3772,
      "루컴즈전자": 3773,
      "3739": 3774,
      "91734": 3775,
      "JAJU": 3776,
      "LAI": 3777,
      "NJW3WH": 3778,
      "마이데몬": 3779,
      "스테이": 3780,
      "재생토너": 3781,
      "##가지기장": 3782,
      "##ound": 3783,
      "##600SW": 3784,
      "1000XM5": 3785,
      "T238MDJ": 3786,
      "5000mAh": 3787,
      "68cm": 3788,
      "91034": 3789,
      "AKG": 3790,
      "A234PW": 3791,
      "Beo": 3792,
      "EVO": 3793,
      "MQD8": 3794,
      "MV7": 3795,
      "YN4W58": 3796,
      "나일론": 3797,
      "녹음기": 3798,
      "레빅터프": 3799,
      "렌즈보호": 3800,
      "리오벨": 3801,
      "몽클레어": 3802,
      "셀카봉": 3803,
      "에이지알": 3804,
      "위생팬티": 3805,
      "터치펜": 3806,
      "프린팅": 3807,
      "한복대여": 3808,
      "##사지기": 3809,
      "에어리즘": 3810,
      "##992F": 3811,
      "Extender": 3812,
      "55849": 3813,
      "7123417": 3814,
      "C513W": 3815,
      "COLMAR": 3816,
      "DJI": 3817,
      "D234PSG27": 3818,
      "Ekeep": 3819,
      "HL만도": 3820,
      "Osmo": 3821,
      "POLHAM": 3822,
      "SK하이닉스": 3823,
      "V234PSG9": 3824,
      "usb": 3825,
      "가벼운": 3826,
      "간절기": 3827,
      "고사양": 3828,
      "골전도": 3829,
      "기가바이트": 3830,
      "남여공용": 3831,
      "높이조절": 3832,
      "대용량": 3833,
      "더아이잗": 3834,
      "도도희": 3835,
      "도킹형": 3836,
      "디럭스": 3837,
      "디트로이트": 3838,
      "라파엘": 3839,
      "라삐아프": 3840,
      "란제리": 3841,
      "레귤러": 3842,
      "메디큐브": 3843,
      "모여봐요": 3844,
      "바이올렛": 3845,
      "발로란트": 3846,
      "발마칸": 3847,
      "뱅앤올룹": 3848,
      "버커루": 3849,
      "베네통": 3850,
      "블라우스": 3851,
      "비버리힐즈": 3852,
      "사계절": 3853,
      "슈피겐": 3854,
      "스트라이프": 3855,
      "오페라글": 3856,
      "올인원": 3857,
      "유튜브": 3858,
      "이상봉": 3859,
      "이벤트속옷": 3860,
      "일회용": 3861,
      "임산부": 3862,
      "자가복원": 3863,
      "잭필드": 3864,
      "접이식": 3865,
      "젠하이저": 3866,
      "종이질감": 3867,
      "지지피엑스": 3868,
      "지포스": 3869,
      "처진가슴": 3870,
      "커스텀": 3871,
      "케네스레이디": 3872,
      "코모도": 3873,
      "콜마르": 3874,
      "퀵차지": 3875,
      "크리에": 3876,
      "크레송": 3877,
      "타루가": 3878,
      "트윈프레셔": 3879,
      "포터블": 3880,
      "플렉시블": 3881,
      "플란넬": 3882,
      "하이스토어": 3883,
      "항공점퍼": 3884,
      "휴양지": 3885,
      "히어로": 3886,
      "힐링쉴드": 3887,
      "##QC65AFXKR": 3888,
      "##마운트": 3889,
      "##프린터": 3890,
      "##ive": 3891,
      "스탠바이미": 3892,
      "마인드브릿지": 3893,
      "MQD83KH": 3894,
      "Ekeepment": 3895,
      "뱅앤올룹슨": 3896,
      "00": 3897,
      "0C": 3898,
      "010": 3899,
      "1팩": 3900,
      "120": 3901,
      "1세대": 3902,
      "111": 3903,
      "112": 3904,
      "1만원인하": 3905,
      "2X": 3906,
      "22": 3907,
      "2배": 3908,
      "2단": 3909,
      "201": 3910,
      "220": 3911,
      "2000": 3912,
      "240": 3913,
      "2TB": 3914,
      "2테라": 3915,
      "3장": 3916,
      "3S": 3917,
      "360": 3918,
      "3000": 3919,
      "3컬러": 3920,
      "337": 3921,
      "373": 3922,
      "3color": 3923,
      "3가지기장": 3924,
      "44": 3925,
      "4단": 3926,
      "400": 3927,
      "4컬러": 3928,
      "45W": 3929,
      "57": 3930,
      "55": 3931,
      "5A": 3932,
      "501": 3933,
      "533": 3934,
      "5800": 3935,
      "5mm": 3936,
      "5만원": 3937,
      "6컬러": 3938,
      "65W": 3939,
      "6인치": 3940,
      "7부": 3941,
      "730": 3942,
      "712": 3943,
      "7500": 3944,
      "80": 3945,
      "85": 3946,
      "8B": 3947,
      "8G": 3948,
      "8핀": 3949,
      "801": 3950,
      "874": 3951,
      "89900원": 3952,
      "99": 3953,
      "9H": 3954,
      "9종": 3955,
      "999": 3956,
      "900원": 3957,
      "AF": 3958,
      "AM": 3959,
      "AP": 3960,
      "AT": 3961,
      "AR": 3962,
      "A1": 3963,
      "AS": 3964,
      "A36": 3965,
      "A58": 3966,
      "A300": 3967,
      "APP": 3968,
      "ANC": 3969,
      "ANK": 3970,
      "AIR": 3971,
      "A2004": 3972,
      "BM": 3973,
      "BL": 3974,
      "BD": 3975,
      "BN": 3976,
      "BS": 3977,
      "B3W": 3978,
      "Bla": 3979,
      "Bus": 3980,
      "CA": 3981,
      "CP": 3982,
      "C234": 3983,
      "C27": 3984,
      "C32": 3985,
      "Cla": 3986,
      "C48": 3987,
      "DM": 3988,
      "DT": 3989,
      "Du": 3990,
      "DW": 3991,
      "DS": 3992,
      "DH": 3993,
      "D톤": 3994,
      "Down": 3995,
      "ED": 3996,
      "EQ": 3997,
      "EY": 3998,
      "E10": 3999,
      "Eig": 4000,
      "E224PSG": 4001,
      "F1": 4002,
      "Fa": 4003,
      "F24": 4004,
      "G9": 4005,
      "G4": 4006,
      "GR": 4007,
      "GW": 4008,
      "GI": 4009,
      "G80": 4010,
      "GEN": 4011,
      "Gen": 4012,
      "G91": 4013,
      "G304": 4014,
      "HW": 4015,
      "H라인": 4016,
      "HOO": 4017,
      "HCG": 4018,
      "HUB": 4019,
      "IV": 4020,
      "Is": 4021,
      "ISK": 4022,
      "J2": 4023,
      "JMW": 4024,
      "KH": 4025,
      "K10": 4026,
      "KHD": 4027,
      "K510": 4028,
      "Le": 4029,
      "LB4": 4030,
      "Lux": 4031,
      "Lite": 4032,
      "MP": 4033,
      "MO": 4034,
      "MU": 4035,
      "My": 4036,
      "Mar": 4037,
      "Micro": 4038,
      "MME": 4039,
      "MM9": 4040,
      "N2": 4041,
      "NN": 4042,
      "NK": 4043,
      "NS": 4044,
      "NI": 4045,
      "OP": 4046,
      "OL": 4047,
      "OT": 4048,
      "Of": 4049,
      "OP3X": 4050,
      "ODV": 4051,
      "PP": 4052,
      "PR": 4053,
      "PE": 4054,
      "PU": 4055,
      "PQ": 4056,
      "Po": 4057,
      "P34": 4058,
      "Pre": 4059,
      "PAS": 4060,
      "POW": 4061,
      "RF": 4062,
      "RS": 4063,
      "S7": 4064,
      "Sk": 4065,
      "Sh": 4066,
      "Si": 4067,
      "S펜": 4068,
      "Sla": 4069,
      "S43": 4070,
      "Swe": 4071,
      "Sound": 4072,
      "T7": 4073,
      "TX": 4074,
      "TP": 4075,
      "T4": 4076,
      "TN": 4077,
      "T8": 4078,
      "TS": 4079,
      "Th": 4080,
      "Ti": 4081,
      "T16": 4082,
      "T21": 4083,
      "TRO": 4084,
      "T73": 4085,
      "Tou": 4086,
      "UP": 4087,
      "U넥": 4088,
      "Und": 4089,
      "UTP": 4090,
      "VX": 4091,
      "V10": 4092,
      "WA": 4093,
      "WT": 4094,
      "WO": 4095,
      "Y3": 4096,
      "YN4D": 4097,
      "ZM": 4098,
      "ZV": 4099,
      "Z폴": 4100,
      "Z234MSG": 4101,
      "by": 4102,
      "i5": 4103,
      "i20": 4104,
      "mu": 4105,
      "mi": 4106,
      "ot": 4107,
      "ser": 4108,
      "wi": 4109,
      "가족": 4110,
      "각도": 4111,
      "갈바": 4112,
      "감탄": 4113,
      "개조": 4114,
      "게이트": 4115,
      "고주": 4116,
      "고탄": 4117,
      "골든": 4118,
      "광학": 4119,
      "구글": 4120,
      "군인": 4121,
      "금장": 4122,
      "깔깔": 4123,
      "꽃무": 4124,
      "네스": 4125,
      "네비": 4126,
      "네모": 4127,
      "네티": 4128,
      "넥시": 4129,
      "노래": 4130,
      "노이즈": 4131,
      "논슬": 4132,
      "논퀼팅": 4133,
      "단추": 4134,
      "대체": 4135,
      "더치": 4136,
      "더마": 4137,
      "더플": 4138,
      "덮개": 4139,
      "도씨": 4140,
      "듀플": 4141,
      "등산": 4142,
      "디자": 4143,
      "디씨": 4144,
      "라도": 4145,
      "라익": 4146,
      "랄프": 4147,
      "래글런": 4148,
      "랜케이블": 4149,
      "런칭": 4150,
      "레터": 4151,
      "레인": 4152,
      "레깅스": 4153,
      "로렌": 4154,
      "로우": 4155,
      "로브": 4156,
      "롱원피스": 4157,
      "롱스커트": 4158,
      "루엠": 4159,
      "르오": 4160,
      "르투": 4161,
      "리브": 4162,
      "리니": 4163,
      "리진": 4164,
      "리본": 4165,
      "리펠": 4166,
      "리하": 4167,
      "리큐": 4168,
      "리미티드": 4169,
      "릴렉스": 4170,
      "마리": 4171,
      "마운": 4172,
      "망원": 4173,
      "매장판": 4174,
      "맥플러스": 4175,
      "메리": 4176,
      "면도": 4177,
      "면바지": 4178,
      "모임": 4179,
      "목티": 4180,
      "무광": 4181,
      "뮤지": 4182,
      "미라": 4183,
      "미러": 4184,
      "미즈": 4185,
      "믹스": 4186,
      "민소매": 4187,
      "바디": 4188,
      "바바": 4189,
      "반후드": 4190,
      "반폴라": 4191,
      "배기": 4192,
      "배터리": 4193,
      "범퍼": 4194,
      "베르": 4195,
      "베아": 4196,
      "벤치": 4197,
      "벤투스": 4198,
      "벨로": 4199,
      "벨벳": 4200,
      "변환": 4201,
      "별의": 4202,
      "보아": 4203,
      "볼펜": 4204,
      "부스터": 4205,
      "부드러": 4206,
      "뷰티": 4207,
      "블프": 4208,
      "빛번": 4209,
      "뽕브라": 4210,
      "사무": 4211,
      "산리오": 4212,
      "상견": 4213,
      "샘방지": 4214,
      "생리": 4215,
      "서포트": 4216,
      "선반": 4217,
      "성해": 4218,
      "세이": 4219,
      "세인트": 4220,
      "섹시": 4221,
      "셔링": 4222,
      "소가": 4223,
      "소형": 4224,
      "소매": 4225,
      "소량": 4226,
      "쇼트": 4227,
      "숏푸": 4228,
      "숨쉬": 4229,
      "쉐도우": 4230,
      "쉬폰": 4231,
      "스톤": 4232,
      "스투": 4233,
      "스토어": 4234,
      "스퀘어": 4235,
      "스플래": 4236,
      "시스": 4237,
      "시나": 4238,
      "시즌": 4239,
      "시놀": 4240,
      "신구": 4241,
      "신부": 4242,
      "심플": 4243,
      "쌍안": 4244,
      "씨빅": 4245,
      "씨티지": 4246,
      "씽크": 4247,
      "아라": 4248,
      "아미": 4249,
      "아킴": 4250,
      "아리스": 4251,
      "안감": 4252,
      "애프": 4253,
      "액션": 4254,
      "액티브": 4255,
      "앤커": 4256,
      "야한": 4257,
      "얇은": 4258,
      "어드": 4259,
      "어니": 4260,
      "어댑": 4261,
      "어깨": 4262,
      "얼티": 4263,
      "얼굴": 4264,
      "에스": 4265,
      "에잇": 4266,
      "에스티": 4267,
      "엔산": 4268,
      "엘르": 4269,
      "엠비": 4270,
      "엠포": 4271,
      "엣지": 4272,
      "여행": 4273,
      "연예": 4274,
      "영구": 4275,
      "예뻐": 4276,
      "오르": 4277,
      "오아": 4278,
      "오조": 4279,
      "왕뽕": 4280,
      "요가": 4281,
      "요크": 4282,
      "욜로": 4283,
      "용품": 4284,
      "용과": 4285,
      "울혼": 4286,
      "울50": 4287,
      "울코트": 4288,
      "워머": 4289,
      "원버튼": 4290,
      "월드": 4291,
      "웨일": 4292,
      "웰론": 4293,
      "윈드러": 4294,
      "유무": 4295,
      "이츠": 4296,
      "이북": 4297,
      "인조": 4298,
      "인쇄": 4299,
      "인이어": 4300,
      "일리": 4301,
      "일본": 4302,
      "장기모": 4303,
      "장마우스": 4304,
      "재원": 4305,
      "저스트": 4306,
      "전자": 4307,
      "전문": 4308,
      "전기": 4309,
      "전략": 4310,
      "접지": 4311,
      "정리": 4312,
      "제우스": 4313,
      "젠더": 4314,
      "주름": 4315,
      "주연": 4316,
      "지스튜디오": 4317,
      "짐웨어": 4318,
      "차콜": 4319,
      "착장": 4320,
      "축교": 4321,
      "치마": 4322,
      "카치": 4323,
      "카트": 4324,
      "카플레이": 4325,
      "캐주": 4326,
      "캐리어": 4327,
      "캔스": 4328,
      "캔슬": 4329,
      "커비": 4330,
      "컬러": 4331,
      "컬링": 4332,
      "컴플": 4333,
      "코지": 4334,
      "코드": 4335,
      "콘서": 4336,
      "쿠로": 4337,
      "퀄컴": 4338,
      "크롬": 4339,
      "큰컵": 4340,
      "클릭": 4341,
      "테일러": 4342,
      "텐션": 4343,
      "텐키": 4344,
      "토너": 4345,
      "톰보이": 4346,
      "트레": 4347,
      "트임": 4348,
      "파카": 4349,
      "파라": 4350,
      "파워": 4351,
      "판도": 4352,
      "팜레": 4353,
      "패브릭": 4354,
      "퍼프": 4355,
      "페더": 4356,
      "페이크": 4357,
      "페미닌": 4358,
      "펜톤": 4359,
      "펜슬": 4360,
      "포크": 4361,
      "포밍": 4362,
      "풀컵": 4363,
      "풀집": 4364,
      "풀스킨": 4365,
      "프라": 4366,
      "프롬": 4367,
      "프라이": 4368,
      "피크": 4369,
      "피부": 4370,
      "피쉬": 4371,
      "피에스": 4372,
      "핀턱": 4373,
      "필터": 4374,
      "하성": 4375,
      "하고": 4376,
      "하찌": 4377,
      "한컴": 4378,
      "한국": 4379,
      "할머니": 4380,
      "핫멜": 4381,
      "해리": 4382,
      "해비": 4383,
      "해외": 4384,
      "햄팬티": 4385,
      "허리": 4386,
      "허벅": 4387,
      "헌터": 4388,
      "헤지": 4389,
      "혼방": 4390,
      "홈쇼핑": 4391,
      "휴롬": 4392,
      "흰색": 4393,
      "힐러": 4394,
      "##스턴": 4395,
      "##스틱": 4396,
      "##스템": 4397,
      "##스포츠": 4398,
      "##토우": 4399,
      "##퍼블": 4400,
      "##퍼니": 4401,
      "##블랙": 4402,
      "##블루": 4403,
      "##라b": 4404,
      "##라왕": 4405,
      "##라이즈": 4406,
      "##가용": 4407,
      "##702": 4408,
      "##769": 4409,
      "##94": 4410,
      "##9Z": 4411,
      "##980": 4412,
      "##974": 4413,
      "##948": 4414,
      "##050": 4415,
      "##090": 4416,
      "##0CT": 4417,
      "##0JK": 4418,
      "##리안": 4419,
      "##에프": 4420,
      "##이비": 4421,
      "##이티브": 4422,
      "##이벤처": 4423,
      "##터샥": 4424,
      "##FC": 4425,
      "##FP": 4426,
      "##FE": 4427,
      "##FZ": 4428,
      "##FS": 4429,
      "##F16": 4430,
      "##325": 4431,
      "##3cm": 4432,
      "##XX": 4433,
      "##XQ": 4434,
      "##X플러스": 4435,
      "##X3D": 4436,
      "##C컵": 4437,
      "##C01": 4438,
      "##C310": 4439,
      "##53": 4440,
      "##53N": 4441,
      "##535": 4442,
      "##54T": 4443,
      "##BP": 4444,
      "##BR": 4445,
      "##B1": 4446,
      "##BO": 4447,
      "##B02": 4448,
      "##BWDW": 4449,
      "##B2361": 4450,
      "##파마": 4451,
      "##M3": 4452,
      "##MU": 4453,
      "##MAN": 4454,
      "##MJP": 4455,
      "##MOP": 4456,
      "##MN500": 4457,
      "##AO": 4458,
      "##A8": 4459,
      "##ACK": 4460,
      "##ALI": 4461,
      "##2E": 4462,
      "##2종": 4463,
      "##210": 4464,
      "##2KH": 4465,
      "##2908": 4466,
      "##P3": 4467,
      "##PL": 4468,
      "##PE": 4469,
      "##POL": 4470,
      "##PAD": 4471,
      "##Play": 4472,
      "##4A": 4473,
      "##401": 4474,
      "##430H": 4475,
      "##LX": 4476,
      "##LE": 4477,
      "##L05": 4478,
      "##LD4TR": 4479,
      "##L600SW": 4480,
      "##624": 4481,
      "##660": 4482,
      "##645": 4483,
      "##6361": 4484,
      "##비전": 4485,
      "##메일": 4486,
      "##메이트": 4487,
      "##르르": 4488,
      "##JCT": 4489,
      "##JHD": 4490,
      "##JLD4TR": 4491,
      "##DJ": 4492,
      "##D컵": 4493,
      "##DAN": 4494,
      "##DIE": 4495,
      "##T1": 4496,
      "##TN": 4497,
      "##TG": 4498,
      "##TW": 4499,
      "##TON": 4500,
      "##T350": 4501,
      "##RU": 4502,
      "##1W": 4503,
      "##1종": 4504,
      "##1번": 4505,
      "##150": 4506,
      "##1000": 4507,
      "##190": 4508,
      "##199": 4509,
      "##138": 4510,
      "##1HC": 4511,
      "##버시": 4512,
      "##버전": 4513,
      "##서포트": 4514,
      "##EP": 4515,
      "##EL": 4516,
      "##E컵": 4517,
      "##ECK": 4518,
      "##EAR": 4519,
      "##E265": 4520,
      "##N7": 4521,
      "##N800": 4522,
      "##NTER": 4523,
      "##N9Z": 4524,
      "##디드": 4525,
      "##디움": 4526,
      "##디바이스": 4527,
      "##코스": 4528,
      "##코듀로이": 4529,
      "##코리아": 4530,
      "##테일": 4531,
      "##모피": 4532,
      "##모롤": 4533,
      "##바유": 4534,
      "##지웨어": 4535,
      "##로지": 4536,
      "##로드": 4537,
      "##로점": 4538,
      "##로클럽": 4539,
      "##로배송": 4540,
      "##UE": 4541,
      "##UJK": 4542,
      "##URE": 4543,
      "##크래": 4544,
      "##자크": 4545,
      "##자수": 4546,
      "##KA": 4547,
      "##KS": 4548,
      "##K3KH": 4549,
      "##GD": 4550,
      "##GR": 4551,
      "##GQ": 4552,
      "##G54T": 4553,
      "##un": 4554,
      "##af": 4555,
      "##lan": 4556,
      "##lig": 4557,
      "##lver": 4558,
      "##82": 4559,
      "##84": 4560,
      "##811": 4561,
      "##WEAR": 4562,
      "##어디션": 4563,
      "##QN": 4564,
      "##Q400": 4565,
      "##생커버": 4566,
      "##티셔츠": 4567,
      "##ess": 4568,
      "##port": 4569,
      "##pac": 4570,
      "##more": 4571,
      "##보안": 4572,
      "##cket": 4573,
      "##caf": 4574,
      "##시드": 4575,
      "##시스템": 4576,
      "##시비전": 4577,
      "##트위드": 4578,
      "##타이즈": 4579,
      "##H2": 4580,
      "##먼트": 4581,
      "##우니": 4582,
      "##브존": 4583,
      "##유기": 4584,
      "##ht": 4585,
      "##마치": 4586,
      "##마니": 4587,
      "##마스터": 4588,
      "##IA": 4589,
      "##IQ": 4590,
      "##ION": 4591,
      "##드5": 4592,
      "##프라이어": 4593,
      "##니아": 4594,
      "##레르": 4595,
      "##VT": 4596,
      "##VE": 4597,
      "##V11": 4598,
      "##패스": 4599,
      "##케어": 4600,
      "##케이스": 4601,
      "##od": 4602,
      "##of": 4603,
      "##day": 4604,
      "##다리": 4605,
      "##다이아": 4606,
      "##오피스": 4607,
      "##더스": 4608,
      "##액티브": 4609,
      "##플레어": 4610,
      "##싱크": 4611,
      "##목티": 4612,
      "##제임스": 4613,
      "##컵C컵": 4614,
      "##그레이": 4615,
      "##나무": 4616,
      "##데이": 4617,
      "##밍크": 4618,
      "##허브": 4619,
      "##숏코트": 4620,
      "##sof": 4621,
      "##sday": 4622,
      "##기업": 4623,
      "##상품": 4624,
      "##컴퍼니": 4625,
      "##수령": 4626,
      "##위생커버": 4627,
      "##무스탕": 4628,
      "##무한잉크": 4629,
      "##조끼": 4630,
      "##백화점": 4631,
      "##여우": 4632,
      "##여성": 4633,
      "##YNC": 4634,
      "##YHL": 4635,
      "##YE265": 4636,
      "##선택": 4637,
      "##fw": 4638,
      "##fic": 4639,
      "##랩™": 4640,
      "##게스": 4641,
      "##부부": 4642,
      "##부츠컷": 4643,
      "##계정": 4644,
      "##y비비안": 4645,
      "##몬드": 4646,
      "##하객": 4647,
      "##캐스트": 4648,
      "##끼털": 4649,
      "##추천": 4650,
      "##폴로클럽": 4651,
      "##네이비": 4652,
      "##엄마": 4653,
      "##탈부착": 4654,
      "##과컴퓨터": 4655,
      "##촬영": 4656,
      "##쉬드": 4657,
      "##쳐블": 4658,
      "##차단": 4659,
      "##증점": 4660,
      "##증정": 4661,
      "##슐레이트": 4662,
      "##야스": 4663,
      "##최신상": 4664,
      "##받침대": 4665,
      "##등록": 4666,
      "##편한": 4667,
      "##툰3": 4668,
      "##관리기": 4669,
      "##민기업": 4670,
      "##006": 4671,
      "##008": 4672,
      "##0029": 4673,
      "여성면": 4674,
      "여성패딩": 4675,
      "여성잠옷": 4676,
      "여성속옷": 4677,
      "아이케어": 4678,
      "잠옷바지": 4679,
      "남성용": 4680,
      "남성팬티": 4681,
      "남성속옷": 4682,
      "남성드로즈": 4683,
      "케이탑": 4684,
      "케이베스트": 4685,
      "##109": 4686,
      "##102": 4687,
      "##101": 4688,
      "모니터받침대": 4689,
      "구스코트": 4690,
      "##레이어": 4691,
      "남자속옷": 4692,
      "남자니트": 4693,
      "남자겨울": 4694,
      "남자맨투맨": 4695,
      "기모추가": 4696,
      "기모셋업": 4697,
      "##PC4": 4698,
      "##2401": 4699,
      "프로용": 4700,
      "프로360": 4701,
      "PC3": 4702,
      "PC4": 4703,
      "23FW최신상": 4704,
      "울트라하이": 4705,
      "##2010": 4706,
      "##2060": 4707,
      "에어랩™": 4708,
      "##D4ER": 4709,
      "##D4FP1": 4710,
      "##507": 4711,
      "##503": 4712,
      "폭스후드": 4713,
      "폭스클럽": 4714,
      "브라캡": 4715,
      "##119": 4716,
      "##1130": 4717,
      "##C4CP1": 4718,
      "##60G": 4719,
      "##60FD": 4720,
      "##2341": 4721,
      "니트카라": 4722,
      "스트링": 4723,
      "스트릿": 4724,
      "##iness": 4725,
      "##inIQ": 4726,
      "##ANPOL": 4727,
      "##000M": 4728,
      "##34Q": 4729,
      "폭스퍼후드": 4730,
      "폭스퍼트리": 4731,
      "12GB": 4732,
      "##JP2902": 4733,
      "##155": 4734,
      "##1500": 4735,
      "##커버리": 4736,
      "15W": 4737,
      "15702": 4738,
      "멀티허브": 4739,
      "자동발송": 4740,
      "강화유리필름": 4741,
      "와이드핏": 4742,
      "##275": 4743,
      "여자팬티": 4744,
      "##ITDO": 4745,
      "##ITION": 4746,
      "PHD5": 4747,
      "스마트톡": 4748,
      "WINTER": 4749,
      "정품100": 4750,
      "정품무한잉크": 4751,
      "파자마세트": 4752,
      "심리스팬티": 4753,
      "##CTC": 4754,
      "12800": 4755,
      "MSC": 4756,
      "카라넥": 4757,
      "SWE": 4758,
      "##3910": 4759,
      "##erwe": 4760,
      "10세대": 4761,
      "102027": 4762,
      "##9900": 4763,
      "##프로2": 4764,
      "미니샷": 4765,
      "미니11": 4766,
      "미니12": 4767,
      "블랙진": 4768,
      "마이크위생커버": 4769,
      "푸퍼다운": 4770,
      "##TR0610": 4771,
      "##ORT": 4772,
      "##ORDAN": 4773,
      "PHD4TC": 4774,
      "NEP": 4775,
      "##MDR": 4776,
      "##14UDW": 4777,
      "##ERALI": 4778,
      "2024": 4779,
      "MA1": 4780,
      "TWWOP": 4781,
      "##ARA": 4782,
      "고속충전기": 4783,
      "27GP": 4784,
      "27UP": 4785,
      "27ART": 4786,
      "24인치": 4787,
      "리버네트워크": 4788,
      "밴딩슬랙스": 4789,
      "하프집업": 4790,
      "##164": 4791,
      "##166": 4792,
      "##16E": 4793,
      "듀얼용": 4794,
      "스탠카라": 4795,
      "프리컷": 4796,
      "프리싱크": 4797,
      "32GP": 4798,
      "32MN500": 4799,
      "32YE265": 4800,
      "무지티": 4801,
      "##3510": 4802,
      "에어팟프로2": 4803,
      "SACTC": 4804,
      "수납홀더": 4805,
      "##500S": 4806,
      "##N430H": 4807,
      "##anmore": 4808,
      "CKI": 4809,
      "CK언더웨어": 4810,
      "모달팬티": 4811,
      "칼라리스": 4812,
      "##584E": 4813,
      "##M42510": 4814,
      "MSC4UI": 4815,
      "NT550": 4816,
      "SPPP": 4817,
      "SPAO": 4818,
      "카드리더기": 4819,
      "카드수납": 4820,
      "카드케이스": 4821,
      "##와이드팬츠": 4822,
      "갤럭시북2": 4823,
      "AX2000": 4824,
      "Wireless": 4825,
      "비비안스킨": 4826,
      "오디언트": 4827,
      "이어프리": 4828,
      "정장원피스": 4829,
      "플레이텍스": 4830,
      "##모니터암": 4831,
      "##지오지아": 4832,
      "프로젝트M": 4833,
      "16L": 4834,
      "163cm": 4835,
      "CUT": 4836,
      "스타디움": 4837,
      "이너웨어": 4838,
      "헤드폰": 4839,
      "##2910": 4840,
      "##2912": 4841,
      "##JKD49": 4842,
      "##EST": 4843,
      "2종세트": 4844,
      "MINI": 4845,
      "MIXX": 4846,
      "라이트닝": 4847,
      "사각팬티": 4848,
      "슈퍼소닉": 4849,
      "스페인": 4850,
      "##CM501": 4851,
      "##2671": 4852,
      "##N82520": 4853,
      "##ss10": 4854,
      "##ssport": 4855,
      "##3WH830": 4856,
      "갤럭시S23플러스": 4857,
      "갤럭시S23울트라": 4858,
      "TWHCTN820": 4859,
      "000원": 4860,
      "0005": 4861,
      "BCBG": 4862,
      "보호필름": 4863,
      "선물2종": 4864,
      "폴라플리스": 4865,
      "##폴라니트": 4866,
      "플레이스테이션5": 4867,
      "ITNC": 4868,
      "ITMB": 4869,
      "ITMA": 4870,
      "ITN9Z": 4871,
      "다이아몬드": 4872,
      "와이셔츠": 4873,
      "워크퀘어": 4874,
      "조립컴퓨터": 4875,
      "트렌치코트": 4876,
      "플라핏": 4877,
      "플라스틱": 4878,
      "한글과컴퓨터": 4879,
      "히트택": 4880,
      "##3011": 4881,
      "##301W": 4882,
      "##MK430H": 4883,
      "##283": 4884,
      "##224MSG": 4885,
      "##1103": 4886,
      "##1102": 4887,
      "PHC4TC": 4888,
      "SWHCTN4": 4889,
      "NT940": 4890,
      "스타일러": 4891,
      "4060": 4892,
      "7252417": 4893,
      "BAPD": 4894,
      "T236": 4895,
      "마인크래": 4896,
      "유니클로": 4897,
      "카고바지": 4898,
      "파우치증정": 4899,
      "히든밴딩": 4900,
      "PHD4JP27": 4901,
      "EPD4JD": 4902,
      "EPD4JJ": 4903,
      "라이젠5": 4904,
      "초고속충전": 4905,
      "키작녀바지": 4906,
      "20000mAh": 4907,
      "AEC4": 4908,
      "BH584E": 4909,
      "CCW": 4910,
      "CC콜렉트": 4911,
      "CLBWDW": 4912,
      "CH720": 4913,
      "CHECK": 4914,
      "RMJDD4V": 4915,
      "RMJLD4TR": 4916,
      "RMJKD49": 4917,
      "S32BM": 4918,
      "WBC4": 4919,
      "네이비": 4920,
      "네이버": 4921,
      "네이처": 4922,
      "도톰한": 4923,
      "스킨핏": 4924,
      "##NEW": 4925,
      "##W3WH4": 4926,
      "##프레소": 4927,
      "에어로핏": 4928,
      "에어로쿨": 4929,
      "DDR3": 4930,
      "TFG27": 4931,
      "TFG34Q": 4932,
      "결혼식하객": 4933,
      "microSDXC": 4934,
      "9172411": 4935,
      "BV2671": 4936,
      "M2030": 4937,
      "SHURE": 4938,
      "XL25": 4939,
      "Z234PSG18": 4940,
      "디스플레이": 4941,
      "디스커버리": 4942,
      "라인어디션": 4943,
      "메모리카드": 4944,
      "보정속옷": 4945,
      "운동복": 4946,
      "치노팬츠": 4947,
      "힌지보호": 4948,
      "##ursday": 4949,
      "##트레이닝복": 4950,
      "##제품키": 4951,
      "갤럭시Z플립5": 4952,
      "##D4VU": 4953,
      "TWWSL": 4954,
      "라이브쇼핑": 4955,
      "MIWJHD": 4956,
      "PHC4JP32": 4957,
      "PHC4JP22": 4958,
      "NT960XGK": 4959,
      "1000XM4": 4960,
      "MK2K3KH": 4961,
      "GMDBDU992F": 4962,
      "플러피플리스": 4963,
      "돌잔치엄마": 4964,
      "18W": 4965,
      "137980": 4966,
      "28974": 4967,
      "88사이즈": 4968,
      "Acton": 4969,
      "BEAM": 4970,
      "BEANPOL": 4971,
      "DELL": 4972,
      "FB75": 4973,
      "MLB": 4974,
      "OH3WCM": 4975,
      "PENTON": 4976,
      "Stud": 4977,
      "Stanmore": 4978,
      "T13": 4979,
      "T13X": 4980,
      "기장추가": 4981,
      "기장선택": 4982,
      "디테처블": 4983,
      "디테쳐블": 4984,
      "브러시드": 4985,
      "신혼부부": 4986,
      "자바라": 4987,
      "초경량": 4988,
      "컴포트핏": 4989,
      "투피스세트": 4990,
      "##1302": 4991,
      "##EU1104": 4992,
      "##ies": 4993,
      "갤럭시탭S7": 4994,
      "##TR3900": 4995,
      "PHD4PT2401": 4996,
      "##N82020": 4997,
      "LIGHTSPE": 4998,
      "LIGHTSYNC": 4999,
      "NJP3WM9": 5000,
      "클라우드패딩": 5001,
      "헝가리구스다운": 5002,
      "0739": 5003,
      "00501": 5004,
      "1939": 5005,
      "4D플러스": 5006,
      "5CX플러스": 5007,
      "870L": 5008,
      "COX": 5009,
      "C234PSG18": 5010,
      "CLAWDW": 5011,
      "GO3": 5012,
      "K71AR": 5013,
      "K200S": 5014,
      "MEX": 5015,
      "Passport": 5016,
      "QXD8000": 5017,
      "SSGJPM42510": 5018,
      "YP3WH830": 5019,
      "기획전": 5020,
      "노스바유": 5021,
      "단체티": 5022,
      "라운지웨어": 5023,
      "미용실": 5024,
      "미국백화점": 5025,
      "변색방지": 5026,
      "스웻팬츠": 5027,
      "원더브라": 5028,
      "웨이코스": 5029,
      "웨딩촬영": 5030,
      "정보보안": 5031,
      "조이콘": 5032,
      "즉석카메라": 5033,
      "지문방지": 5034,
      "튜브다운": 5035,
      "트루젠": 5036,
      "파격초": 5037,
      "##A4341": 5038,
      "##DEA": 5039,
      "##KUG": 5040,
      "##ZD90RU": 5041,
      "##mium": 5042,
      "##핸드메이드": 5043,
      "##베이직": 5044,
      "남자반폴라니트": 5045,
      "여자속옷세트": 5046,
      "PHD4PP20": 5047,
      "NEP3XH": 5048,
      "##362SK": 5049,
      "NT750XFT": 5050,
      "SPJPD4TG": 5051,
      "TWHCTM801": 5052,
      "ZOC4FP1306": 5053,
      "SZAHC": 5054,
      "SZBDO32": 5055,
      "SSDJPM410": 5056,
      "WBC3L04": 5057,
      "MSC4TC3912": 5058,
      "LAINE": 5059,
      "T238MDJ24": 5060,
      "A234PWDA": 5061,
      "MV7N": 5062,
      "레빅터프플러스": 5063,
      "레귤러핏": 5064,
      "비버리힐즈폴로클럽": 5065,
      "오페라글라스": 5066,
      "이상봉에디션": 5067,
      "크리에이티브": 5068,
      "##프린터용": 5069,
      "0CC": 5070,
      "44mm": 5071,
      "7122417": 5072,
      "85283": 5073,
      "8BITDO": 5074,
      "ASJU": 5075,
      "A3666": 5076,
      "A58A": 5077,
      "ANKER": 5078,
      "Business": 5079,
      "Class10": 5080,
      "Dual": 5081,
      "EDITION": 5082,
      "EQWEAR": 5083,
      "EYD4TR": 5084,
      "Eiger": 5085,
      "E224PSG18": 5086,
      "GIORDAN": 5087,
      "GENERALI": 5088,
      "G913": 5089,
      "HOODIE": 5090,
      "Islan": 5091,
      "K510S": 5092,
      "Lecaf": 5093,
      "LB41HC": 5094,
      "Luxe": 5095,
      "Mark": 5096,
      "Microsof": 5097,
      "N214UDW": 5098,
      "NKEY": 5099,
      "OTM": 5100,
      "Offic": 5101,
      "PRJCT": 5102,
      "Pocket": 5103,
      "Premium": 5104,
      "POWER": 5105,
      "SkinIQ": 5106,
      "Silver": 5107,
      "S43BM": 5108,
      "TPU": 5109,
      "T873": 5110,
      "Thursday": 5111,
      "T1670": 5112,
      "T218": 5113,
      "TROIS": 5114,
      "T733N": 5115,
      "Touch": 5116,
      "Underwe": 5117,
      "WOMAN": 5118,
      "YN4D91": 5119,
      "ZMC4FP1": 5120,
      "muPAD": 5121,
      "miro": 5122,
      "series": 5123,
      "각도조절": 5124,
      "갈바닉": 5125,
      "감탄브라": 5126,
      "개조프린터용": 5127,
      "고주파마": 5128,
      "고탄력": 5129,
      "광학기기": 5130,
      "깔깔이": 5131,
      "꽃무늬": 5132,
      "네스프레소": 5133,
      "네티스": 5134,
      "노래방": 5135,
      "논슬립": 5136,
      "듀플렉스": 5137,
      "디씨네트워크": 5138,
      "라도마": 5139,
      "라익미": 5140,
      "레터링": 5141,
      "르오트": 5142,
      "르투아": 5143,
      "리니어": 5144,
      "리진한복": 5145,
      "리하스": 5146,
      "리큐엠": 5147,
      "마운틴": 5148,
      "망원경": 5149,
      "메리야스": 5150,
      "면도기": 5151,
      "뮤지컬": 5152,
      "미라클": 5153,
      "미즈노": 5154,
      "벨로아": 5155,
      "부드러운": 5156,
      "뷰티디바이스": 5157,
      "빛번짐": 5158,
      "사무용": 5159,
      "상견례": 5160,
      "성해은": 5161,
      "세이브존": 5162,
      "세인트제임스": 5163,
      "소가죽": 5164,
      "숨쉬는": 5165,
      "스투시": 5166,
      "스플래툰3": 5167,
      "시스루": 5168,
      "시나모롤": 5169,
      "시놀로지": 5170,
      "신구로점": 5171,
      "쌍안경": 5172,
      "씽크웨이": 5173,
      "아라시비전": 5174,
      "아리스토우": 5175,
      "애프터샥": 5176,
      "액션캠": 5177,
      "어드벤처": 5178,
      "어니우니": 5179,
      "얼티메이트": 5180,
      "에스티나인": 5181,
      "엘르이너웨어": 5182,
      "엠비에프": 5183,
      "엠포리오": 5184,
      "여행용": 5185,
      "연예인": 5186,
      "영구제품키": 5187,
      "오아로": 5188,
      "오조이": 5189,
      "울혼방": 5190,
      "웨일즈": 5191,
      "윈드러너": 5192,
      "유무선": 5193,
      "이츠미": 5194,
      "이북리더기": 5195,
      "장마우스패드": 5196,
      "재원전자": 5197,
      "전자책": 5198,
      "전문가용": 5199,
      "제우스랩": 5200,
      "주연테크": 5201,
      "축교환": 5202,
      "카치온": 5203,
      "캐주얼": 5204,
      "캔스톤": 5205,
      "캔슬링": 5206,
      "컴플리트": 5207,
      "코드웨이": 5208,
      "콘서트": 5209,
      "쿠로미": 5210,
      "크롬캐스트": 5211,
      "클릭키": 5212,
      "테일러드": 5213,
      "텐키리스": 5214,
      "판도라b": 5215,
      "팜레스트": 5216,
      "포크5": 5217,
      "프롬마치": 5218,
      "프라이버시": 5219,
      "피부관리기": 5220,
      "피쉬테일": 5221,
      "피에스이벤처": 5222,
      "하성민기업": 5223,
      "한컴오피스": 5224,
      "한국정품": 5225,
      "해리슨": 5226,
      "해외여행": 5227,
      "헌터네이비": 5228,
      "헤지스": 5229,
      "##F16V": 5230,
      "##D컵E컵": 5231,
      "##light": 5232,
      "##pack": 5233,
      "울트라하이브리드": 5234,
      "폭스퍼트리밍": 5235,
      "PHD5TR3900": 5236,
      "1020277": 5237,
      "##TR0610FW": 5238,
      "PHD4TC29": 5239,
      "27ART10": 5240,
      "##N430HW": 5241,
      "SPPPD4VU": 5242,
      "AX2000U": 5243,
      "비비안스킨핏": 5244,
      "MIXXO": 5245,
      "플라스틱아일랜드": 5246,
      "마인크래프트": 5247,
      "CH720N": 5248,
      "RMJDD4VR": 5249,
      "RMJKD49R": 5250,
      "결혼식하객룩": 5251,
      "917241198": 5252,
      "MIWJHDV11": 5253,
      "289749": 5254,
      "BEANPOLE": 5255,
      "Student": 5256,
      "LIGHTSPEED": 5257,
      "GIORDANO": 5258,
      "GENERALIDEA": 5259,
      "Island": 5260,
      "Microsoft": 5261,
      "Office": 5262,
      "Underwear": 5263,
      "고주파마사지기": 5264,
      "세이브존02": 5265,
      "판도라by비비안": 5266,
      "피에스이벤처스": 5267,
      "헌터네이비XL": 5268
    }
  }
}