{
  "version": "1.0",
  "truncation": null,
  "padding": null,
  "added_tokens": [
    {
      "id": 0,
      "content": "<unk>",
      "single_word": false,
      "lstrip": false,
      "rstrip": false,
      "normalized": false,
      "special": true
    }
  ],
  "normalizer": {
    "type": "NFKC"
  },
  "pre_tokenizer": {
    "type": "Metaspace",
    "replacement": "▁",
    "add_prefix_space": true,
    "prepend_scheme": "always"
  },
  "post_processor": null,
  "decoder": {
    "type": "Metaspace",
    "replacement": "▁",
    "add_prefix_space": true,
    "prepend_scheme": "always"
  },
  "model": {
    "type": "BPE",
    "dropout": null,
    "unk_token": "<unk>",
    "continuing_subword_prefix": null,
    "end_of_word_suffix": null,
    "fuse_unk": false,
    "byte_fallback": false,
    "vocab": {
      "<unk>": 0,
      "\n": 1,
      "%": 2,
      "&": 3,
      "(": 4,
      ")": 5,
      "+": 6,
      ",": 7,
      "-": 8,
      ".": 9,
      "/": 10,
      "0": 11,
      "1": 12,
      "2": 13,
      "3": 14,
      "4": 15,
      "5": 16,
      "6": 17,
      "7": 18,
      "8": 19,
      "9": 20,
      ";": 21,
      "A": 22,
      "B": 23,
      "C": 24,
      "D": 25,
      "E": 26,
      "F": 27,
      "G": 28,
      "H": 29,
      "I": 30,
      "J": 31,
      "K": 32,
      "L": 33,
      "M": 34,
      "N": 35,
      "O": 36,
      "P": 37,
      "Q": 38,
      "R": 39,
      "S": 40,
      "T": 41,
      "U": 42,
      "V": 43,
      "W": 44,
      "X": 45,
      "Y": 46,
      "Z": 47,
      "[": 48,
      "]": 49,
      "a": 50,
      "b": 51,
      "c": 52,
      "d": 53,
      "e": 54,
      "f": 55,
      "g": 56,
      "h": 57,
      "i": 58,
      "k": 59,
      "l": 60,
      "m": 61,
      "n": 62,
      "o": 63,
      "p": 64,
      "r": 65,
      "s": 66,
      "t": 67,
      "u": 68,
      "v": 69,
      "w": 70,
      "x": 71,
      "y": 72,
      "z": 73,
      "▁": 74,
      "가": 75,
      "각": 76,
      "간": 77,
      "감": 78,
      "강": 79,
      "개": 80,
      "객": 81,
      "거": 82,
      "건": 83,
      "걸": 84,
      "검": 85,
      "게": 86,
      "겐": 87,
      "겨": 88,
      "격": 89,
      "견": 90,
      "결": 91,
      "겹": 92,
      "경": 93,
      "계": 94,
      "고": 95,
      "골": 96,
      "곰": 97,
      "공": 98,
      "과": 99,
      "광": 100,
      "구": 101,
      "국": 102,
      "군": 103,
      "귤": 104,
      "그": 105,
      "극": 106,
      "근": 107,
      "글": 108,
      "금": 109,
      "급": 110,
      "기": 111,
      "긴": 112,
      "길": 113,
      "김": 114,
      "깅": 115,
      "까": 116,
      "깔": 117,
      "깨": 118,
      "꺼": 119,
      "께": 120,
      "꼭": 121,
      "꼴": 122,
      "꽃": 123,
      "꽈": 124,
      "꾸": 125,
      "끄": 126,
      "끈": 127,
      "끌": 128,
      "끼": 129,
      "나": 130,
      "낚": 131,
      "난": 132,
      "날": 133,
      "남": 134,
      "낫": 135,
      "내": 136,
      "냅": 137,
      "냉": 138,
      "너": 139,
      "널": 140,
      "넓": 141,
      "네": 142,
      "넥": 143,
      "넨": 144,
      "넬": 145,
      "넷": 146,
      "녀": 147,
      "년": 148,
      "노": 149,
      "논": 150,
      "누": 151,
      "눕": 152,
      "뉴": 153,
      "는": 154,
      "능": 155,
      "늬": 156,
      "니": 157,
      "닉": 158,
      "닌": 159,
      "닐": 160,
      "님": 161,
      "닝": 162,
      "다": 163,
      "닥": 164,
      "단": 165,
      "달": 166,
      "담": 167,
      "당": 168,
      "대": 169,
      "댑": 170,
      "더": 171,
      "덕": 172,
      "던": 173,
      "덤": 174,
      "데": 175,
      "덴": 176,
      "도": 177,
      "돌": 178,
      "동": 179,
      "돼": 180,
      "두": 181,
      "둘": 182,
      "뒤": 183,
      "뒷": 184,
      "듀": 185,
      "드": 186,
      "든": 187,
      "들": 188,
      "등": 189,
      "디": 190,
      "딘": 191,
      "딜": 192,
      "딥": 193,
      "딩": 194,
      "따": 195,
      "떼": 196,
      "똥": 197,
      "뜨": 198,
      "뜸": 199,
      "뜻": 200,
      "라": 201,
      "락": 202,
      "란": 203,
      "랄": 204,
      "람": 205,
      "랍": 206,
      "랑": 207,
      "래": 208,
      "랙": 209,
      "랜": 210,
      "램": 211,
      "랩": 212,
      "랭": 213,
      "략": 214,
      "량": 215,
      "러": 216,
      "런": 217,
      "럴": 218,
      "럼": 219,
      "럽": 220,
      "렁": 221,
      "레": 222,
      "렉": 223,
      "렌": 224,
      "렙": 225,
      "렛": 226,
      "력": 227,
      "례": 228,
      "로": 229,
      "록": 230,
      "론": 231,
      "롤": 232,
      "롬": 233,
      "롭": 234,
      "롯": 235,
      "롱": 236,
      "룡": 237,
      "루": 238,
      "룩": 239,
      "룸": 240,
      "륨": 241,
      "르": 242,
      "름": 243,
      "리": 244,
      "릭": 245,
      "린": 246,
      "릴": 247,
      "림": 248,
      "립": 249,
      "릿": 250,
      "링": 251,
      "마": 252,
      "막": 253,
      "만": 254,
      "맘": 255,
      "매": 256,
      "맥": 257,
      "맨": 258,
      "머": 259,
      "먼": 260,
      "멀": 261,
      "메": 262,
      "멕": 263,
      "멜": 264,
      "면": 265,
      "명": 266,
      "모": 267,
      "목": 268,
      "몬": 269,
      "몰": 270,
      "몽": 271,
      "무": 272,
      "묶": 273,
      "문": 274,
      "물": 275,
      "뮤": 276,
      "므": 277,
      "미": 278,
      "믹": 279,
      "민": 280,
      "밀": 281,
      "밍": 282,
      "바": 283,
      "박": 284,
      "반": 285,
      "발": 286,
      "방": 287,
      "배": 288,
      "백": 289,
      "밴": 290,
      "밸": 291,
      "뱃": 292,
      "뱅": 293,
      "버": 294,
      "벅": 295,
      "번": 296,
      "베": 297,
      "벤": 298,
      "벨": 299,
      "벳": 300,
      "별": 301,
      "보": 302,
      "복": 303,
      "본": 304,
      "볼": 305,
      "봄": 306,
      "봉": 307,
      "부": 308,
      "분": 309,
      "뷔": 310,
      "브": 311,
      "븐": 312,
      "블": 313,
      "비": 314,
      "빅": 315,
      "빈": 316,
      "빔": 317,
      "뻐": 318,
      "뽀": 319,
      "뽕": 320,
      "쁜": 321,
      "삐": 322,
      "사": 323,
      "산": 324,
      "살": 325,
      "삼": 326,
      "상": 327,
      "새": 328,
      "색": 329,
      "샘": 330,
      "생": 331,
      "샤": 332,
      "샵": 333,
      "서": 334,
      "선": 335,
      "설": 336,
      "성": 337,
      "세": 338,
      "섹": 339,
      "센": 340,
      "셀": 341,
      "셉": 342,
      "셋": 343,
      "셔": 344,
      "션": 345,
      "셜": 346,
      "소": 347,
      "속": 348,
      "솔": 349,
      "솜": 350,
      "송": 351,
      "쇄": 352,
      "쇼": 353,
      "숄": 354,
      "숏": 355,
      "수": 356,
      "순": 357,
      "술": 358,
      "숨": 359,
      "숲": 360,
      "쉐": 361,
      "쉘": 362,
      "쉬": 363,
      "슈": 364,
      "슐": 365,
      "스": 366,
      "슨": 367,
      "슬": 368,
      "슴": 369,
      "시": 370,
      "식": 371,
      "신": 372,
      "실": 373,
      "심": 374,
      "싱": 375,
      "써": 376,
      "쏘": 377,
      "씨": 378,
      "아": 379,
      "안": 380,
      "알": 381,
      "앙": 382,
      "앞": 383,
      "액": 384,
      "앤": 385,
      "앵": 386,
      "야": 387,
      "얇": 388,
      "양": 389,
      "어": 390,
      "언": 391,
      "얼": 392,
      "엄": 393,
      "업": 394,
      "없": 395,
      "에": 396,
      "엑": 397,
      "엔": 398,
      "엘": 399,
      "엠": 400,
      "엣": 401,
      "여": 402,
      "역": 403,
      "연": 404,
      "열": 405,
      "영": 406,
      "옆": 407,
      "예": 408,
      "오": 409,
      "온": 410,
      "올": 411,
      "옴": 412,
      "옷": 413,
      "와": 414,
      "왕": 415,
      "외": 416,
      "요": 417,
      "욕": 418,
      "용": 419,
      "우": 420,
      "운": 421,
      "울": 422,
      "움": 423,
      "웃": 424,
      "워": 425,
      "원": 426,
      "월": 427,
      "웜": 428,
      "웨": 429,
      "웰": 430,
      "웻": 431,
      "위": 432,
      "윈": 433,
      "윌": 434,
      "윙": 435,
      "유": 436,
      "육": 437,
      "융": 438,
      "은": 439,
      "을": 440,
      "음": 441,
      "의": 442,
      "이": 443,
      "익": 444,
      "인": 445,
      "일": 446,
      "임": 447,
      "입": 448,
      "잇": 449,
      "있": 450,
      "잉": 451,
      "잎": 452,
      "자": 453,
      "작": 454,
      "잔": 455,
      "잗": 456,
      "잠": 457,
      "장": 458,
      "재": 459,
      "잭": 460,
      "쟈": 461,
      "저": 462,
      "전": 463,
      "절": 464,
      "점": 465,
      "접": 466,
      "정": 467,
      "제": 468,
      "젝": 469,
      "젠": 470,
      "젤": 471,
      "젯": 472,
      "져": 473,
      "조": 474,
      "족": 475,
      "존": 476,
      "종": 477,
      "좋": 478,
      "주": 479,
      "죽": 480,
      "준": 481,
      "줄": 482,
      "중": 483,
      "쥐": 484,
      "쥬": 485,
      "즈": 486,
      "즌": 487,
      "즘": 488,
      "지": 489,
      "직": 490,
      "진": 491,
      "질": 492,
      "짐": 493,
      "집": 494,
      "짜": 495,
      "짱": 496,
      "쫄": 497,
      "쭈": 498,
      "찌": 499,
      "찢": 500,
      "차": 501,
      "착": 502,
      "찬": 503,
      "처": 504,
      "첩": 505,
      "청": 506,
      "체": 507,
      "쳐": 508,
      "초": 509,
      "촌": 510,
      "총": 511,
      "촬": 512,
      "최": 513,
      "추": 514,
      "출": 515,
      "츄": 516,
      "츠": 517,
      "치": 518,
      "칭": 519,
      "카": 520,
      "칸": 521,
      "칼": 522,
      "캉": 523,
      "캐": 524,
      "캘": 525,
      "캡": 526,
      "커": 527,
      "컨": 528,
      "컬": 529,
      "컴": 530,
      "컵": 531,
      "컷": 532,
      "케": 533,
      "켄": 534,
      "켓": 535,
      "코": 536,
      "콘": 537,
      "콜": 538,
      "콤": 539,
      "쿠": 540,
      "쿤": 541,
      "쿨": 542,
      "퀄": 543,
      "퀘": 544,
      "퀼": 545,
      "크": 546,
      "큰": 547,
      "클": 548,
      "키": 549,
      "킨": 550,
      "킷": 551,
      "타": 552,
      "탄": 553,
      "탈": 554,
      "탑": 555,
      "탕": 556,
      "태": 557,
      "택": 558,
      "탠": 559,
      "탭": 560,
      "터": 561,
      "턱": 562,
      "턴": 563,
      "털": 564,
      "텀": 565,
      "테": 566,
      "텍": 567,
      "텐": 568,
      "텔": 569,
      "텝": 570,
      "텡": 571,
      "토": 572,
      "톤": 573,
      "톰": 574,
      "통": 575,
      "투": 576,
      "튜": 577,
      "트": 578,
      "튼": 579,
      "틀": 580,
      "티": 581,
      "틱": 582,
      "틴": 583,
      "틸": 584,
      "팅": 585,
      "파": 586,
      "판": 587,
      "팔": 588,
      "패": 589,
      "팩": 590,
      "팬": 591,
      "팽": 592,
      "퍼": 593,
      "펄": 594,
      "페": 595,
      "펙": 596,
      "펜": 597,
      "펠": 598,
      "편": 599,
      "포": 600,
      "폭": 601,
      "폰": 602,
      "폴": 603,
      "폼": 604,
      "푸": 605,
      "풀": 606,
      "품": 607,
      "퓨": 608,
      "프": 609,
      "픈": 610,
      "플": 611,
      "피": 612,
      "픽": 613,
      "핀": 614,
      "필": 615,
      "핏": 616,
      "핑": 617,
      "하": 618,
      "한": 619,
      "할": 620,
      "합": 621,
      "핫": 622,
      "항": 623,
      "해": 624,
      "핵": 625,
      "핸": 626,
      "햄": 627,
      "햅": 628,
      "행": 629,
      "향": 630,
      "허": 631,
      "헌": 632,
      "헝": 633,
      "헤": 634,
      "헬": 635,
      "헴": 636,
      "현": 637,
      "형": 638,
      "호": 639,
      "혼": 640,
      "홈": 641,
      "홑": 642,
      "화": 643,
      "회": 644,
      "획": 645,
      "후": 646,
      "휘": 647,
      "휴": 648,
      "흑": 649,
      "흥": 650,
      "희": 651,
      "흰": 652,
      "히": 653,
      "힐": 654,
      "힙": 655,
      "▁남": 656,
      "다운": 657,
      "▁여": 658,
      "23": 659,
      "▁여성": 660,
      "▁스": 661,
      "패딩": 662,
      "▁코": 663,
      "구스": 664,
      "00": 665,
      "▁남성": 666,
      "▁롱": 667,
      "▁기": 668,
      "▁구스": 669,
      "점퍼": 670,
      "0\n": 671,
      "리스": 672,
      "팬츠": 673,
      "1\n": 674,
      "▁패딩": 675,
      "이드": 676,
      "▁23": 677,
      "팬티": 678,
      "▁남자": 679,
      "▁라": 680,
      "세트": 681,
      "▁기모": 682,
      "▁점퍼": 683,
      "겨울": 684,
      "▁다운": 685,
      "▁코트": 686,
      "▁하": 687,
      "▁겨울": 688,
      "▁후": 689,
      "FW": 690,
      "▁S": 691,
      "▁트": 692,
      "레이": 693,
      "▁1": 694,
      "브라": 695,
      "자켓": 696,
      "▁23FW": 697,
      "바지": 698,
      "티드": 699,
      "▁벨": 700,
      "▁C": 701,
      "▁3": 702,
      "▁숏": 703,
      "▁구스다운": 704,
      "▁M": 705,
      "폭스": 706,
      "▁후드": 707,
      "▁벨티드": 708,
      "이즈": 709,
      "잠옷": 710,
      "D4": 711,
      "▁자켓": 712,
      "▁B": 713,
      "▁플": 714,
      "▁T": 715,
      "▁세트": 716,
      "▁가": 717,
      "▁P": 718,
      "니트": 719,
      "피스": 720,
      "▁리": 721,
      "▁에": 722,
      "▁폭스": 723,
      "웨어": 724,
      "▁A": 725,
      "▁폴": 726,
      "카라": 727,
      "02": 728,
      "사이즈": 729,
      "▁N": 730,
      "▁지": 731,
      "원피스": 732,
      "▁나": 733,
      "▁브라": 734,
      "▁빅": 735,
      "핸드": 736,
      "C4": 737,
      "▁2": 738,
      "▁크": 739,
      "▁더": 740,
      "▁팬츠": 741,
      "▁핸드": 742,
      "메이드": 743,
      "속옷": 744,
      "코트": 745,
      "234": 746,
      "5\n": 747,
      "▁빅사이즈": 748,
      "01": 749,
      "▁니트": 750,
      "와이드": 751,
      "▁핸드메이드": 752,
      "▁5": 753,
      "▁오": 754,
      "▁파": 755,
      "공용": 756,
      "셔츠": 757,
      "SG": 758,
      "▁반": 759,
      "▁울": 760,
      "▁원피스": 761,
      "3\n": 762,
      "41": 763,
      "JP": 764,
      "▁드": 765,
      "▁캐": 766,
      "스트": 767,
      "▁폭스퍼": 768,
      "▁모": 769,
      "▁블": 770,
      "▁수": 771,
      "▁프": 772,
      "라인": 773,
      "▁폴햄": 774,
      "▁무": 775,
      "▁아": 776,
      "▁조": 777,
      "▁퍼": 778,
      "▁나이": 779,
      "91": 780,
      "▁베": 781,
      "맨투": 782,
      "맨투맨": 783,
      "▁L": 784,
      "▁노": 785,
      "▁커": 786,
      "▁지오": 787,
      "▁Z": 788,
      "▁면": 789,
      "▁슬": 790,
      "자마": 791,
      "퀼팅": 792,
      "▁시": 793,
      "▁푸": 794,
      "▁와이드": 795,
      "▁하이": 796,
      "WH": 797,
      "▁G": 798,
      "종\n": 799,
      "▁여자": 800,
      "▁캐시": 801,
      "2\n": 802,
      "4\n": 803,
      "53": 804,
      "71": 805,
      "▁E": 806,
      "▁팬티": 807,
      "▁맨투맨": 808,
      "경량": 809,
      "디건": 810,
      "로이": 811,
      "▁PH": 812,
      "▁나이키": 813,
      "▁보": 814,
      "▁심": 815,
      "▁케": 816,
      "▁경량": 817,
      "리브": 818,
      "미어": 819,
      "▁가디건": 820,
      "▁파자마": 821,
      "▁수면": 822,
      "로즈": 823,
      "올리브": 824,
      "▁더블": 825,
      "▁커플": 826,
      "▁캐시미어": 827,
      "▁속옷": 828,
      "듀로이": 829,
      "집업": 830,
      "▁심리스": 831,
      "13": 832,
      "CT": 833,
      "▁카라": 834,
      "▁라운": 835,
      "레이닝": 836,
      "▁플리스": 837,
      "▁조거": 838,
      "6\n": 839,
      "▁덕": 840,
      "▁세": 841,
      "스테": 842,
      "▁스트": 843,
      "▁코듀로이": 844,
      "▁드로즈": 845,
      "▁케이": 846,
      "▁데": 847,
      "▁사": 848,
      "▁티": 849,
      "▁퀼팅": 850,
      "코스테": 851,
      "리스트": 852,
      "▁라코스테": 853,
      "01\n": 854,
      "22": 855,
      "99": 856,
      "▁F": 857,
      "▁미": 858,
      "▁리스트": 859,
      "▁라운드": 860,
      "PSG": 861,
      "▁내": 862,
      "▁카": 863,
      "▁탑": 864,
      "▁풀": 865,
      "▁잠옷": 866,
      "▁반팔": 867,
      "▁탑텐": 868,
      "▁J": 869,
      "▁긴": 870,
      "▁이": 871,
      "게스": 872,
      "밴딩": 873,
      "포츠": 874,
      "▁트레이닝": 875,
      "▁티셔츠": 876,
      "▁언": 877,
      "▁공용": 878,
      "버튼": 879,
      "와이": 880,
      "▁세트\n": 881,
      "▁베이": 882,
      "▁덕다운": 883,
      "11": 884,
      "39": 885,
      "8\n": 886,
      "OP": 887,
      "▁D": 888,
      "▁루": 889,
      "▁게스": 890,
      "기모": 891,
      "다노": 892,
      "▁스포츠": 893,
      "▁MS": 894,
      "▁크롭": 895,
      "234PSG": 896,
      "▁지오다노": 897,
      "▁푸퍼": 898,
      "▁하이넥": 899,
      "▁PHD4": 900,
      "▁케이블": 901,
      "21": 902,
      "25": 903,
      "AN": 904,
      "▁7": 905,
      "▁씨": 906,
      "▁홈": 907,
      "▁바지": 908,
      "위드": 909,
      "▁남녀": 910,
      "▁노와이": 911,
      "▁ZO": 912,
      "▁노와이어": 913,
      "20": 914,
      "7\n": 915,
      "in": 916,
      "▁4": 917,
      "▁로": 918,
      "▁브": 919,
      "▁클": 920,
      "버핏": 921,
      "00\n": 922,
      "02\n": 923,
      "▁슬림": 924,
      "▁베이직": 925,
      "▁H": 926,
      "▁마": 927,
      "▁비": 928,
      "▁칼": 929,
      "▁테": 930,
      "▁헤": 931,
      "▁밴딩": 932,
      "디션": 933,
      "라이": 934,
      "렉트": 935,
      "바이": 936,
      "콜렉트": 937,
      "▁하프": 938,
      "▁트위드": 939,
      "▁숏패딩": 940,
      "▁오버핏": 941,
      "WHCT": 942,
      "▁EP": 943,
      "▁조거팬츠": 944,
      "▁세미": 945,
      "▁긴팔": 946,
      "▁언더": 947,
      "▁남녀공용": 948,
      "03": 949,
      "PP": 950,
      "▁V": 951,
      "▁[": 952,
      "▁누": 953,
      "▁디": 954,
      "▁부": 955,
      "▁쉬": 956,
      "▁양": 957,
      "▁정": 958,
      "▁피": 959,
      "이아": 960,
      "지아": 961,
      "청바지": 962,
      "편한": 963,
      "▁가을": 964,
      "▁리바이": 965,
      "▁리바이스": 966,
      "C3": 967,
      "▁8": 968,
      "▁W": 969,
      "▁국": 970,
      "▁싱": 971,
      "▁온": 972,
      "▁히": 973,
      "▁올리브": 974,
      "미스": 975,
      "밍크": 976,
      "씨콜렉트": 977,
      "커트": 978,
      "레이트": 979,
      "▁리버": 980,
      "53N": 981,
      "▁데님": 982,
      "▁루즈": 983,
      "▁씨씨콜렉트": 984,
      "▁홈웨어": 985,
      "▁싱글": 986,
      "04": 987,
      "26": 988,
      "29": 989,
      "E-": 990,
      "▁I": 991,
      "▁골": 992,
      "▁상": 993,
      "▁순": 994,
      "▁워": 995,
      "▁일": 996,
      "▁재": 997,
      "▁제": 998,
      "▁집업": 999,
      "▁편한": 1000,
      "랙스": 1001,
      "비안": 1002,
      "시블": 1003,
      "앤온": 1004,
      "즈미스": 1005,
      "컬러": 1006,
      "▁NE": 1007,
      "▁블랙": 1008,
      "▁지오지아": 1009,
      "▁쉬즈미스": 1010,
      "▁온앤온": 1011,
      "▁리버시블": 1012,
      "03\n": 1013,
      "19": 1014,
      "OR": 1015,
      "TR": 1016,
      "▁K": 1017,
      "▁O": 1018,
      "▁R": 1019,
      "▁레": 1020,
      "▁맥": 1021,
      "▁실": 1022,
      "▁야": 1023,
      "▁캘": 1024,
      "▁타": 1025,
      "▁패": 1026,
      "▁밍크": 1027,
      "그래": 1028,
      "랜드": 1029,
      "빈클": 1030,
      "셋업": 1031,
      "오버": 1032,
      "이트": 1033,
      "▁스판": 1034,
      "▁남자팬티": 1035,
      "▁에어": 1036,
      "▁모달": 1037,
      "▁무지": 1038,
      "▁스트레이트": 1039,
      "▁풀오버": 1040,
      "▁MSC4": 1041,
      "▁칼라": 1042,
      "E-53N": 1043,
      "▁순면": 1044,
      "▁재킷": 1045,
      "▁캘빈클": 1046,
      "그래픽": 1047,
      "▁캘빈클라인": 1048,
      "-00": 1049,
      "05": 1050,
      "100": 1051,
      "58": 1052,
      "MD": 1053,
      "OL": 1054,
      "▁뉴": 1055,
      "▁발": 1056,
      "▁방": 1057,
      "▁빈": 1058,
      "▁청바지": 1059,
      "기장": 1060,
      "데올리브": 1061,
      "레어": 1062,
      "올젠": 1063,
      "▁스커트": 1064,
      "▁코튼": 1065,
      "▁SA": 1066,
      "▁3종": 1067,
      "▁프로": 1068,
      "▁프리": 1069,
      "▁올리브데올리브": 1070,
      "10\n": 1071,
      "24": 1072,
      "3W": 1073,
      "EN": 1074,
      "ER": 1075,
      "M8": 1076,
      "MSG": 1077,
      "N4": 1078,
      "OC": 1079,
      "al": 1080,
      "an": 1081,
      "▁(": 1082,
      "▁6": 1083,
      "▁Y": 1084,
      "▁극": 1085,
      "▁도": 1086,
      "▁듀": 1087,
      "▁써": 1088,
      "▁알": 1089,
      "▁포": 1090,
      "▁올젠": 1091,
      "렌치": 1092,
      "리닝": 1093,
      "봉제": 1094,
      "세사": 1095,
      "일랜드": 1096,
      "젝트": 1097,
      "지오": 1098,
      "▁스웨": 1099,
      "구스다운": 1100,
      "▁하객": 1101,
      "레이디": 1102,
      "▁무봉제": 1103,
      "▁수면잠옷": 1104,
      "▁ZOOC": 1105,
      "▁비비안": 1106,
      "▁언더웨어": 1107,
      "▁정장": 1108,
      "▁피치": 1109,
      "▁야상": 1110,
      "▁빈폴": 1111,
      "▁프로젝트": 1112,
      "▁극세사": 1113,
      "33": 1114,
      "36": 1115,
      "3X": 1116,
      "50": 1117,
      "9\n": 1118,
      "BD": 1119,
      "DW": 1120,
      "FP": 1121,
      "JK": 1122,
      "er": 1123,
      "or": 1124,
      "▁다": 1125,
      "▁르": 1126,
      "▁중": 1127,
      "▁진": 1128,
      "▁71": 1129,
      "▁버튼": 1130,
      "능성": 1131,
      "스탕": 1132,
      "츄리닝": 1133,
      "터틀": 1134,
      "후드": 1135,
      "▁기능성": 1136,
      "▁에코": 1137,
      "▁이너": 1138,
      "▁슬림핏": 1139,
      "▁일자": 1140,
      "▁듀엘": 1141,
      "터틀넥": 1142,
      "20\n": 1143,
      "30": 1144,
      "34": 1145,
      "38": 1146,
      "3WH": 1147,
      "MA": 1148,
      "N8": 1149,
      "PD": 1150,
      "TC": 1151,
      "le": 1152,
      "▁랄": 1153,
      "▁메": 1154,
      "▁바": 1155,
      "▁인": 1156,
      "▁자": 1157,
      "▁체": 1158,
      "▁핏": 1159,
      "▁00": 1160,
      "▁레이": 1161,
      "▁셋업": 1162,
      "▁츄리닝": 1163,
      "▁터틀넥": 1164,
      "고이": 1165,
      "널지오": 1166,
      "래스": 1167,
      "루넥": 1168,
      "셔널지오": 1169,
      "슬리": 1170,
      "우터": 1171,
      "웨스트": 1172,
      "한복": 1173,
      "▁기본": 1174,
      "세트\n": 1175,
      "▁CK": 1176,
      "▁3종\n": 1177,
      "▁TWHCT": 1178,
      "▁에고이": 1179,
      "▁브라렛": 1180,
      "▁브라탑": 1181,
      "▁크루넥": 1182,
      "234MSG": 1183,
      "417": 1184,
      "▁블루": 1185,
      "▁슬랙스": 1186,
      "▁시슬리": 1187,
      "▁푸마": 1188,
      "▁보브": 1189,
      "▁사각": 1190,
      "▁미디": 1191,
      "▁내셔널지오": 1192,
      "▁EP4": 1193,
      "▁누빔": 1194,
      "▁루즈핏": 1195,
      "▁발열": 1196,
      "▁알래스": 1197,
      "▁피치기모": 1198,
      "▁프로젝트엠": 1199,
      "▁랄프": 1200,
      "▁에고이스트": 1201,
      "▁내셔널지오그래픽": 1202,
      "▁알래스카": 1203,
      "04\n": 1204,
      "18": 1205,
      "27": 1206,
      "37": 1207,
      "51": 1208,
      "CK": 1209,
      "GAN": 1210,
      "TD": 1211,
      "UP": 1212,
      "YC": 1213,
      "▁신": 1214,
      "▁키": 1215,
      "▁투": 1216,
      "▁91": 1217,
      "그니": 1218,
      "데이아": 1219,
      "디오": 1220,
      "미엄": 1221,
      "배기": 1222,
      "보이": 1223,
      "스데이아": 1224,
      "아이": 1225,
      "이너": 1226,
      "이퍼": 1227,
      "튜디오": 1228,
      "폴라": 1229,
      "▁롱패딩": 1230,
      "▁후디": 1231,
      "▁후드티": 1232,
      "▁BF": 1233,
      "▁BYC": 1234,
      "▁TW": 1235,
      "▁에디션": 1236,
      "▁AH": 1237,
      "▁폴로": 1238,
      "▁팬츠\n": 1239,
      "▁오리": 1240,
      "▁무스탕": 1241,
      "▁아우터": 1242,
      "▁LE": 1243,
      "▁라운드넥": 1244,
      "▁테이퍼": 1245,
      "▁양모": 1246,
      "▁국산": 1247,
      "▁프리미엄": 1248,
      "▁써스데이아": 1249,
      "▁EP4TD": 1250,
      "▁테이퍼드": 1251,
      "▁써스데이아일랜드": 1252,
      "07": 1253,
      "05\n": 1254,
      "06\n": 1255,
      "15": 1256,
      "16": 1257,
      "61\n": 1258,
      "A\n": 1259,
      "GP": 1260,
      "UD": 1261,
      "W\n": 1262,
      "ab": 1263,
      "ol": 1264,
      "vin": 1265,
      "▁9": 1266,
      "▁고": 1267,
      "▁단": 1268,
      "▁런": 1269,
      "▁목": 1270,
      "▁버": 1271,
      "▁선": 1272,
      "▁요": 1273,
      "▁유": 1274,
      "▁잇": 1275,
      "▁텐": 1276,
      "▁펠": 1277,
      "▁셔츠": 1278,
      "다스": 1279,
      "디다스": 1280,
      "로렌": 1281,
      "르간": 1282,
      "미샤": 1283,
      "엄마": 1284,
      "엣지": 1285,
      "톰보이": 1286,
      "틱스": 1287,
      "포트": 1288,
      "▁여성팬티": 1289,
      "▁스파": 1290,
      "▁롱다운": 1291,
      "▁점퍼\n": 1292,
      "▁코트\n": 1293,
      "▁SO": 1294,
      "▁SP": 1295,
      "▁SWHCT": 1296,
      "▁트렌치": 1297,
      "▁15": 1298,
      "▁Cal": 1299,
      "▁MOR": 1300,
      "▁자켓\n": 1301,
      "▁플레어": 1302,
      "C4FP": 1303,
      "▁더엣지": 1304,
      "▁모르간": 1305,
      "▁조끼": 1306,
      "▁노라인": 1307,
      "▁시그니": 1308,
      "▁하이웨스트": 1309,
      "▁PHC4": 1310,
      "▁커플잠옷": 1311,
      "▁속옷\n": 1312,
      "▁사가": 1313,
      "224": 1314,
      "▁트레이닝복": 1315,
      "▁스포츠웨어": 1316,
      "▁클럽": 1317,
      "▁헤비": 1318,
      "▁부클": 1319,
      "▁히트": 1320,
      "▁IT": 1321,
      "▁워크": 1322,
      "▁Kle": 1323,
      "▁체크": 1324,
      "▁랄프로렌": 1325,
      "▁잇미샤": 1326,
      "▁펠틱스": 1327,
      "▁Calvin": 1328,
      "▁MORGAN": 1329,
      "▁Klein": 1330,
      "+1": 1331,
      "30\n": 1332,
      "46": 1333,
      "54": 1334,
      "98": 1335,
      "AT": 1336,
      "DV": 1337,
      "F\n": 1338,
      "IN": 1339,
      "JD": 1340,
      "LA": 1341,
      "MB": 1342,
      "PT": 1343,
      "WOP": 1344,
      "W3WH": 1345,
      "col": 1346,
      "ean": 1347,
      "▁결": 1348,
      "▁꽈": 1349,
      "▁네": 1350,
      "▁돌": 1351,
      "▁봄": 1352,
      "▁셀": 1353,
      "▁소": 1354,
      "▁윈": 1355,
      "거펠": 1356,
      "내복": 1357,
      "다일": 1358,
      "데즈": 1359,
      "라우": 1360,
      "라워": 1361,
      "로커": 1362,
      "리밍": 1363,
      "매장": 1364,
      "바인": 1365,
      "버리": 1366,
      "볼륨": 1367,
      "센셜": 1368,
      "스킨": 1369,
      "우시": 1370,
      "이넥": 1371,
      "일리": 1372,
      "작녀": 1373,
      "전\n": 1374,
      "츠컷": 1375,
      "컴바인": 1376,
      "티\n": 1377,
      "▁스튜디오": 1378,
      "▁코데즈": 1379,
      "00원": 1380,
      "▁롱코트": 1381,
      "▁SZ": 1382,
      "바지\n": 1383,
      "▁C234MSG": 1384,
      "▁37": 1385,
      "▁숏다운": 1386,
      "▁MI": 1387,
      "▁플리": 1388,
      "▁TR": 1389,
      "▁T23": 1390,
      "▁AE": 1391,
      "▁지컷": 1392,
      "▁크로커": 1393,
      "▁반집업": 1394,
      "▁드라이": 1395,
      "▁아웃": 1396,
      "▁L234PSG": 1397,
      "▁GN": 1398,
      "▁GGP": 1399,
      "▁내복": 1400,
      "▁카고": 1401,
      "▁반팔티": 1402,
      "▁Jean": 1403,
      "▁PHD4JP": 1404,
      "▁브이넥": 1405,
      "▁EPD4": 1406,
      "▁세미와이드": 1407,
      "▁국내": 1408,
      "▁히든": 1409,
      "컬러\n": 1410,
      "▁실크": 1411,
      "▁칼라거펠": 1412,
      "N4W": 1413,
      "▁포켓": 1414,
      "▁중기장": 1415,
      "▁키작녀": 1416,
      "이너웨어": 1417,
      "▁오리지": 1418,
      "▁LE1": 1419,
      "▁선물": 1420,
      "▁유니": 1421,
      "▁스파오": 1422,
      "▁SOUP": 1423,
      "▁결혼": 1424,
      "▁꽈배기": 1425,
      "매장판": 1426,
      "▁코데즈컴바인": 1427,
      "▁크로커다일": 1428,
      "▁GGPX": 1429,
      "▁Jeans": 1430,
      "08": 1431,
      "08\n": 1432,
      "07\n": 1433,
      "14": 1434,
      "11\n": 1435,
      "28": 1436,
      "202": 1437,
      "291": 1438,
      "253": 1439,
      "3N": 1440,
      "40\n": 1441,
      "56": 1442,
      "50\n": 1443,
      "74": 1444,
      "70\n": 1445,
      "AM": 1446,
      "AU": 1447,
      "B4": 1448,
      "CM": 1449,
      "E\n": 1450,
      "JU": 1451,
      "M4": 1452,
      "MI": 1453,
      "M41": 1454,
      "OV": 1455,
      "at": 1456,
      "▁U": 1457,
      "▁걸": 1458,
      "▁따": 1459,
      "▁몽": 1460,
      "▁본": 1461,
      "▁성": 1462,
      "▁어": 1463,
      "▁웨": 1464,
      "▁주": 1465,
      "▁치": 1466,
      "▁컴": 1467,
      "▁쿨": 1468,
      "▁페": 1469,
      "▁해": 1470,
      "▁햄": 1471,
      "▁혼": 1472,
      "▁흰": 1473,
      "▁엄마": 1474,
      "▁볼륨": 1475,
      "당일": 1476,
      "렁크": 1477,
      "레치": 1478,
      "렌드": 1479,
      "렙샵": 1480,
      "만원": 1481,
      "미힐": 1482,
      "부착": 1483,
      "스클": 1484,
      "어드": 1485,
      "에디션": 1486,
      "음전\n": 1487,
      "탈부착": 1488,
      "피거": 1489,
      "화이트": 1490,
      "▁여름": 1491,
      "▁여성\n": 1492,
      "▁스킨": 1493,
      "▁스우시": 1494,
      "▁패딩점퍼": 1495,
      "▁라이트": 1496,
      "▁하의": 1497,
      "▁1종\n": 1498,
      "▁CC": 1499,
      "▁BH": 1500,
      "▁TO": 1501,
      "▁에센셜": 1502,
      "▁폴라": 1503,
      "▁나시": 1504,
      "▁브라팬티": 1505,
      "▁2종\n": 1506,
      "▁빅사이즈\n": 1507,
      "010\n": 1508,
      "▁53N": 1509,
      "SGJP": 1510,
      "▁원피스\n": 1511,
      "▁모음전\n": 1512,
      "▁아디다스": 1513,
      "▁나이스클": 1514,
      "▁베스트": 1515,
      "▁GMD": 1516,
      "▁파자마\n": 1517,
      "▁스트레치": 1518,
      "▁데일리": 1519,
      "▁FAU": 1520,
      "▁내의": 1521,
      "▁MSD4": 1522,
      "▁4종\n": 1523,
      "▁로엠": 1524,
      "031\n": 1525,
      "▁WB": 1526,
      "045": 1527,
      "▁골덴": 1528,
      "▁NEW": 1529,
      "▁RM": 1530,
      "▁맥시": 1531,
      "▁타미힐": 1532,
      "E-53N\n": 1533,
      "▁방모": 1534,
      "▁도톰": 1535,
      "▁스웨트": 1536,
      "BDU": 1537,
      "▁다이아": 1538,
      "▁TWHCTM8": 1539,
      "41700": 1540,
      "▁블루종": 1541,
      "▁EP4TD00": 1542,
      "▁런닝": 1543,
      "▁텐셀": 1544,
      "color": 1545,
      "▁셀렙샵": 1546,
      "▁스튜디오톰보이": 1547,
      "▁플리츠": 1548,
      "▁오리지널": 1549,
      "▁LE121": 1550,
      "▁결혼식": 1551,
      "▁본딩": 1552,
      "▁나이스클랍": 1553,
      "▁FAUX": 1554,
      "▁타미힐피거": 1555,
      "10": 1556,
      "241": 1557,
      "22\n": 1558,
      "33\n": 1559,
      "55": 1560,
      "76": 1561,
      "93": 1562,
      "90\n": 1563,
      "AR": 1564,
      "H\n": 1565,
      "IO": 1566,
      "IT": 1567,
      "JJ": 1568,
      "LB": 1569,
      "MK": 1570,
      "TEN": 1571,
      "WD": 1572,
      "XL": 1573,
      "ar": 1574,
      "es": 1575,
      "ur": 1576,
      "▁등": 1577,
      "▁박": 1578,
      "▁백": 1579,
      "▁쉘": 1580,
      "▁운": 1581,
      "▁원": 1582,
      "▁헬": 1583,
      "▁WH": 1584,
      "▁화이트": 1585,
      "▁031\n": 1586,
      "가슴": 1587,
      "가지": 1588,
      "국내": 1589,
      "까프": 1590,
      "내의": 1591,
      "너럴": 1592,
      "디어": 1593,
      "래식": 1594,
      "러피": 1595,
      "런스": 1596,
      "레스": 1597,
      "로스트": 1598,
      "링본": 1599,
      "먼스": 1600,
      "밸런스": 1601,
      "소매": 1602,
      "쇼핑": 1603,
      "슬랙스": 1604,
      "신상": 1605,
      "아유": 1606,
      "안감": 1607,
      "없는": 1608,
      "이브": 1609,
      "인트": 1610,
      "잔치": 1611,
      "지\n": 1612,
      "추가": 1613,
      "클럽": 1614,
      "키즈": 1615,
      "토어": 1616,
      "트레이닝": 1617,
      "티브": 1618,
      "펜터": 1619,
      "포켓": 1620,
      "포먼스": 1621,
      "플리스": 1622,
      "하트": 1623,
      "▁여성용": 1624,
      "▁스탠": 1625,
      "패딩점퍼": 1626,
      "▁남성\n": 1627,
      "팬티\n": 1628,
      "▁라인": 1629,
      "▁다운\n": 1630,
      "▁겨울잠옷": 1631,
      "▁후아유": 1632,
      "▁ST": 1633,
      "▁트라이": 1634,
      "▁트렁크": 1635,
      "▁1종": 1636,
      "▁1+1": 1637,
      "▁구스다운\n": 1638,
      "D4V": 1639,
      "▁BA": 1640,
      "▁BV": 1641,
      "▁BC3": 1642,
      "▁플러피": 1643,
      "▁TOP": 1644,
      "▁리얼": 1645,
      "▁AA": 1646,
      "▁A라인": 1647,
      "▁NJ": 1648,
      "▁브라\n": 1649,
      "C4PP": 1650,
      "코트\n": 1651,
      "2341": 1652,
      "011": 1653,
      "▁니트\n": 1654,
      "▁핸드메이드코트": 1655,
      "▁5매": 1656,
      "▁5종": 1657,
      "4171": 1658,
      "▁블렌드": 1659,
      "▁LA": 1660,
      "▁노카라": 1661,
      "▁Z234PSG": 1662,
      "▁보정": 1663,
      "▁경량패딩": 1664,
      "▁케이프": 1665,
      "▁카키": 1666,
      "▁카펜터": 1667,
      "▁스포츠브라": 1668,
      "▁7253": 1669,
      "▁로고": 1670,
      "▁클래식": 1671,
      "▁마이": 1672,
      "▁헤링본": 1673,
      "▁VOV": 1674,
      "▁디키즈": 1675,
      "▁부츠컷": 1676,
      "▁골지": 1677,
      "▁상의": 1678,
      "▁제너럴": 1679,
      "▁NEP": 1680,
      "▁패드": 1681,
      "584": 1682,
      "▁스커트\n": 1683,
      "▁SAPD": 1684,
      "▁스웨터": 1685,
      "▁7153": 1686,
      "▁인견": 1687,
      "▁레이스": 1688,
      "▁레이어드": 1689,
      "▁발열내의": 1690,
      "▁917": 1691,
      "아이디어": 1692,
      "▁TWW": 1693,
      "▁PHC4JP": 1694,
      "▁워크팬츠": 1695,
      "▁돌잔치": 1696,
      "▁윈터": 1697,
      "▁MIW": 1698,
      "▁TRY": 1699,
      "▁T238": 1700,
      "▁국내매장판": 1701,
      "▁코데즈컴바인이너웨어": 1702,
      "▁크로커다일레이디": 1703,
      "▁따뜻": 1704,
      "▁치노": 1705,
      "▁GMDBDU": 1706,
      "▁운동": 1707,
      "▁TOPTEN": 1708,
      "▁제너럴아이디어": 1709,
      ")\n": 1710,
      "06": 1711,
      "200": 1712,
      "271": 1713,
      "31": 1714,
      "45": 1715,
      "68": 1716,
      "60\n": 1717,
      "79": 1718,
      "71\n": 1719,
      "82": 1720,
      "90": 1721,
      "B\n": 1722,
      "BK": 1723,
      "DE": 1724,
      "DS": 1725,
      "DJP": 1726,
      "D91": 1727,
      "ES": 1728,
      "HL": 1729,
      "IS": 1730,
      "J지": 1731,
      "KH\n": 1732,
      "L045": 1733,
      "NE": 1734,
      "OD": 1735,
      "OY": 1736,
      "SK": 1737,
      "SDJP": 1738,
      "TS": 1739,
      "TC3": 1740,
      "WDW": 1741,
      "ig": 1742,
      "is": 1743,
      "tor": 1744,
      "▁c": 1745,
      "▁s": 1746,
      "▁공": 1747,
      "▁군": 1748,
      "▁대": 1749,
      "▁덤": 1750,
      "▁배": 1751,
      "▁뱅": 1752,
      "▁벤": 1753,
      "▁쉐": 1754,
      "▁슈": 1755,
      "▁앤": 1756,
      "▁예": 1757,
      "▁위": 1758,
      "▁전": 1759,
      "▁쥬": 1760,
      "▁차": 1761,
      "▁초": 1762,
      "▁컬": 1763,
      "▁콜": 1764,
      "▁큰": 1765,
      "▁허": 1766,
      "▁헝": 1767,
      "▁그래픽": 1768,
      "▁ab": 1769,
      "▁탈부착": 1770,
      "가리": 1771,
      "고]": 1772,
      "고트": 1773,
      "노락": 1774,
      "대여": 1775,
      "덕다운": 1776,
      "데님": 1777,
      "드러": 1778,
      "드지": 1779,
      "렉스": 1780,
      "롱패딩": 1781,
      "리오": 1782,
      "브릿": 1783,
      "서포트": 1784,
      "셔블": 1785,
      "스\n": 1786,
      "스판": 1787,
      "엑스": 1788,
      "이비": 1789,
      "이플": 1790,
      "일러": 1791,
      "제작": 1792,
      "체제작": 1793,
      "캉스": 1794,
      "텍스": 1795,
      "파리": 1796,
      "파자마": 1797,
      "폴로": 1798,
      "2361\n": 1799,
      "▁스타": 1800,
      "▁스테": 1801,
      "001": 1802,
      "▁트랙": 1803,
      "▁트리밍": 1804,
      "▁10": 1805,
      "▁137": 1806,
      "▁MA": 1807,
      "▁후드집업": 1808,
      "D49": 1809,
      "D4TR": 1810,
      "▁BC": 1811,
      "니트\n": 1812,
      "▁리오": 1813,
      "▁A234": 1814,
      "▁NJP": 1815,
      "▁나일": 1816,
      "▁20": 1817,
      "▁2종": 1818,
      "속옷\n": 1819,
      "▁반목": 1820,
      "▁드레스": 1821,
      "▁모직": 1822,
      "▁프렌치": 1823,
      "▁아노락": 1824,
      "▁퍼포먼스": 1825,
      "▁커버": 1826,
      "▁면팬티": 1827,
      "▁슬립": 1828,
      "▁와이드팬츠": 1829,
      "▁심리스브라": 1830,
      "130\n": 1831,
      "99\n": 1832,
      "9900원": 1833,
      "▁FB": 1834,
      "▁미쏘": 1835,
      "▁탑텐밸런스": 1836,
      "▁JJ지": 1837,
      "▁DD": 1838,
      "▁푸퍼\n": 1839,
      "▁PHD4TR": 1840,
      "▁PHD4PT": 1841,
      "252": 1842,
      "2510\n": 1843,
      "▁77": 1844,
      "▁바지\n": 1845,
      "▁브러": 1846,
      "▁클라우": 1847,
      "▁마인": 1848,
      "▁테리": 1849,
      "▁하프코트": 1850,
      "▁긴팔티": 1851,
      "▁디테": 1852,
      "▁양털": 1853,
      "▁정품": 1854,
      "▁88": 1855,
      "▁데님팬츠": 1856,
      "▁홈웨어\n": 1857,
      "▁상하": 1858,
      "▁워셔블": 1859,
      "▁제로스트": 1860,
      "▁RDS": 1861,
      "▁실내복": 1862,
      "▁타이즈": 1863,
      "▁밍크퍼": 1864,
      "▁에어로": 1865,
      "▁에어리": 1866,
      "▁MSC4TC": 1867,
      "-001\n": 1868,
      "MDJ": 1869,
      "▁방한": 1870,
      "▁YN4W": 1871,
      "▁하객룩": 1872,
      "레이디스": 1873,
      "▁빈폴레이디스": 1874,
      "▁르까프": 1875,
      "30C": 1876,
      "38C": 1877,
      "▁자수": 1878,
      "▁자체제작": 1879,
      "▁000": 1880,
      "한복대여": 1881,
      "▁TWHCTN8": 1882,
      "▁신혼": 1883,
      "▁투피스": 1884,
      "▁AH46": 1885,
      "▁양모100": 1886,
      "UDIO": 1887,
      "▁요일": 1888,
      "C4FP13": 1889,
      "▁시그니처": 1890,
      "▁시그니쳐": 1891,
      "▁사가폭스": 1892,
      "▁히트텍": 1893,
      "▁ITN": 1894,
      "MBOY": 1895,
      "WOPMK": 1896,
      "▁3739": 1897,
      "▁드라이핏": 1898,
      "▁칼라거펠트": 1899,
      "▁몽클": 1900,
      "▁성인": 1901,
      "▁컴포트": 1902,
      "▁햄라인": 1903,
      "당일출": 1904,
      "▁TOMBOY": 1905,
      "▁스웨트셔츠": 1906,
      "▁박서": 1907,
      "▁쉘파": 1908,
      "▁STUDIO": 1909,
      "▁BC3X": 1910,
      "▁72534171": 1911,
      "▁715341700": 1912,
      "▁따뜻한": 1913,
      "istor": 1914,
      "▁뱅뱅": 1915,
      "▁슈퍼": 1916,
      "▁앤드지": 1917,
      "▁위생": 1918,
      "▁헝가리": 1919,
      "▁NJP3W": 1920,
      "▁JJ지고트": 1921,
      "▁클라우드": 1922,
      "▁제로스트릿": 1923,
      "▁AH460": 1924,
      "istore": 1925,
      "-C": 1926,
      "-01": 1927,
      "0C": 1928,
      "15\n": 1929,
      "191": 1930,
      "2color": 1931,
      "301": 1932,
      "341": 1933,
      "32\n": 1934,
      "44\n": 1935,
      "501": 1936,
      "69": 1937,
      "6-00": 1938,
      "78": 1939,
      "77\n": 1940,
      "80\n": 1941,
      "91\n": 1942,
      "93\n": 1943,
      "9-00": 1944,
      "A4": 1945,
      "AJU": 1946,
      "B41": 1947,
      "C\n": 1948,
      "CH": 1949,
      "CP": 1950,
      "D5": 1951,
      "DJ": 1952,
      "ET": 1953,
      "EU": 1954,
      "EAT": 1955,
      "HC": 1956,
      "HD": 1957,
      "HAM": 1958,
      "JH": 1959,
      "MOP": 1960,
      "NG": 1961,
      "NI": 1962,
      "P4": 1963,
      "PWD": 1964,
      "R\n": 1965,
      "RL": 1966,
      "SH": 1967,
      "SY": 1968,
      "T\n": 1969,
      "U\n": 1970,
      "UI": 1971,
      "UR": 1972,
      "UDW": 1973,
      "ac": 1974,
      "by": 1975,
      "histore": 1976,
      "on": 1977,
      "ot": 1978,
      "ow": 1979,
      "we": 1980,
      "▁-": 1981,
      "▁간": 1982,
      "▁금": 1983,
      "▁김": 1984,
      "▁끈": 1985,
      "▁논": 1986,
      "▁동": 1987,
      "▁란": 1988,
      "▁샤": 1989,
      "▁셔": 1990,
      "▁솔": 1991,
      "▁쇼": 1992,
      "▁숨": 1993,
      "▁엘": 1994,
      "▁엠": 1995,
      "▁연": 1996,
      "▁외": 1997,
      "▁우": 1998,
      "▁임": 1999,
      "▁장": 2000,
      "▁잭": 2001,
      "▁짱": 2002,
      "▁착": 2003,
      "▁처": 2004,
      "▁콤": 2005,
      "▁쿠": 2006,
      "▁토": 2007,
      "▁튜": 2008,
      "▁펄": 2009,
      "▁핑": 2010,
      "▁항": 2011,
      "▁헌": 2012,
      "▁휴": 2013,
      "▁02": 2014,
      "▁사이즈": 2015,
      "▁99": 2016,
      "▁OP": 2017,
      "▁07": 2018,
      "▁histore": 2019,
      "계절": 2020,
      "골덴": 2021,
      "공점퍼": 2022,
      "귤러": 2023,
      "그레이": 2024,
      "글런": 2025,
      "깅스": 2026,
      "너스": 2027,
      "네스": 2028,
      "네통": 2029,
      "더웨어": 2030,
      "데몬": 2031,
      "도희": 2032,
      "드카라": 2033,
      "드로즈": 2034,
      "드브릿": 2035,
      "란넬": 2036,
      "레송": 2037,
      "롱구스다운": 2038,
      "루가": 2039,
      "리\n": 2040,
      "리드": 2041,
      "리즈": 2042,
      "릭터": 2043,
      "린팅": 2044,
      "마르": 2045,
      "마스": 2046,
      "마칸": 2047,
      "머니": 2048,
      "모도": 2049,
      "미닌": 2050,
      "미티드": 2051,
      "믹스": 2052,
      "백화": 2053,
      "베이": 2054,
      "베스트": 2055,
      "벤트": 2056,
      "벨티드": 2057,
      "비비안": 2058,
      "삐아": 2059,
      "산부": 2060,
      "상봉": 2061,
      "스티": 2062,
      "스커트": 2063,
      "스토어": 2064,
      "아머": 2065,
      "아일랜드": 2066,
      "액티브": 2067,
      "양지": 2068,
      "언더웨어": 2069,
      "여행": 2070,
      "여공용": 2071,
      "이보": 2072,
      "이크": 2073,
      "인하": 2074,
      "임스": 2075,
      "절기": 2076,
      "제리": 2077,
      "즘\n": 2078,
      "지피": 2079,
      "진가슴": 2080,
      "처블": 2081,
      "촬영": 2082,
      "최신상": 2083,
      "커루": 2084,
      "코튼": 2085,
      "퀘어": 2086,
      "터치": 2087,
      "트로이": 2088,
      "트리밍": 2089,
      "티지": 2090,
      "품\n": 2091,
      "프트": 2092,
      "필드": 2093,
      "힐즈": 2094,
      "▁남여공용": 2095,
      "23\n": 2096,
      "▁스웻": 2097,
      "패딩\n": 2098,
      "▁코모도": 2099,
      "001\n": 2100,
      "▁롱구스": 2101,
      "▁기장": 2102,
      "▁기획": 2103,
      "리스마스": 2104,
      "▁남자반": 2105,
      "▁라펠": 2106,
      "▁라삐아": 2107,
      "▁기모바지": 2108,
      "▁기모안감": 2109,
      "▁다운패딩": 2110,
      "▁다운점퍼": 2111,
      "▁SH": 2112,
      "▁SMI": 2113,
      "▁SSGJP": 2114,
      "▁SSDJP": 2115,
      "▁11": 2116,
      "▁19": 2117,
      "자켓\n": 2118,
      "▁C\n": 2119,
      "▁C234PSG": 2120,
      "▁COL": 2121,
      "▁CLA": 2122,
      "▁32": 2123,
      "▁3M": 2124,
      "▁3매": 2125,
      "▁3팩": 2126,
      "▁MEN": 2127,
      "▁플라워": 2128,
      "▁플란넬": 2129,
      "▁TSGJP": 2130,
      "▁PR": 2131,
      "▁POL": 2132,
      "▁P33": 2133,
      "▁AB": 2134,
      "▁AS": 2135,
      "▁NB": 2136,
      "▁N234": 2137,
      "▁지지피": 2138,
      "▁나인": 2139,
      "▁빅카라": 2140,
      "▁24": 2141,
      "▁28": 2142,
      "▁2컬러": 2143,
      "▁크레송": 2144,
      "▁크리스마스": 2145,
      "▁더아이": 2146,
      "속옷세트": 2147,
      "▁5584": 2148,
      "▁568": 2149,
      "▁파격": 2150,
      "▁울100": 2151,
      "▁원피스잠옷": 2152,
      "JPD4": 2153,
      "▁캐릭터": 2154,
      "▁모던": 2155,
      "▁블라우": 2156,
      "▁수트": 2157,
      "▁프린팅": 2158,
      "▁아이보": 2159,
      "▁퍼카라": 2160,
      "▁베네통": 2161,
      "맨투맨\n": 2162,
      "▁면스판": 2163,
      "▁시크": 2164,
      "▁시리즈": 2165,
      "▁푸파": 2166,
      "▁하이스토어": 2167,
      "▁여자슬랙스": 2168,
      "▁EWOPMK": 2169,
      "▁팬티\n": 2170,
      "▁맨투맨\n": 2171,
      "▁보온": 2172,
      "▁케네스": 2173,
      "▁가디건\n": 2174,
      "▁더블니": 2175,
      "▁더블버튼": 2176,
      "▁커플파자마": 2177,
      "1301\n": 2178,
      "▁스트라이": 2179,
      "▁사파리": 2180,
      "▁사계절": 2181,
      "992": 2182,
      "▁FIT": 2183,
      "▁FUR": 2184,
      "▁미드": 2185,
      "▁카멜": 2186,
      "▁풀세트\n": 2187,
      "▁J2": 2188,
      "▁JAJU": 2189,
      "▁긴바지": 2190,
      "▁이벤트": 2191,
      "▁이상봉": 2192,
      "▁티셔츠\n": 2193,
      "1104\n": 2194,
      "▁DQ": 2195,
      "▁D234PSG": 2196,
      "▁루앤": 2197,
      "▁PHD4PP": 2198,
      "2520\n": 2199,
      "▁ZOC4FP13": 2200,
      "▁노와이어브라": 2201,
      "▁HZ": 2202,
      "▁비버리": 2203,
      "▁칼하트": 2204,
      "▁헤론": 2205,
      "▁언더아머": 2206,
      "▁남녀공용\n": 2207,
      "▁V넥": 2208,
      "▁V234PSG": 2209,
      "▁[한복대여": 2210,
      "▁누디": 2211,
      "▁디트로이": 2212,
      "2902\n": 2213,
      "▁IN": 2214,
      "TR39": 2215,
      "▁OH": 2216,
      "▁레더": 2217,
      "▁레귤러": 2218,
      "▁맥코트": 2219,
      "▁타루가": 2220,
      "▁패치": 2221,
      "▁패턴": 2222,
      "050\n": 2223,
      "▁발마칸": 2224,
      "▁청바지\n": 2225,
      "3WCM": 2226,
      "N4D91": 2227,
      "▁(국내": 2228,
      "▁6종": 2229,
      "▁YP": 2230,
      "▁도도희": 2231,
      "▁써마": 2232,
      "▁포인트": 2233,
      "구스다운\n": 2234,
      "362": 2235,
      "3XH": 2236,
      "3X30C": 2237,
      "BDO": 2238,
      "▁르샵": 2239,
      "▁712341": 2240,
      "MAR": 2241,
      "▁메이플": 2242,
      "▁바캉스": 2243,
      "▁셋업\n": 2244,
      "한복]": 2245,
      "▁블루핏": 2246,
      "▁미디엄": 2247,
      "▁9103": 2248,
      "▁BF3X30C": 2249,
      "▁테이퍼드핏": 2250,
      "▁고급": 2251,
      "▁단체": 2252,
      "▁목폴라": 2253,
      "▁버버리": 2254,
      "▁버커루": 2255,
      "▁여성팬티\n": 2256,
      "▁SPJPD4": 2257,
      "▁SWHCTM4": 2258,
      "▁SWHCTM41": 2259,
      "224PSG": 2260,
      "INE": 2261,
      "JDD4V": 2262,
      "▁SZA": 2263,
      "▁SZBDO": 2264,
      "▁아웃포켓": 2265,
      "▁L234PSG04": 2266,
      "▁GNRL": 2267,
      "▁칼라거펠드": 2268,
      "▁선물\n": 2269,
      "2020\n": 2270,
      "M42510\n": 2271,
      "▁걸스": 2272,
      "▁걸즈": 2273,
      "▁웨딩": 2274,
      "▁혼주": 2275,
      "▁흰티": 2276,
      "만원인하": 2277,
      "▁폴라티": 2278,
      "▁53N\n": 2279,
      "▁MSD4TC": 2280,
      "▁WBC3": 2281,
      "▁다이아퀼팅": 2282,
      "▁TWHCTM800": 2283,
      "▁헬스": 2284,
      "가지기장": 2285,
      "▁여성용\n": 2286,
      "▁스탠드카라": 2287,
      "▁BV26": 2288,
      "▁AAB4": 2289,
      "▁NJW3WH": 2290,
      "▁마이데몬": 2291,
      "▁917341": 2292,
      "▁T238MDJ": 2293,
      "TC391": 2294,
      "WDW1": 2295,
      "▁공주": 2296,
      "▁덤블": 2297,
      "▁배색": 2298,
      "▁쥬크": 2299,
      "▁콜마르": 2300,
      "▁스테이": 2301,
      "▁리오벨": 2302,
      "▁A234PWD": 2303,
      "▁나일론": 2304,
      "▁커버낫": 2305,
      "▁FB7": 2306,
      "▁마인드브릿": 2307,
      "▁YN4W58": 2308,
      "▁몽클레어": 2309,
      "당일출고]": 2310,
      "▁BC3X38C": 2311,
      "▁AH460E-53N": 2312,
      "ack": 2313,
      "▁간절기": 2314,
      "▁동물": 2315,
      "▁란제리": 2316,
      "▁솔리드": 2317,
      "▁임산부": 2318,
      "▁잭필드": 2319,
      "▁짱구": 2320,
      "▁처진가슴": 2321,
      "▁콤비": 2322,
      "▁튜브": 2323,
      "▁핑크": 2324,
      "▁항공점퍼": 2325,
      "▁휴양지": 2326,
      "백화점": 2327,
      "▁라삐아프": 2328,
      "▁SMI\n": 2329,
      "▁COLMAR": 2330,
      "▁POLHAM": 2331,
      "▁지지피엑스": 2332,
      "▁더아이잗": 2333,
      "▁55849-00": 2334,
      "▁하이스토어\n": 2335,
      "▁케네스레이디": 2336,
      "▁스트라이프": 2337,
      "▁이벤트속옷": 2338,
      "▁비버리힐즈": 2339,
      "▁디트로이트": 2340,
      "▁메이플라워": 2341,
      "▁마인드브릿지": 2342,
      "-1": 2343,
      "-UP": 2344,
      "/20": 2345,
      "0P": 2346,
      "0수": 2347,
      "071": 2348,
      "0CT": 2349,
      "09\n": 2350,
      "0JK": 2351,
      "090": 2352,
      "0/20": 2353,
      "12": 2354,
      "1D": 2355,
      "12\n": 2356,
      "14\n": 2357,
      "199": 2358,
      "120": 2359,
      "100\n": 2360,
      "25\n": 2361,
      "201": 2362,
      "2010\n": 2363,
      "3D": 2364,
      "323": 2365,
      "31\n": 2366,
      "391": 2367,
      "371": 2368,
      "3001\n": 2369,
      "48": 2370,
      "41\n": 2371,
      "401": 2372,
      "48\n": 2373,
      "4UDW": 2374,
      "51\n": 2375,
      "55\n": 2376,
      "510\n": 2377,
      "550": 2378,
      "528": 2379,
      "61": 2380,
      "62": 2381,
      "65": 2382,
      "65\n": 2383,
      "66\n": 2384,
      "636": 2385,
      "66-00": 2386,
      "77": 2387,
      "702": 2388,
      "72\n": 2389,
      "88": 2390,
      "81\n": 2391,
      "85\n": 2392,
      "82\n": 2393,
      "800\n": 2394,
      "830\n": 2395,
      "80/20": 2396,
      "9Z": 2397,
      "95\n": 2398,
      "98\n": 2399,
      "900\n": 2400,
      "920\n": 2401,
      "9W\n": 2402,
      "940\n": 2403,
      "974": 2404,
      "A5": 2405,
      "AL": 2406,
      "AO": 2407,
      "BG": 2408,
      "BL": 2409,
      "BP": 2410,
      "BR": 2411,
      "B02\n": 2412,
      "BE\n": 2413,
      "B2361\n": 2414,
      "C9": 2415,
      "CA": 2416,
      "CY": 2417,
      "C컵": 2418,
      "COL": 2419,
      "D컵": 2420,
      "DAN": 2421,
      "EC": 2422,
      "EL": 2423,
      "E컵": 2424,
      "EAN": 2425,
      "E53N": 2426,
      "E26": 2427,
      "ECK": 2428,
      "FS": 2429,
      "G8": 2430,
      "HT": 2431,
      "HC3": 2432,
      "HECK": 2433,
      "IOR": 2434,
      "IDE": 2435,
      "JL": 2436,
      "JCT": 2437,
      "K\n": 2438,
      "K-": 2439,
      "KA": 2440,
      "KR": 2441,
      "KS": 2442,
      "L05": 2443,
      "M\n": 2444,
      "MS": 2445,
      "MW": 2446,
      "MJP": 2447,
      "MAN": 2448,
      "MC4FP": 2449,
      "M93": 2450,
      "ON": 2451,
      "OIS": 2452,
      "OOD": 2453,
      "OMAN": 2454,
      "POL": 2455,
      "PD4V": 2456,
      "SL": 2457,
      "SW": 2458,
      "TG": 2459,
      "TW": 2460,
      "TER": 2461,
      "UT": 2462,
      "UJK": 2463,
      "V\n": 2464,
      "VP": 2465,
      "VT": 2466,
      "W21": 2467,
      "WEAT": 2468,
      "XO": 2469,
      "XXO": 2470,
      "YD4TR": 2471,
      "YE26": 2472,
      "af": 2473,
      "ak": 2474,
      "am": 2475,
      "ay": 2476,
      "bar": 2477,
      "caf": 2478,
      "di": 2479,
      "der": 2480,
      "day": 2481,
      "el": 2482,
      "en": 2483,
      "et": 2484,
      "ew": 2485,
      "ecaf": 2486,
      "fw": 2487,
      "hur": 2488,
      "il": 2489,
      "iv": 2490,
      "ies": 2491,
      "lu": 2492,
      "lan": 2493,
      "nder": 2494,
      "oo": 2495,
      "pack": 2496,
      "sday": 2497,
      "slan": 2498,
      "ver": 2499,
      "▁a": 2500,
      "▁f": 2501,
      "▁n": 2502,
      "▁z": 2503,
      "▁감": 2504,
      "▁강": 2505,
      "▁거": 2506,
      "▁곰": 2507,
      "▁구": 2508,
      "▁까": 2509,
      "▁깔": 2510,
      "▁꽃": 2511,
      "▁날": 2512,
      "▁넥": 2513,
      "▁니": 2514,
      "▁래": 2515,
      "▁랩": 2516,
      "▁릴": 2517,
      "▁막": 2518,
      "▁머": 2519,
      "▁물": 2520,
      "▁민": 2521,
      "▁뽕": 2522,
      "▁산": 2523,
      "▁삼": 2524,
      "▁샘": 2525,
      "▁생": 2526,
      "▁섹": 2527,
      "▁숄": 2528,
      "▁안": 2529,
      "▁얇": 2530,
      "▁왕": 2531,
      "▁웰": 2532,
      "▁융": 2533,
      "▁좋": 2534,
      "▁짐": 2535,
      "▁집": 2536,
      "▁총": 2537,
      "▁통": 2538,
      "▁판": 2539,
      "▁퓨": 2540,
      "▁핀": 2541,
      "▁할": 2542,
      "▁핫": 2543,
      "▁와이": 2544,
      "▁배기": 2545,
      "▁톰보이": 2546,
      "▁매장판": 2547,
      "▁당일": 2548,
      "▁es": 2549,
      "▁안감": 2550,
      "▁서포트": 2551,
      "▁ot": 2552,
      "▁믹스": 2553,
      "개\n": 2554,
      "객룩": 2555,
      "견례": 2556,
      "구로": 2557,
      "국백화점": 2558,
      "그린": 2559,
      "글란": 2560,
      "기업": 2561,
      "깔이": 2562,
      "끼털": 2563,
      "나모": 2564,
      "나이": 2565,
      "네이비": 2566,
      "니우": 2567,
      "다이아": 2568,
      "담곰": 2569,
      "더브라": 2570,
      "도라": 2571,
      "도마": 2572,
      "도우": 2573,
      "디드": 2574,
      "디움": 2575,
      "라벨": 2576,
      "라스": 2577,
      "라왕": 2578,
      "라클": 2579,
      "라이즈": 2580,
      "레르": 2581,
      "렉션": 2582,
      "렌디드": 2583,
      "로미": 2584,
      "로배": 2585,
      "로아": 2586,
      "로우": 2587,
      "롬마": 2588,
      "루젠": 2589,
      "룩\n": 2590,
      "르디": 2591,
      "르이너웨어": 2592,
      "리슨": 2593,
      "리아": 2594,
      "리야": 2595,
      "리프": 2596,
      "링클": 2597,
      "마니": 2598,
      "모피": 2599,
      "목티": 2600,
      "무늬": 2601,
      "무스탕": 2602,
      "미국백화점": 2603,
      "민기업": 2604,
      "바로배": 2605,
      "방지": 2606,
      "밴드": 2607,
      "복\n": 2608,
      "부부": 2609,
      "부츠컷": 2610,
      "블루": 2611,
      "상품": 2612,
      "선택": 2613,
      "성민기업": 2614,
      "쇄\n": 2615,
      "숏코트": 2616,
      "쉬는": 2617,
      "쉬드": 2618,
      "쉬테": 2619,
      "슐레이트": 2620,
      "스루": 2621,
      "스텀": 2622,
      "스텔": 2623,
      "스페": 2624,
      "스포츠": 2625,
      "스튜디오": 2626,
      "시드": 2627,
      "아로": 2628,
      "아디다스": 2629,
      "어스": 2630,
      "어디션": 2631,
      "에어": 2632,
      "여성": 2633,
      "여우": 2634,
      "예인": 2635,
      "오트": 2636,
      "외여행": 2637,
      "우드": 2638,
      "이더": 2639,
      "이프": 2640,
      "일즈": 2641,
      "자수": 2642,
      "자크": 2643,
      "장세트": 2644,
      "제임스": 2645,
      "조끼": 2646,
      "조이": 2647,
      "존02": 2648,
      "주얼": 2649,
      "즈노": 2650,
      "지스": 2651,
      "지웨어": 2652,
      "진한복]": 2653,
      "체형": 2654,
      "쳐블": 2655,
      "츠미": 2656,
      "치온": 2657,
      "컵C컵": 2658,
      "켄지": 2659,
      "코듀로이": 2660,
      "클로": 2661,
      "키지": 2662,
      "타이즈": 2663,
      "탄력": 2664,
      "탄브라": 2665,
      "택\n": 2666,
      "터링": 2667,
      "터네이비": 2668,
      "토우": 2669,
      "투시": 2670,
      "투아": 2671,
      "트넥": 2672,
      "트위드": 2673,
      "티셔츠": 2674,
      "틱아일랜드": 2675,
      "퍼블": 2676,
      "페인": 2677,
      "포리오": 2678,
      "플레어": 2679,
      "하객룩": 2680,
      "해은": 2681,
      "혼방": 2682,
      "다운\n": 2683,
      "▁여성면": 2684,
      "▁여성잠옷": 2685,
      "▁여성패딩\n": 2686,
      "▁스토어": 2687,
      "▁스투시": 2688,
      "▁스페인": 2689,
      "000": 2690,
      "0029": 2691,
      "0010\n": 2692,
      "▁남성용": 2693,
      "▁남성팬티": 2694,
      "▁남성속옷": 2695,
      "▁남성드로즈": 2696,
      "▁롱원피스": 2697,
      "▁롱스커트": 2698,
      "리스토우": 2699,
      "팬츠\n": 2700,
      "▁패딩\n": 2701,
      "▁남자겨울": 2702,
      "▁남자니트": 2703,
      "▁남자맨투맨\n": 2704,
      "▁라벨": 2705,
      "▁라이브": 2706,
      "▁라도마": 2707,
      "▁기모셋업": 2708,
      "▁하고": 2709,
      "▁하찌": 2710,
      "▁하성민기업": 2711,
      "▁겨울\n": 2712,
      "▁SPP": 2713,
      "▁SET": 2714,
      "▁SWEAT": 2715,
      "▁Sil": 2716,
      "▁트레": 2717,
      "▁트임": 2718,
      "▁트루젠": 2719,
      "레이크": 2720,
      "레이텍스": 2721,
      "▁12": 2722,
      "▁1팩": 2723,
      "▁100": 2724,
      "▁102": 2725,
      "▁111": 2726,
      "▁103": 2727,
      "▁1만원인하": 2728,
      "▁23FW\n": 2729,
      "▁23FW최신상": 2730,
      "▁벨벳": 2731,
      "▁벨로아": 2732,
      "▁C234": 2733,
      "▁CLB": 2734,
      "▁CHECK": 2735,
      "▁3장": 2736,
      "▁337": 2737,
      "▁3가지기장": 2738,
      "▁숏푸": 2739,
      "▁MX": 2740,
      "▁MLB": 2741,
      "D4ER": 2742,
      "D4FP": 2743,
      "▁BK": 2744,
      "▁BN": 2745,
      "▁B3W": 2746,
      "▁BEAN": 2747,
      "▁플랩": 2748,
      "▁플라스": 2749,
      "▁플레이텍스": 2750,
      "▁T21": 2751,
      "▁Tab": 2752,
      "▁Thur": 2753,
      "▁가족": 2754,
      "▁PQ": 2755,
      "▁P34": 2756,
      "▁PP4": 2757,
      "▁리본": 2758,
      "▁리브": 2759,
      "▁리펠": 2760,
      "▁리미티드": 2761,
      "▁리진한복]": 2762,
      "▁에잇": 2763,
      "▁폭스후드": 2764,
      "▁폭스클럽": 2765,
      "▁AF": 2766,
      "▁A36": 2767,
      "020\n": 2768,
      "▁NN": 2769,
      "▁NV": 2770,
      "▁N21": 2771,
      "▁지스튜디오": 2772,
      "▁브라캡": 2773,
      "핸드메이드": 2774,
      "C4CP": 2775,
      "▁21": 2776,
      "▁22": 2777,
      "▁29": 2778,
      "▁202": 2779,
      "▁더플": 2780,
      "▁니트카라": 2781,
      "와이드팬츠": 2782,
      "▁5+": 2783,
      "▁501": 2784,
      "▁5만원": 2785,
      "▁오르": 2786,
      "▁오프": 2787,
      "▁오픈": 2788,
      "▁오아로": 2789,
      "▁오조이": 2790,
      "▁파카": 2791,
      "▁파스텔": 2792,
      "▁반후드": 2793,
      "▁반폴라": 2794,
      "▁울50": 2795,
      "▁울혼방": 2796,
      "JP2902\n": 2797,
      "▁캐주얼": 2798,
      "▁폭스퍼후드": 2799,
      "▁폭스퍼트리밍": 2800,
      "▁모임": 2801,
      "▁블프": 2802,
      "▁프롬마": 2803,
      "▁아미": 2804,
      "▁아리스토우": 2805,
      "▁퍼프": 2806,
      "▁베아": 2807,
      "▁LB41": 2808,
      "▁Lecaf": 2809,
      "▁커스텀": 2810,
      "▁ZR": 2811,
      "▁Z234MSG": 2812,
      "▁ZMC4FP": 2813,
      "▁면티": 2814,
      "▁면바지": 2815,
      "▁면티\n": 2816,
      "▁시즌": 2817,
      "▁시나모": 2818,
      "▁시스루": 2819,
      "▁와이드핏": 2820,
      "▁GEN": 2821,
      "▁G-C": 2822,
      "▁G80/20": 2823,
      "▁GIOR": 2824,
      "▁여자속옷세트": 2825,
      "535\n": 2826,
      "▁E224PSG": 2827,
      "▁EYD4TR": 2828,
      "▁PHD5": 2829,
      "▁보아": 2830,
      "▁심플": 2831,
      "1361\n": 2832,
      "CTC": 2833,
      "▁카라넥": 2834,
      "▁라운지웨어": 2835,
      "▁세이브": 2836,
      "▁세인트": 2837,
      "▁스트릿": 2838,
      "▁스트링": 2839,
      "▁드로즈\n": 2840,
      "229": 2841,
      "220\n": 2842,
      "22417": 2843,
      "▁미라클": 2844,
      "▁미즈노": 2845,
      "▁카치온": 2846,
      "▁풀집": 2847,
      "▁풀컵": 2848,
      "▁풀스킨": 2849,
      "▁잠옷\n": 2850,
      "▁잠옷바지": 2851,
      "▁이츠미": 2852,
      "▁언스": 2853,
      "110\n": 2854,
      "1102\n": 2855,
      "1103\n": 2856,
      "▁D톤": 2857,
      "▁Dow": 2858,
      "▁PHD4TC": 2859,
      "▁케이블니트": 2860,
      "▁7부": 2861,
      "▁7종": 2862,
      "▁7252": 2863,
      "▁씨빅": 2864,
      "▁씨티지": 2865,
      "▁홈쇼핑": 2866,
      "2040\n": 2867,
      "▁4종": 2868,
      "▁4컬러\n": 2869,
      "▁로렌": 2870,
      "▁로보": 2871,
      "▁로브": 2872,
      "▁브레": 2873,
      "▁H라인": 2874,
      "▁HOOD": 2875,
      "▁마리": 2876,
      "▁비너스": 2877,
      "▁테일러": 2878,
      "▁헤지스": 2879,
      "▁밴딩슬랙스": 2880,
      "라이크": 2881,
      "▁하프집업": 2882,
      "▁오버핏\n": 2883,
      "▁[도": 2884,
      "▁[당일출고]": 2885,
      "▁[미국백화점": 2886,
      "▁디자": 2887,
      "▁부드러": 2888,
      "▁쉬폰": 2889,
      "▁피크": 2890,
      "▁피쉬테": 2891,
      "▁가을\n": 2892,
      "▁874": 2893,
      "▁89900원": 2894,
      "▁8528": 2895,
      "▁WIN": 2896,
      "▁WOMAN": 2897,
      "260\n": 2898,
      "2908\n": 2899,
      "▁Islan": 2900,
      "▁골드": 2901,
      "▁상견례": 2902,
      "▁워머": 2903,
      "▁일본": 2904,
      "▁제작": 2905,
      "▁블랙진": 2906,
      "1901": 2907,
      "1965\n": 2908,
      "▁On": 2909,
      "▁ODV": 2910,
      "▁RO": 2911,
      "▁레깅스": 2912,
      "▁레터링": 2913,
      "▁야한": 2914,
      "▁모달팬티": 2915,
      "▁무지티": 2916,
      "▁MSC4UI": 2917,
      "▁MSC4TC391": 2918,
      "▁칼라리스": 2919,
      "1001\n": 2920,
      "MDR": 2921,
      "▁방수": 2922,
      "▁SACTC": 2923,
      "▁프리컷": 2924,
      "2401\n": 2925,
      "ERAL": 2926,
      "▁(2color": 2927,
      "▁69": 2928,
      "▁YN4D91": 2929,
      "▁도씨": 2930,
      "지오지아": 2931,
      "▁수면잠옷\n": 2932,
      "▁비비안스킨": 2933,
      "▁정장원피스": 2934,
      "▁프로젝트M": 2935,
      "3XM": 2936,
      "JKD49": 2937,
      "eries": 2938,
      "▁다크": 2939,
      "▁르오트": 2940,
      "▁르투아": 2941,
      "▁7122417": 2942,
      "▁이너웨어": 2943,
      "341\n": 2944,
      "3WH830\n": 2945,
      "N82520\n": 2946,
      "N82020\n": 2947,
      "▁메리야": 2948,
      "▁바디": 2949,
      "▁바바": 2950,
      "▁인조": 2951,
      "▁인쇄\n": 2952,
      "▁00501": 2953,
      "웨스트우드": 2954,
      "▁CK언더웨어": 2955,
      "▁브라탑\n": 2956,
      "▁사각팬티": 2957,
      "180\n": 2958,
      "510": 2959,
      "▁신부": 2960,
      "▁신구로": 2961,
      "폴라니트": 2962,
      "▁롱패딩\n": 2963,
      "▁BF3": 2964,
      "▁TWWOP": 2965,
      "▁AH6": 2966,
      "▁오리털": 2967,
      "▁무스탕\n": 2968,
      "▁아우터\n": 2969,
      "070\n": 2970,
      "155\n": 2971,
      "166\n": 2972,
      "16E-53N": 2973,
      "able": 2974,
      "▁900원": 2975,
      "▁고탄력": 2976,
      "▁단추": 2977,
      "▁단품\n": 2978,
      "▁런칭": 2979,
      "▁목티": 2980,
      "▁요가": 2981,
      "▁요크": 2982,
      "▁텐션": 2983,
      "▁SPAO": 2984,
      "▁15702": 2985,
      "224MSG": 2986,
      "▁ITMA": 2987,
      "▁ITMB": 2988,
      "▁워크퀘어": 2989,
      "543": 2990,
      "DV11": 2991,
      "W3WH4": 2992,
      "▁네모": 2993,
      "▁네이비": 2994,
      "▁소량": 2995,
      "▁소매": 2996,
      "▁소프트": 2997,
      "▁윈드러": 2998,
      "▁롱코트\n": 2999,
      "▁C234MSG51": 3000,
      "▁MIXXO": 3001,
      "▁TROIS": 3002,
      "▁T236": 3003,
      "▁AEC4": 3004,
      "▁GNB": 3005,
      "▁PHD4JP24": 3006,
      "▁EPD4PP": 3007,
      "▁EPD4JD": 3008,
      "▁EPD4JJ": 3009,
      "▁히든밴딩": 3010,
      "▁키작녀\n": 3011,
      "▁키작녀바지\n": 3012,
      "▁유니클로": 3013,
      "2911\n": 3014,
      "2912\n": 3015,
      "atur": 3016,
      "▁U넥": 3017,
      "▁UNI": 3018,
      "▁Under": 3019,
      "▁성해은": 3020,
      "▁어깨": 3021,
      "▁어니우": 3022,
      "▁웨일즈": 3023,
      "▁주름": 3024,
      "▁주문": 3025,
      "▁페더": 3026,
      "▁페미닌": 3027,
      "▁페이크": 3028,
      "▁해비": 3029,
      "▁해리슨": 3030,
      "▁해외여행": 3031,
      "▁햄팬티": 3032,
      "▁혼방": 3033,
      "▁흰색": 3034,
      "▁스킨핏": 3035,
      "▁CCW": 3036,
      "▁CC콜렉트": 3037,
      "▁BH584": 3038,
      "▁폴라플리스": 3039,
      "▁WBC4": 3040,
      "▁RMJDD4V": 3041,
      "▁RMJL": 3042,
      "▁RMJKD49": 3043,
      "▁도톰한": 3044,
      "▁TWHCTM801": 3045,
      "▁LE12154": 3046,
      "▁결혼식하객룩": 3047,
      "24119": 3048,
      "ARA": 3049,
      "▁등산": 3050,
      "▁원버튼": 3051,
      "▁원더브라": 3052,
      "추가)": 3053,
      "트레이닝복": 3054,
      "▁스탠카라": 3055,
      "▁라인어디션": 3056,
      "▁BAPD": 3057,
      "▁플러피플리스": 3058,
      "C4PP13": 3059,
      "C4PP11": 3060,
      "▁LAINE": 3061,
      "▁Z234PSG3": 3062,
      "▁Z234PSG18": 3063,
      "▁NEP3XH": 3064,
      "▁스웨터\n": 3065,
      "▁91724119": 3066,
      "▁TWWSL": 3067,
      "▁PHC4JP3": 3068,
      "▁PHC4JP22": 3069,
      "▁돌잔치엄마": 3070,
      "▁MIWJH": 3071,
      "▁치노팬츠": 3072,
      "▁GMDBDU9": 3073,
      "▁GMDBDU992": 3074,
      "2002\n": 3075,
      "31K": 3076,
      "EST": 3077,
      "▁series": 3078,
      "▁군인": 3079,
      "▁대체": 3080,
      "▁벤치": 3081,
      "▁쉐도우": 3082,
      "▁예뻐": 3083,
      "▁전략": 3084,
      "▁차콜": 3085,
      "▁초경": 3086,
      "▁컬링": 3087,
      "▁큰컵": 3088,
      "▁허리": 3089,
      "▁허벅": 3090,
      "폴로클럽": 3091,
      "▁스타일": 3092,
      "▁스타디움": 3093,
      "▁13798": 3094,
      "▁MA1": 3095,
      "▁MA-1": 3096,
      "▁BCBG": 3097,
      "▁2023": 3098,
      "▁2종세트\n": 3099,
      "▁PHD4PT2401\n": 3100,
      "▁브러시드": 3101,
      "▁디테처블": 3102,
      "▁디테쳐블": 3103,
      "▁정품100": 3104,
      "▁88사이즈": 3105,
      "▁에어로쿨": 3106,
      "▁에어리즘\n": 3107,
      "▁000원": 3108,
      "▁신혼부부": 3109,
      "▁투피스세트": 3110,
      "▁ITN9Z": 3111,
      "▁ITNCY": 3112,
      "▁컴포트핏": 3113,
      "▁위생팬티": 3114,
      "▁헝가리구스다운\n": 3115,
      "▁NJP3WM93": 3116,
      "▁클라우드패딩": 3117,
      "301W\n": 3118,
      "A4341\n": 3119,
      "EU1104\n": 3120,
      "by비비안": 3121,
      "wear": 3122,
      "▁금장": 3123,
      "▁논퀼팅": 3124,
      "▁셔링": 3125,
      "▁쇼트": 3126,
      "▁숨쉬는": 3127,
      "▁엘르이너웨어": 3128,
      "▁엠포리오": 3129,
      "▁연예인": 3130,
      "▁장기모": 3131,
      "▁착장": 3132,
      "▁쿠로미": 3133,
      "▁헌터네이비": 3134,
      "▁0739": 3135,
      "베이직": 3136,
      "▁스웻팬츠": 3137,
      "▁기장선택": 3138,
      "▁남자반폴라니트": 3139,
      "▁SSGJPM42510\n": 3140,
      "▁SSDJPM41": 3141,
      "▁1939": 3142,
      "▁C234PSG18": 3143,
      "▁CLAWDW1": 3144,
      "▁32YE26": 3145,
      "▁PRJCT": 3146,
      "▁ASJU": 3147,
      "▁28974": 3148,
      "▁파격초": 3149,
      "▁블라우스\n": 3150,
      "▁아이보리\n": 3151,
      "▁J22341": 3152,
      "▁이상봉에디션": 3153,
      "▁D234PSG27": 3154,
      "▁PHD4PP20": 3155,
      "▁ZOC4FP1306\n": 3156,
      "TR3900\n": 3157,
      "▁OH3WCM": 3158,
      "▁레귤러핏": 3159,
      "▁YP3WH830\n": 3160,
      "362SK": 3161,
      "▁7123417": 3162,
      "▁910341": 3163,
      "▁단체티": 3164,
      "▁SPJPD4TG": 3165,
      "▁SWHCTM420": 3166,
      "▁SZBDO32\n": 3167,
      "▁웨딩촬영": 3168,
      "▁WBC3L045": 3169,
      "▁AAB4S": 3170,
      "▁A234PWDA": 3171,
      "▁FB754": 3172,
      "▁YN4W587": 3173,
      "▁비버리힐즈폴로클럽": 3174,
      "6361\n": 3175,
      "D컵E컵": 3176,
      "DANO": 3177,
      "IDEA": 3178,
      "POLE": 3179,
      "PD4VU": 3180,
      "ive": 3181,
      "lus": 3182,
      "▁감탄브라": 3183,
      "▁깔깔이": 3184,
      "▁꽃무늬": 3185,
      "▁래글런": 3186,
      "▁릴렉스": 3187,
      "▁막스": 3188,
      "▁민소매": 3189,
      "▁뽕브라": 3190,
      "▁산리오": 3191,
      "▁샘방지": 3192,
      "▁생리": 3193,
      "▁섹시": 3194,
      "▁얇은": 3195,
      "▁왕뽕": 3196,
      "▁웰론": 3197,
      "▁짐웨어": 3198,
      "▁판도라": 3199,
      "▁핀턱": 3200,
      "▁할머니": 3201,
      "▁핫멜": 3202,
      "▁와이셔츠": 3203,
      "▁매장판)": 3204,
      "나이키": 3205,
      "바로배송": 3206,
      "▁라이브쇼핑": 3207,
      "▁SPPPD4VU": 3208,
      "▁SET-UP": 3209,
      "▁Silver": 3210,
      "▁10202": 3211,
      "▁BEANPOLE": 3212,
      "▁플라스틱아일랜드": 3213,
      "▁T218": 3214,
      "▁Thursday": 3215,
      "▁A3666-00": 3216,
      "▁N214UDW": 3217,
      "▁프롬마치": 3218,
      "▁LB41HC": 3219,
      "▁시나모롤": 3220,
      "▁GENERAL": 3221,
      "▁G-CUT": 3222,
      "▁GIORDANO": 3223,
      "▁E224PSG18": 3224,
      "▁PHD5TR3900\n": 3225,
      "▁세이브존02": 3226,
      "▁세인트제임스": 3227,
      "▁Down": 3228,
      "▁PHD4TC29": 3229,
      "▁HOODI": 3230,
      "▁테일러드": 3231,
      "▁[미국백화점]": 3232,
      "▁부드러운": 3233,
      "▁피쉬테일": 3234,
      "▁85283\n": 3235,
      "▁WINTER": 3236,
      "▁Island": 3237,
      "▁MSC4TC3912\n": 3238,
      "▁(2color)\n": 3239,
      "▁비비안스킨핏": 3240,
      "▁신구로점": 3241,
      "▁윈드러너": 3242,
      "▁Underwear": 3243,
      "▁어니우니": 3244,
      "▁BH584E-53N": 3245,
      "▁RMJDD4VR": 3246,
      "▁RMJLD4TR": 3247,
      "▁RMJKD49R": 3248,
      "▁MIWJHDV11": 3249,
      "▁헌터네이비XL": 3250,
      "▁판도라by비비안": 3251,
      "▁GENERALIDEA": 3252
    },
    "merges": [
      "▁ 남",
      "다 운",
      "▁ 여",
      "2 3",
      "▁여 성",
      "▁ 스",
      "패 딩",
      "▁ 코",
      "구 스",
      "0 0",
      "▁남 성",
      "▁ 롱",
      "▁ 기",
      "▁ 구스",
      "점 퍼",
      "0 \n",
      "리 스",
      "팬 츠",
      "1 \n",
      "▁ 패딩",
      "이 드",
      "▁ 23",
      "팬 티",
      "▁남 자",
      "▁ 라",
      "세 트",
      "▁기 모",
      "▁ 점퍼",
      "겨 울",
      "▁ 다운",
      "▁코 트",
      "▁ 하",
      "▁ 겨울",
      "▁ 후",
      "F W",
      "▁ S",
      "▁ 트",
      "레 이",
      "▁ 1",
      "브 라",
      "자 켓",
      "▁23 FW",
      "바 지",
      "티 드",
      "▁ 벨",
      "▁ C",
      "▁ 3",
      "▁ 숏",
      "▁구스 다운",
      "▁ M",
      "폭 스",
      "▁후 드",
      "▁벨 티드",
      "이 즈",
      "잠 옷",
      "D 4",
      "▁ 자켓",
      "▁ B",
      "▁ 플",
      "▁ T",
      "▁ 세트",
      "▁ 가",
      "▁ P",
      "니 트",
      "피 스",
      "▁ 리",
      "▁ 에",
      "▁ 폭스",
      "웨 어",
      "▁ A",
      "▁ 폴",
      "카 라",
      "0 2",
      "사 이즈",
      "▁ N",
      "▁ 지",
      "원 피스",
      "▁ 나",
      "▁ 브라",
      "▁ 빅",
      "핸 드",
      "C 4",
      "▁ 2",
      "▁ 크",
      "▁ 더",
      "▁ 팬츠",
      "▁ 핸드",
      "메 이드",
      "속 옷",
      "코 트",
      "23 4",
      "5 \n",
      "▁빅 사이즈",
      "0 1",
      "▁ 니트",
      "와 이드",
      "▁핸드 메이드",
      "▁ 5",
      "▁ 오",
      "▁ 파",
      "공 용",
      "셔 츠",
      "S G",
      "▁ 반",
      "▁ 울",
      "▁ 원피스",
      "3 \n",
      "4 1",
      "J P",
      "▁ 드",
      "▁ 캐",
      "스 트",
      "▁폭스 퍼",
      "▁ 모",
      "▁ 블",
      "▁ 수",
      "▁ 프",
      "라 인",
      "▁폴 햄",
      "▁ 무",
      "▁ 아",
      "▁ 조",
      "▁ 퍼",
      "▁나 이",
      "9 1",
      "▁ 베",
      "맨 투",
      "맨투 맨",
      "▁ L",
      "▁ 노",
      "▁ 커",
      "▁지 오",
      "▁ Z",
      "▁ 면",
      "▁ 슬",
      "자 마",
      "퀼 팅",
      "▁ 시",
      "▁ 푸",
      "▁ 와이드",
      "▁하 이",
      "W H",
      "▁ G",
      "종 \n",
      "▁여 자",
      "▁캐 시",
      "2 \n",
      "4 \n",
      "5 3",
      "7 1",
      "▁ E",
      "▁ 팬티",
      "▁ 맨투맨",
      "경 량",
      "디 건",
      "로 이",
      "▁P H",
      "▁나이 키",
      "▁ 보",
      "▁ 심",
      "▁ 케",
      "▁ 경량",
      "리 브",
      "미 어",
      "▁가 디건",
      "▁파 자마",
      "▁수 면",
      "로 즈",
      "올 리브",
      "▁더 블",
      "▁커 플",
      "▁캐시 미어",
      "▁ 속옷",
      "듀 로이",
      "집 업",
      "▁심 리스",
      "1 3",
      "C T",
      "▁ 카라",
      "▁라 운",
      "레이 닝",
      "▁플 리스",
      "▁조 거",
      "6 \n",
      "▁ 덕",
      "▁ 세",
      "스 테",
      "▁스 트",
      "▁코 듀로이",
      "▁드 로즈",
      "▁케 이",
      "▁ 데",
      "▁ 사",
      "▁ 티",
      "▁ 퀼팅",
      "코 스테",
      "리스 트",
      "▁라 코스테",
      "0 1\n",
      "2 2",
      "9 9",
      "▁ F",
      "▁ 미",
      "▁ 리스트",
      "▁라운 드",
      "P SG",
      "▁ 내",
      "▁ 카",
      "▁ 탑",
      "▁ 풀",
      "▁ 잠옷",
      "▁반 팔",
      "▁탑 텐",
      "▁ J",
      "▁ 긴",
      "▁ 이",
      "게 스",
      "밴 딩",
      "포 츠",
      "▁트 레이닝",
      "▁티 셔츠",
      "▁ 언",
      "▁ 공용",
      "버 튼",
      "와 이",
      "▁세트 \n",
      "▁베 이",
      "▁덕 다운",
      "1 1",
      "3 9",
      "8 \n",
      "O P",
      "▁ D",
      "▁ 루",
      "▁ 게스",
      "기 모",
      "다 노",
      "▁스 포츠",
      "▁M S",
      "▁크 롭",
      "234 PSG",
      "▁지오 다노",
      "▁푸 퍼",
      "▁하이 넥",
      "▁PH D4",
      "▁케이 블",
      "2 1",
      "2 5",
      "A N",
      "▁ 7",
      "▁ 씨",
      "▁ 홈",
      "▁ 바지",
      "위 드",
      "▁남 녀",
      "▁노 와이",
      "▁Z O",
      "▁노와이 어",
      "2 0",
      "7 \n",
      "i n",
      "▁ 4",
      "▁ 로",
      "▁ 브",
      "▁ 클",
      "버 핏",
      "00 \n",
      "02 \n",
      "▁슬 림",
      "▁베이 직",
      "▁ H",
      "▁ 마",
      "▁ 비",
      "▁ 칼",
      "▁ 테",
      "▁ 헤",
      "▁ 밴딩",
      "디 션",
      "라 이",
      "렉 트",
      "바 이",
      "콜 렉트",
      "▁하 프",
      "▁트 위드",
      "▁숏 패딩",
      "▁오 버핏",
      "WH CT",
      "▁E P",
      "▁조거 팬츠",
      "▁세 미",
      "▁긴 팔",
      "▁언 더",
      "▁남녀 공용",
      "0 3",
      "P P",
      "▁ V",
      "▁ [",
      "▁ 누",
      "▁ 디",
      "▁ 부",
      "▁ 쉬",
      "▁ 양",
      "▁ 정",
      "▁ 피",
      "이 아",
      "지 아",
      "청 바지",
      "편 한",
      "▁가 을",
      "▁리 바이",
      "▁리바이 스",
      "C 3",
      "▁ 8",
      "▁ W",
      "▁ 국",
      "▁ 싱",
      "▁ 온",
      "▁ 히",
      "▁ 올리브",
      "미 스",
      "밍 크",
      "씨 콜렉트",
      "커 트",
      "레이 트",
      "▁리 버",
      "53 N",
      "▁데 님",
      "▁루 즈",
      "▁씨 씨콜렉트",
      "▁홈 웨어",
      "▁싱 글",
      "0 4",
      "2 6",
      "2 9",
      "E -",
      "▁ I",
      "▁ 골",
      "▁ 상",
      "▁ 순",
      "▁ 워",
      "▁ 일",
      "▁ 재",
      "▁ 제",
      "▁ 집업",
      "▁ 편한",
      "랙 스",
      "비 안",
      "시 블",
      "앤 온",
      "즈 미스",
      "컬 러",
      "▁N E",
      "▁블 랙",
      "▁지오 지아",
      "▁쉬 즈미스",
      "▁온 앤온",
      "▁리버 시블",
      "0 3\n",
      "1 9",
      "O R",
      "T R",
      "▁ K",
      "▁ O",
      "▁ R",
      "▁ 레",
      "▁ 맥",
      "▁ 실",
      "▁ 야",
      "▁ 캘",
      "▁ 타",
      "▁ 패",
      "▁ 밍크",
      "그 래",
      "랜 드",
      "빈 클",
      "셋 업",
      "오 버",
      "이 트",
      "▁스 판",
      "▁남자 팬티",
      "▁에 어",
      "▁모 달",
      "▁무 지",
      "▁스트 레이트",
      "▁풀 오버",
      "▁MS C4",
      "▁칼 라",
      "E- 53N",
      "▁순 면",
      "▁재 킷",
      "▁캘 빈클",
      "그래 픽",
      "▁캘빈클 라인",
      "- 00",
      "0 5",
      "1 00",
      "5 8",
      "M D",
      "O L",
      "▁ 뉴",
      "▁ 발",
      "▁ 방",
      "▁ 빈",
      "▁ 청바지",
      "기 장",
      "데 올리브",
      "레 어",
      "올 젠",
      "▁스 커트",
      "▁코 튼",
      "▁S A",
      "▁3 종",
      "▁프 로",
      "▁프 리",
      "▁올리브 데올리브",
      "1 0\n",
      "2 4",
      "3 W",
      "E N",
      "E R",
      "M 8",
      "M SG",
      "N 4",
      "O C",
      "a l",
      "a n",
      "▁ (",
      "▁ 6",
      "▁ Y",
      "▁ 극",
      "▁ 도",
      "▁ 듀",
      "▁ 써",
      "▁ 알",
      "▁ 포",
      "▁ 올젠",
      "렌 치",
      "리 닝",
      "봉 제",
      "세 사",
      "일 랜드",
      "젝 트",
      "지 오",
      "▁스 웨",
      "구스 다운",
      "▁하 객",
      "레이 디",
      "▁무 봉제",
      "▁수면 잠옷",
      "▁ZO OC",
      "▁비 비안",
      "▁언더 웨어",
      "▁정 장",
      "▁피 치",
      "▁야 상",
      "▁빈 폴",
      "▁프로 젝트",
      "▁극 세사",
      "3 3",
      "3 6",
      "3 X",
      "5 0",
      "9 \n",
      "B D",
      "D W",
      "F P",
      "J K",
      "e r",
      "o r",
      "▁ 다",
      "▁ 르",
      "▁ 중",
      "▁ 진",
      "▁ 71",
      "▁ 버튼",
      "능 성",
      "스 탕",
      "츄 리닝",
      "터 틀",
      "후 드",
      "▁기 능성",
      "▁에 코",
      "▁이 너",
      "▁슬림 핏",
      "▁일 자",
      "▁듀 엘",
      "터틀 넥",
      "2 0\n",
      "3 0",
      "3 4",
      "3 8",
      "3 WH",
      "M A",
      "N 8",
      "P D",
      "T C",
      "l e",
      "▁ 랄",
      "▁ 메",
      "▁ 바",
      "▁ 인",
      "▁ 자",
      "▁ 체",
      "▁ 핏",
      "▁ 00",
      "▁ 레이",
      "▁ 셋업",
      "▁ 츄리닝",
      "▁ 터틀넥",
      "고 이",
      "널 지오",
      "래 스",
      "루 넥",
      "셔 널지오",
      "슬 리",
      "우 터",
      "웨 스트",
      "한 복",
      "▁기 본",
      "세트 \n",
      "▁C K",
      "▁3 종\n",
      "▁T WHCT",
      "▁에 고이",
      "▁브라 렛",
      "▁브라 탑",
      "▁크 루넥",
      "234 MSG",
      "41 7",
      "▁블 루",
      "▁슬 랙스",
      "▁시 슬리",
      "▁푸 마",
      "▁보 브",
      "▁사 각",
      "▁미 디",
      "▁내 셔널지오",
      "▁EP 4",
      "▁누 빔",
      "▁루즈 핏",
      "▁발 열",
      "▁알 래스",
      "▁피치 기모",
      "▁프로젝트 엠",
      "▁랄 프",
      "▁에고이 스트",
      "▁내셔널지오 그래픽",
      "▁알래스 카",
      "0 4\n",
      "1 8",
      "2 7",
      "3 7",
      "5 1",
      "C K",
      "G AN",
      "T D",
      "U P",
      "Y C",
      "▁ 신",
      "▁ 키",
      "▁ 투",
      "▁ 91",
      "그 니",
      "데 이아",
      "디 오",
      "미 엄",
      "배 기",
      "보 이",
      "스 데이아",
      "아 이",
      "이 너",
      "이 퍼",
      "튜 디오",
      "폴 라",
      "▁롱 패딩",
      "▁후 디",
      "▁후드 티",
      "▁B F",
      "▁B YC",
      "▁T W",
      "▁에 디션",
      "▁A H",
      "▁폴 로",
      "▁팬츠 \n",
      "▁오 리",
      "▁무 스탕",
      "▁아 우터",
      "▁L E",
      "▁라운드 넥",
      "▁테 이퍼",
      "▁양 모",
      "▁국 산",
      "▁프리 미엄",
      "▁써 스데이아",
      "▁EP4 TD",
      "▁테이퍼 드",
      "▁써스데이아 일랜드",
      "0 7",
      "0 5\n",
      "0 6\n",
      "1 5",
      "1 6",
      "6 1\n",
      "A \n",
      "G P",
      "U D",
      "W \n",
      "a b",
      "o l",
      "v in",
      "▁ 9",
      "▁ 고",
      "▁ 단",
      "▁ 런",
      "▁ 목",
      "▁ 버",
      "▁ 선",
      "▁ 요",
      "▁ 유",
      "▁ 잇",
      "▁ 텐",
      "▁ 펠",
      "▁ 셔츠",
      "다 스",
      "디 다스",
      "로 렌",
      "르 간",
      "미 샤",
      "엄 마",
      "엣 지",
      "톰 보이",
      "틱 스",
      "포 트",
      "▁여성 팬티",
      "▁스 파",
      "▁롱 다운",
      "▁점퍼 \n",
      "▁코트 \n",
      "▁S O",
      "▁S P",
      "▁S WHCT",
      "▁트 렌치",
      "▁1 5",
      "▁C al",
      "▁M OR",
      "▁자켓 \n",
      "▁플 레어",
      "C4 FP",
      "▁더 엣지",
      "▁모 르간",
      "▁조 끼",
      "▁노 라인",
      "▁시 그니",
      "▁하이 웨스트",
      "▁PH C4",
      "▁커플 잠옷",
      "▁속옷 \n",
      "▁사 가",
      "22 4",
      "▁트레이닝 복",
      "▁스포츠 웨어",
      "▁클 럽",
      "▁헤 비",
      "▁부 클",
      "▁히 트",
      "▁I T",
      "▁워 크",
      "▁K le",
      "▁체 크",
      "▁랄프 로렌",
      "▁잇 미샤",
      "▁펠 틱스",
      "▁Cal vin",
      "▁MOR GAN",
      "▁Kle in",
      "+ 1",
      "3 0\n",
      "4 6",
      "5 4",
      "9 8",
      "A T",
      "D V",
      "F \n",
      "I N",
      "J D",
      "L A",
      "M B",
      "P T",
      "W OP",
      "W 3WH",
      "c ol",
      "e an",
      "▁ 결",
      "▁ 꽈",
      "▁ 네",
      "▁ 돌",
      "▁ 봄",
      "▁ 셀",
      "▁ 소",
      "▁ 윈",
      "거 펠",
      "내 복",
      "다 일",
      "데 즈",
      "라 우",
      "라 워",
      "로 커",
      "리 밍",
      "매 장",
      "바 인",
      "버 리",
      "볼 륨",
      "센 셜",
      "스 킨",
      "우 시",
      "이 넥",
      "일 리",
      "작 녀",
      "전 \n",
      "츠 컷",
      "컴 바인",
      "티 \n",
      "▁스 튜디오",
      "▁코 데즈",
      "00 원",
      "▁롱 코트",
      "▁S Z",
      "바지 \n",
      "▁C 234MSG",
      "▁3 7",
      "▁숏 다운",
      "▁M I",
      "▁플 리",
      "▁T R",
      "▁T 23",
      "▁A E",
      "▁지 컷",
      "▁크 로커",
      "▁반 집업",
      "▁드 라이",
      "▁아 웃",
      "▁L 234PSG",
      "▁G N",
      "▁G GP",
      "▁내 복",
      "▁카 고",
      "▁반팔 티",
      "▁J ean",
      "▁PHD4 JP",
      "▁브 이넥",
      "▁EP D4",
      "▁세미 와이드",
      "▁국 내",
      "▁히 든",
      "컬러 \n",
      "▁실 크",
      "▁칼라 거펠",
      "N4 W",
      "▁포 켓",
      "▁중 기장",
      "▁키 작녀",
      "이너 웨어",
      "▁오리 지",
      "▁LE 1",
      "▁선 물",
      "▁유 니",
      "▁스파 오",
      "▁SO UP",
      "▁결 혼",
      "▁꽈 배기",
      "매장 판",
      "▁코데즈 컴바인",
      "▁크로커 다일",
      "▁GGP X",
      "▁Jean s",
      "0 8",
      "0 8\n",
      "0 7\n",
      "1 4",
      "1 1\n",
      "2 8",
      "2 02",
      "2 91",
      "2 53",
      "3 N",
      "4 0\n",
      "5 6",
      "5 0\n",
      "7 4",
      "7 0\n",
      "A M",
      "A U",
      "B 4",
      "C M",
      "E \n",
      "J U",
      "M 4",
      "M I",
      "M 41",
      "O V",
      "a t",
      "▁ U",
      "▁ 걸",
      "▁ 따",
      "▁ 몽",
      "▁ 본",
      "▁ 성",
      "▁ 어",
      "▁ 웨",
      "▁ 주",
      "▁ 치",
      "▁ 컴",
      "▁ 쿨",
      "▁ 페",
      "▁ 해",
      "▁ 햄",
      "▁ 혼",
      "▁ 흰",
      "▁ 엄마",
      "▁ 볼륨",
      "당 일",
      "렁 크",
      "레 치",
      "렌 드",
      "렙 샵",
      "만 원",
      "미 힐",
      "부 착",
      "스 클",
      "어 드",
      "에 디션",
      "음 전\n",
      "탈 부착",
      "피 거",
      "화 이트",
      "▁여 름",
      "▁여성 \n",
      "▁스 킨",
      "▁스 우시",
      "▁패딩 점퍼",
      "▁라 이트",
      "▁하 의",
      "▁1 종\n",
      "▁C C",
      "▁B H",
      "▁T O",
      "▁에 센셜",
      "▁폴 라",
      "▁나 시",
      "▁브라 팬티",
      "▁2 종\n",
      "▁빅사이즈 \n",
      "01 0\n",
      "▁5 3N",
      "SG JP",
      "▁원피스 \n",
      "▁모 음전\n",
      "▁아 디다스",
      "▁나이 스클",
      "▁베 스트",
      "▁G MD",
      "▁파자마 \n",
      "▁스트 레치",
      "▁데 일리",
      "▁F AU",
      "▁내 의",
      "▁MS D4",
      "▁4 종\n",
      "▁로 엠",
      "03 1\n",
      "▁W B",
      "04 5",
      "▁골 덴",
      "▁NE W",
      "▁R M",
      "▁맥 시",
      "▁타 미힐",
      "E-53N \n",
      "▁방 모",
      "▁도 톰",
      "▁스웨 트",
      "BD U",
      "▁다 이아",
      "▁TWHCT M8",
      "417 00",
      "▁블루 종",
      "▁EP4TD 00",
      "▁런 닝",
      "▁텐 셀",
      "col or",
      "▁셀 렙샵",
      "▁스튜디오 톰보이",
      "▁플리 츠",
      "▁오리지 널",
      "▁LE1 21",
      "▁결혼 식",
      "▁본 딩",
      "▁나이스클 랍",
      "▁FAU X",
      "▁타미힐 피거",
      "1 0",
      "2 41",
      "2 2\n",
      "3 3\n",
      "5 5",
      "7 6",
      "9 3",
      "9 0\n",
      "A R",
      "H \n",
      "I O",
      "I T",
      "J J",
      "L B",
      "M K",
      "T EN",
      "W D",
      "X L",
      "a r",
      "e s",
      "u r",
      "▁ 등",
      "▁ 박",
      "▁ 백",
      "▁ 쉘",
      "▁ 운",
      "▁ 원",
      "▁ 헬",
      "▁ WH",
      "▁ 화이트",
      "▁ 031\n",
      "가 슴",
      "가 지",
      "국 내",
      "까 프",
      "내 의",
      "너 럴",
      "디 어",
      "래 식",
      "러 피",
      "런 스",
      "레 스",
      "로 스트",
      "링 본",
      "먼 스",
      "밸 런스",
      "소 매",
      "쇼 핑",
      "슬 랙스",
      "신 상",
      "아 유",
      "안 감",
      "없 는",
      "이 브",
      "인 트",
      "잔 치",
      "지 \n",
      "추 가",
      "클 럽",
      "키 즈",
      "토 어",
      "트 레이닝",
      "티 브",
      "펜 터",
      "포 켓",
      "포 먼스",
      "플 리스",
      "하 트",
      "▁여성 용",
      "▁스 탠",
      "패딩 점퍼",
      "▁남성 \n",
      "팬티 \n",
      "▁라 인",
      "▁다운 \n",
      "▁겨울 잠옷",
      "▁후 아유",
      "▁S T",
      "▁트 라이",
      "▁트 렁크",
      "▁1 종",
      "▁1 +1",
      "▁구스다운 \n",
      "D4 V",
      "▁B A",
      "▁B V",
      "▁B C3",
      "▁플 러피",
      "▁T OP",
      "▁리 얼",
      "▁A A",
      "▁A 라인",
      "▁N J",
      "▁브라 \n",
      "C4 PP",
      "코트 \n",
      "234 1",
      "01 1",
      "▁니트 \n",
      "▁핸드메이드 코트",
      "▁5 매",
      "▁5 종",
      "41 71",
      "▁블 렌드",
      "▁L A",
      "▁노 카라",
      "▁Z 234PSG",
      "▁보 정",
      "▁경량 패딩",
      "▁케이 프",
      "▁카 키",
      "▁카 펜터",
      "▁스포츠 브라",
      "▁7 253",
      "▁로 고",
      "▁클 래식",
      "▁마 이",
      "▁헤 링본",
      "▁V OV",
      "▁디 키즈",
      "▁부 츠컷",
      "▁골 지",
      "▁상 의",
      "▁제 너럴",
      "▁NE P",
      "▁패 드",
      "58 4",
      "▁스커트 \n",
      "▁SA PD",
      "▁스웨 터",
      "▁71 53",
      "▁인 견",
      "▁레이 스",
      "▁레이 어드",
      "▁발열 내의",
      "▁91 7",
      "아이 디어",
      "▁TW W",
      "▁PHC4 JP",
      "▁워크 팬츠",
      "▁돌 잔치",
      "▁윈 터",
      "▁MI W",
      "▁TR Y",
      "▁T23 8",
      "▁국내 매장판",
      "▁코데즈컴바인 이너웨어",
      "▁크로커다일 레이디",
      "▁따 뜻",
      "▁치 노",
      "▁GMD BDU",
      "▁운 동",
      "▁TOP TEN",
      "▁제너럴 아이디어",
      ") \n",
      "0 6",
      "2 00",
      "2 71",
      "3 1",
      "4 5",
      "6 8",
      "6 0\n",
      "7 9",
      "7 1\n",
      "8 2",
      "9 0",
      "B \n",
      "B K",
      "D E",
      "D S",
      "D JP",
      "D 91",
      "E S",
      "H L",
      "I S",
      "J 지",
      "K H\n",
      "L 045",
      "N E",
      "O D",
      "O Y",
      "S K",
      "S DJP",
      "T S",
      "T C3",
      "W DW",
      "i g",
      "i s",
      "t or",
      "▁ c",
      "▁ s",
      "▁ 공",
      "▁ 군",
      "▁ 대",
      "▁ 덤",
      "▁ 배",
      "▁ 뱅",
      "▁ 벤",
      "▁ 쉐",
      "▁ 슈",
      "▁ 앤",
      "▁ 예",
      "▁ 위",
      "▁ 전",
      "▁ 쥬",
      "▁ 차",
      "▁ 초",
      "▁ 컬",
      "▁ 콜",
      "▁ 큰",
      "▁ 허",
      "▁ 헝",
      "▁ 그래픽",
      "▁ ab",
      "▁ 탈부착",
      "가 리",
      "고 ]",
      "고 트",
      "노 락",
      "대 여",
      "덕 다운",
      "데 님",
      "드 러",
      "드 지",
      "렉 스",
      "롱 패딩",
      "리 오",
      "브 릿",
      "서 포트",
      "셔 블",
      "스 \n",
      "스 판",
      "엑 스",
      "이 비",
      "이 플",
      "일 러",
      "제 작",
      "체 제작",
      "캉 스",
      "텍 스",
      "파 리",
      "파 자마",
      "폴 로",
      "23 61\n",
      "▁스 타",
      "▁스 테",
      "00 1",
      "▁트 랙",
      "▁트 리밍",
      "▁1 0",
      "▁1 37",
      "▁M A",
      "▁후드 집업",
      "D4 9",
      "D4 TR",
      "▁B C",
      "니트 \n",
      "▁리 오",
      "▁A 234",
      "▁N JP",
      "▁나 일",
      "▁2 0",
      "▁2 종",
      "속옷 \n",
      "▁반 목",
      "▁드 레스",
      "▁모 직",
      "▁프 렌치",
      "▁아 노락",
      "▁퍼 포먼스",
      "▁커 버",
      "▁면 팬티",
      "▁슬 립",
      "▁와이드 팬츠",
      "▁심리스 브라",
      "13 0\n",
      "99 \n",
      "99 00원",
      "▁F B",
      "▁미 쏘",
      "▁탑텐 밸런스",
      "▁J J지",
      "▁D D",
      "▁푸퍼 \n",
      "▁PHD4 TR",
      "▁PHD4 PT",
      "25 2",
      "25 10\n",
      "▁7 7",
      "▁바지 \n",
      "▁브 러",
      "▁클 라우",
      "▁마 인",
      "▁테 리",
      "▁하프 코트",
      "▁긴팔 티",
      "▁디 테",
      "▁양 털",
      "▁정 품",
      "▁8 8",
      "▁데님 팬츠",
      "▁홈웨어 \n",
      "▁상 하",
      "▁워 셔블",
      "▁제 로스트",
      "▁R DS",
      "▁실 내복",
      "▁타 이즈",
      "▁밍크 퍼",
      "▁에어 로",
      "▁에어 리",
      "▁MSC4 TC",
      "-00 1\n",
      "MD J",
      "▁방 한",
      "▁Y N4W",
      "▁하객 룩",
      "레이디 스",
      "▁빈폴 레이디스",
      "▁르 까프",
      "30 C",
      "38 C",
      "▁자 수",
      "▁자 체제작",
      "▁00 0",
      "한복 대여",
      "▁TWHCT N8",
      "▁신 혼",
      "▁투 피스",
      "▁AH 46",
      "▁양모 100",
      "UD IO",
      "▁요 일",
      "C4FP 13",
      "▁시그니 처",
      "▁시그니 쳐",
      "▁사가 폭스",
      "▁히트 텍",
      "▁IT N",
      "MB OY",
      "WOP MK",
      "▁37 39",
      "▁드라이 핏",
      "▁칼라거펠 트",
      "▁몽 클",
      "▁성 인",
      "▁컴 포트",
      "▁햄 라인",
      "당일 출",
      "▁TO MBOY",
      "▁스웨트 셔츠",
      "▁박 서",
      "▁쉘 파",
      "▁ST UDIO",
      "▁BC3 X",
      "▁7253 4171",
      "▁7153 41700",
      "▁따뜻 한",
      "is tor",
      "▁뱅 뱅",
      "▁슈 퍼",
      "▁앤 드지",
      "▁위 생",
      "▁헝 가리",
      "▁NJP 3W",
      "▁JJ지 고트",
      "▁클라우 드",
      "▁제로스트 릿",
      "▁AH46 0",
      "istor e",
      "- C",
      "- 01",
      "0 C",
      "1 5\n",
      "1 91",
      "2 color",
      "3 01",
      "3 41",
      "3 2\n",
      "4 4\n",
      "5 01",
      "6 9",
      "6 -00",
      "7 8",
      "7 7\n",
      "8 0\n",
      "9 1\n",
      "9 3\n",
      "9 -00",
      "A 4",
      "A JU",
      "B 41",
      "C \n",
      "C H",
      "C P",
      "D 5",
      "D J",
      "E T",
      "E U",
      "E AT",
      "H C",
      "H D",
      "H AM",
      "J H",
      "M OP",
      "N G",
      "N I",
      "P 4",
      "P WD",
      "R \n",
      "R L",
      "S H",
      "S Y",
      "T \n",
      "U \n",
      "U I",
      "U R",
      "U DW",
      "a c",
      "b y",
      "h istore",
      "o n",
      "o t",
      "o w",
      "w e",
      "▁ -",
      "▁ 간",
      "▁ 금",
      "▁ 김",
      "▁ 끈",
      "▁ 논",
      "▁ 동",
      "▁ 란",
      "▁ 샤",
      "▁ 셔",
      "▁ 솔",
      "▁ 쇼",
      "▁ 숨",
      "▁ 엘",
      "▁ 엠",
      "▁ 연",
      "▁ 외",
      "▁ 우",
      "▁ 임",
      "▁ 장",
      "▁ 잭",
      "▁ 짱",
      "▁ 착",
      "▁ 처",
      "▁ 콤",
      "▁ 쿠",
      "▁ 토",
      "▁ 튜",
      "▁ 펄",
      "▁ 핑",
      "▁ 항",
      "▁ 헌",
      "▁ 휴",
      "▁ 02",
      "▁ 사이즈",
      "▁ 99",
      "▁ OP",
      "▁ 07",
      "▁ histore",
      "계 절",
      "골 덴",
      "공 점퍼",
      "귤 러",
      "그 레이",
      "글 런",
      "깅 스",
      "너 스",
      "네 스",
      "네 통",
      "더 웨어",
      "데 몬",
      "도 희",
      "드 카라",
      "드 로즈",
      "드 브릿",
      "란 넬",
      "레 송",
      "롱 구스다운",
      "루 가",
      "리 \n",
      "리 드",
      "리 즈",
      "릭 터",
      "린 팅",
      "마 르",
      "마 스",
      "마 칸",
      "머 니",
      "모 도",
      "미 닌",
      "미 티드",
      "믹 스",
      "백 화",
      "베 이",
      "베 스트",
      "벤 트",
      "벨 티드",
      "비 비안",
      "삐 아",
      "산 부",
      "상 봉",
      "스 티",
      "스 커트",
      "스 토어",
      "아 머",
      "아 일랜드",
      "액 티브",
      "양 지",
      "언 더웨어",
      "여 행",
      "여 공용",
      "이 보",
      "이 크",
      "인 하",
      "임 스",
      "절 기",
      "제 리",
      "즘 \n",
      "지 피",
      "진 가슴",
      "처 블",
      "촬 영",
      "최 신상",
      "커 루",
      "코 튼",
      "퀘 어",
      "터 치",
      "트 로이",
      "트 리밍",
      "티 지",
      "품 \n",
      "프 트",
      "필 드",
      "힐 즈",
      "▁남 여공용",
      "23 \n",
      "▁스 웻",
      "패딩 \n",
      "▁코 모도",
      "00 1\n",
      "▁롱 구스",
      "▁기 장",
      "▁기 획",
      "리스 마스",
      "▁남자 반",
      "▁라 펠",
      "▁라 삐아",
      "▁기모 바지",
      "▁기모 안감",
      "▁다운 패딩",
      "▁다운 점퍼",
      "▁S H",
      "▁S MI",
      "▁S SGJP",
      "▁S SDJP",
      "▁1 1",
      "▁1 9",
      "자켓 \n",
      "▁C \n",
      "▁C 234PSG",
      "▁C OL",
      "▁C LA",
      "▁3 2",
      "▁3 M",
      "▁3 매",
      "▁3 팩",
      "▁M EN",
      "▁플 라워",
      "▁플 란넬",
      "▁T SGJP",
      "▁P R",
      "▁P OL",
      "▁P 33",
      "▁A B",
      "▁A S",
      "▁N B",
      "▁N 234",
      "▁지 지피",
      "▁나 인",
      "▁빅 카라",
      "▁2 4",
      "▁2 8",
      "▁2 컬러",
      "▁크 레송",
      "▁크 리스마스",
      "▁더 아이",
      "속옷 세트",
      "▁5 584",
      "▁5 68",
      "▁파 격",
      "▁울 100",
      "▁원피스 잠옷",
      "JP D4",
      "▁캐 릭터",
      "▁모 던",
      "▁블 라우",
      "▁수 트",
      "▁프 린팅",
      "▁아 이보",
      "▁퍼 카라",
      "▁베 네통",
      "맨투맨 \n",
      "▁면 스판",
      "▁시 크",
      "▁시 리즈",
      "▁푸 파",
      "▁하이 스토어",
      "▁여자 슬랙스",
      "▁E WOPMK",
      "▁팬티 \n",
      "▁맨투맨 \n",
      "▁보 온",
      "▁케 네스",
      "▁가디건 \n",
      "▁더블 니",
      "▁더블 버튼",
      "▁커플 파자마",
      "13 01\n",
      "▁스트 라이",
      "▁사 파리",
      "▁사 계절",
      "99 2",
      "▁F IT",
      "▁F UR",
      "▁미 드",
      "▁카 멜",
      "▁풀 세트\n",
      "▁J 2",
      "▁J AJU",
      "▁긴 바지",
      "▁이 벤트",
      "▁이 상봉",
      "▁티셔츠 \n",
      "11 04\n",
      "▁D Q",
      "▁D 234PSG",
      "▁루 앤",
      "▁PHD4 PP",
      "25 20\n",
      "▁ZO C4FP13",
      "▁노와이어 브라",
      "▁H Z",
      "▁비 버리",
      "▁칼 하트",
      "▁헤 론",
      "▁언더 아머",
      "▁남녀공용 \n",
      "▁V 넥",
      "▁V 234PSG",
      "▁[ 한복대여",
      "▁누 디",
      "▁디 트로이",
      "29 02\n",
      "▁I N",
      "TR 39",
      "▁O H",
      "▁레 더",
      "▁레 귤러",
      "▁맥 코트",
      "▁타 루가",
      "▁패 치",
      "▁패 턴",
      "05 0\n",
      "▁발 마칸",
      "▁청바지 \n",
      "3W CM",
      "N4 D91",
      "▁( 국내",
      "▁6 종",
      "▁Y P",
      "▁도 도희",
      "▁써 마",
      "▁포 인트",
      "구스다운 \n",
      "36 2",
      "3X H",
      "3X 30C",
      "BD O",
      "▁르 샵",
      "▁71 2341",
      "MA R",
      "▁메 이플",
      "▁바 캉스",
      "▁셋업 \n",
      "한복 ]",
      "▁블루 핏",
      "▁미디 엄",
      "▁91 03",
      "▁BF 3X30C",
      "▁테이퍼드 핏",
      "▁고 급",
      "▁단 체",
      "▁목 폴라",
      "▁버 버리",
      "▁버 커루",
      "▁여성팬티 \n",
      "▁SP JPD4",
      "▁SWHCT M4",
      "▁SWHCT M41",
      "224 PSG",
      "IN E",
      "JD D4V",
      "▁SZ A",
      "▁SZ BDO",
      "▁아웃 포켓",
      "▁L234PSG 04",
      "▁GN RL",
      "▁칼라거펠 드",
      "▁선물 \n",
      "202 0\n",
      "M4 2510\n",
      "▁걸 스",
      "▁걸 즈",
      "▁웨 딩",
      "▁혼 주",
      "▁흰 티",
      "만원 인하",
      "▁폴라 티",
      "▁53N \n",
      "▁MSD4 TC",
      "▁WB C3",
      "▁다이아 퀼팅",
      "▁TWHCTM8 00",
      "▁헬 스",
      "가지 기장",
      "▁여성용 \n",
      "▁스탠 드카라",
      "▁BV 26",
      "▁AA B4",
      "▁NJ W3WH",
      "▁마이 데몬",
      "▁917 341",
      "▁T238 MDJ",
      "TC3 91",
      "WDW 1",
      "▁공 주",
      "▁덤 블",
      "▁배 색",
      "▁쥬 크",
      "▁콜 마르",
      "▁스테 이",
      "▁리오 벨",
      "▁A234 PWD",
      "▁나일 론",
      "▁커버 낫",
      "▁FB 7",
      "▁마인 드브릿",
      "▁YN4W 58",
      "▁몽클 레어",
      "당일출 고]",
      "▁BC3X 38C",
      "▁AH460 E-53N",
      "ac k",
      "▁간 절기",
      "▁동 물",
      "▁란 제리",
      "▁솔 리드",
      "▁임 산부",
      "▁잭 필드",
      "▁짱 구",
      "▁처 진가슴",
      "▁콤 비",
      "▁튜 브",
      "▁핑 크",
      "▁항 공점퍼",
      "▁휴 양지",
      "백화 점",
      "▁라삐아 프",
      "▁SMI \n",
      "▁COL MAR",
      "▁POL HAM",
      "▁지지피 엑스",
      "▁더아이 잗",
      "▁5584 9-00",
      "▁하이스토어 \n",
      "▁케네스 레이디",
      "▁스트라이 프",
      "▁이벤트 속옷",
      "▁비버리 힐즈",
      "▁디트로이 트",
      "▁메이플 라워",
      "▁마인드브릿 지",
      "- 1",
      "- UP",
      "/ 20",
      "0 P",
      "0 수",
      "0 71",
      "0 CT",
      "0 9\n",
      "0 JK",
      "0 90",
      "0 /20",
      "1 2",
      "1 D",
      "1 2\n",
      "1 4\n",
      "1 99",
      "1 20",
      "1 00\n",
      "2 5\n",
      "2 01",
      "2 010\n",
      "3 D",
      "3 23",
      "3 1\n",
      "3 91",
      "3 71",
      "3 001\n",
      "4 8",
      "4 1\n",
      "4 01",
      "4 8\n",
      "4 UDW",
      "5 1\n",
      "5 5\n",
      "5 10\n",
      "5 50",
      "5 28",
      "6 1",
      "6 2",
      "6 5",
      "6 5\n",
      "6 6\n",
      "6 36",
      "6 6-00",
      "7 7",
      "7 02",
      "7 2\n",
      "8 8",
      "8 1\n",
      "8 5\n",
      "8 2\n",
      "8 00\n",
      "8 30\n",
      "8 0/20",
      "9 Z",
      "9 5\n",
      "9 8\n",
      "9 00\n",
      "9 20\n",
      "9 W\n",
      "9 40\n",
      "9 74",
      "A 5",
      "A L",
      "A O",
      "B G",
      "B L",
      "B P",
      "B R",
      "B 02\n",
      "B E\n",
      "B 2361\n",
      "C 9",
      "C A",
      "C Y",
      "C 컵",
      "C OL",
      "D 컵",
      "D AN",
      "E C",
      "E L",
      "E 컵",
      "E AN",
      "E 53N",
      "E 26",
      "E CK",
      "F S",
      "G 8",
      "H T",
      "H C3",
      "H ECK",
      "I OR",
      "I DE",
      "J L",
      "J CT",
      "K \n",
      "K -",
      "K A",
      "K R",
      "K S",
      "L 05",
      "M \n",
      "M S",
      "M W",
      "M JP",
      "M AN",
      "M C4FP",
      "M 93",
      "O N",
      "O IS",
      "O OD",
      "O MAN",
      "P OL",
      "P D4V",
      "S L",
      "S W",
      "T G",
      "T W",
      "T ER",
      "U T",
      "U JK",
      "V \n",
      "V P",
      "V T",
      "W 21",
      "W EAT",
      "X O",
      "X XO",
      "Y D4TR",
      "Y E26",
      "a f",
      "a k",
      "a m",
      "a y",
      "b ar",
      "c af",
      "d i",
      "d er",
      "d ay",
      "e l",
      "e n",
      "e t",
      "e w",
      "e caf",
      "f w",
      "h ur",
      "i l",
      "i v",
      "i es",
      "l u",
      "l an",
      "n der",
      "o o",
      "p ack",
      "s day",
      "s lan",
      "v er",
      "▁ a",
      "▁ f",
      "▁ n",
      "▁ z",
      "▁ 감",
      "▁ 강",
      "▁ 거",
      "▁ 곰",
      "▁ 구",
      "▁ 까",
      "▁ 깔",
      "▁ 꽃",
      "▁ 날",
      "▁ 넥",
      "▁ 니",
      "▁ 래",
      "▁ 랩",
      "▁ 릴",
      "▁ 막",
      "▁ 머",
      "▁ 물",
      "▁ 민",
      "▁ 뽕",
      "▁ 산",
      "▁ 삼",
      "▁ 샘",
      "▁ 생",
      "▁ 섹",
      "▁ 숄",
      "▁ 안",
      "▁ 얇",
      "▁ 왕",
      "▁ 웰",
      "▁ 융",
      "▁ 좋",
      "▁ 짐",
      "▁ 집",
      "▁ 총",
      "▁ 통",
      "▁ 판",
      "▁ 퓨",
      "▁ 핀",
      "▁ 할",
      "▁ 핫",
      "▁ 와이",
      "▁ 배기",
      "▁ 톰보이",
      "▁ 매장판",
      "▁ 당일",
      "▁ es",
      "▁ 안감",
      "▁ 서포트",
      "▁ ot",
      "▁ 믹스",
      "개 \n",
      "객 룩",
      "견 례",
      "구 로",
      "국 백화점",
      "그 린",
      "글 란",
      "기 업",
      "깔 이",
      "끼 털",
      "나 모",
      "나 이",
      "네 이비",
      "니 우",
      "다 이아",
      "담 곰",
      "더 브라",
      "도 라",
      "도 마",
      "도 우",
      "디 드",
      "디 움",
      "라 벨",
      "라 스",
      "라 왕",
      "라 클",
      "라 이즈",
      "레 르",
      "렉 션",
      "렌 디드",
      "로 미",
      "로 배",
      "로 아",
      "로 우",
      "롬 마",
      "루 젠",
      "룩 \n",
      "르 디",
      "르 이너웨어",
      "리 슨",
      "리 아",
      "리 야",
      "리 프",
      "링 클",
      "마 니",
      "모 피",
      "목 티",
      "무 늬",
      "무 스탕",
      "미 국백화점",
      "민 기업",
      "바 로배",
      "방 지",
      "밴 드",
      "복 \n",
      "부 부",
      "부 츠컷",
      "블 루",
      "상 품",
      "선 택",
      "성 민기업",
      "쇄 \n",
      "숏 코트",
      "쉬 는",
      "쉬 드",
      "쉬 테",
      "슐 레이트",
      "스 루",
      "스 텀",
      "스 텔",
      "스 페",
      "스 포츠",
      "스 튜디오",
      "시 드",
      "아 로",
      "아 디다스",
      "어 스",
      "어 디션",
      "에 어",
      "여 성",
      "여 우",
      "예 인",
      "오 트",
      "외 여행",
      "우 드",
      "이 더",
      "이 프",
      "일 즈",
      "자 수",
      "자 크",
      "장 세트",
      "제 임스",
      "조 끼",
      "조 이",
      "존 02",
      "주 얼",
      "즈 노",
      "지 스",
      "지 웨어",
      "진 한복]",
      "체 형",
      "쳐 블",
      "츠 미",
      "치 온",
      "컵 C컵",
      "켄 지",
      "코 듀로이",
      "클 로",
      "키 지",
      "타 이즈",
      "탄 력",
      "탄 브라",
      "택 \n",
      "터 링",
      "터 네이비",
      "토 우",
      "투 시",
      "투 아",
      "트 넥",
      "트 위드",
      "티 셔츠",
      "틱 아일랜드",
      "퍼 블",
      "페 인",
      "포 리오",
      "플 레어",
      "하 객룩",
      "해 은",
      "혼 방",
      "다운 \n",
      "▁여성 면",
      "▁여성 잠옷",
      "▁여성 패딩\n",
      "▁스 토어",
      "▁스 투시",
      "▁스 페인",
      "00 0",
      "00 29",
      "00 10\n",
      "▁남성 용",
      "▁남성 팬티",
      "▁남성 속옷",
      "▁남성 드로즈",
      "▁롱 원피스",
      "▁롱 스커트",
      "리스 토우",
      "팬츠 \n",
      "▁패딩 \n",
      "▁남자 겨울",
      "▁남자 니트",
      "▁남자 맨투맨\n",
      "▁라 벨",
      "▁라 이브",
      "▁라 도마",
      "▁기모 셋업",
      "▁하 고",
      "▁하 찌",
      "▁하 성민기업",
      "▁겨울 \n",
      "▁S PP",
      "▁S ET",
      "▁S WEAT",
      "▁S il",
      "▁트 레",
      "▁트 임",
      "▁트 루젠",
      "레이 크",
      "레이 텍스",
      "▁1 2",
      "▁1 팩",
      "▁1 00",
      "▁1 02",
      "▁1 11",
      "▁1 03",
      "▁1 만원인하",
      "▁23FW \n",
      "▁23FW 최신상",
      "▁벨 벳",
      "▁벨 로아",
      "▁C 234",
      "▁C LB",
      "▁C HECK",
      "▁3 장",
      "▁3 37",
      "▁3 가지기장",
      "▁숏 푸",
      "▁M X",
      "▁M LB",
      "D4 ER",
      "D4 FP",
      "▁B K",
      "▁B N",
      "▁B 3W",
      "▁B EAN",
      "▁플 랩",
      "▁플 라스",
      "▁플 레이텍스",
      "▁T 21",
      "▁T ab",
      "▁T hur",
      "▁가 족",
      "▁P Q",
      "▁P 34",
      "▁P P4",
      "▁리 본",
      "▁리 브",
      "▁리 펠",
      "▁리 미티드",
      "▁리 진한복]",
      "▁에 잇",
      "▁폭스 후드",
      "▁폭스 클럽",
      "▁A F",
      "▁A 36",
      "02 0\n",
      "▁N N",
      "▁N V",
      "▁N 21",
      "▁지 스튜디오",
      "▁브라 캡",
      "핸드 메이드",
      "C4 CP",
      "▁2 1",
      "▁2 2",
      "▁2 9",
      "▁2 02",
      "▁더 플",
      "▁니트 카라",
      "와이드 팬츠",
      "▁5 +",
      "▁5 01",
      "▁5 만원",
      "▁오 르",
      "▁오 프",
      "▁오 픈",
      "▁오 아로",
      "▁오 조이",
      "▁파 카",
      "▁파 스텔",
      "▁반 후드",
      "▁반 폴라",
      "▁울 50",
      "▁울 혼방",
      "JP 2902\n",
      "▁캐 주얼",
      "▁폭스퍼 후드",
      "▁폭스퍼 트리밍",
      "▁모 임",
      "▁블 프",
      "▁프 롬마",
      "▁아 미",
      "▁아 리스토우",
      "▁퍼 프",
      "▁베 아",
      "▁L B41",
      "▁L ecaf",
      "▁커 스텀",
      "▁Z R",
      "▁Z 234MSG",
      "▁Z MC4FP",
      "▁면 티",
      "▁면 바지",
      "▁면 티\n",
      "▁시 즌",
      "▁시 나모",
      "▁시 스루",
      "▁와이드 핏",
      "▁G EN",
      "▁G -C",
      "▁G 80/20",
      "▁G IOR",
      "▁여자 속옷세트",
      "53 5\n",
      "▁E 224PSG",
      "▁E YD4TR",
      "▁PH D5",
      "▁보 아",
      "▁심 플",
      "13 61\n",
      "CT C",
      "▁카라 넥",
      "▁라운 지웨어",
      "▁세 이브",
      "▁세 인트",
      "▁스트 릿",
      "▁스트 링",
      "▁드로즈 \n",
      "22 9",
      "22 0\n",
      "22 417",
      "▁미 라클",
      "▁미 즈노",
      "▁카 치온",
      "▁풀 집",
      "▁풀 컵",
      "▁풀 스킨",
      "▁잠옷 \n",
      "▁잠옷 바지",
      "▁이 츠미",
      "▁언 스",
      "11 0\n",
      "11 02\n",
      "11 03\n",
      "▁D 톤",
      "▁D ow",
      "▁PHD4 TC",
      "▁케이블 니트",
      "▁7 부",
      "▁7 종",
      "▁7 252",
      "▁씨 빅",
      "▁씨 티지",
      "▁홈 쇼핑",
      "20 40\n",
      "▁4 종",
      "▁4 컬러\n",
      "▁로 렌",
      "▁로 보",
      "▁로 브",
      "▁브 레",
      "▁H 라인",
      "▁H OOD",
      "▁마 리",
      "▁비 너스",
      "▁테 일러",
      "▁헤 지스",
      "▁밴딩 슬랙스",
      "라이 크",
      "▁하프 집업",
      "▁오버핏 \n",
      "▁[ 도",
      "▁[ 당일출고]",
      "▁[ 미국백화점",
      "▁디 자",
      "▁부 드러",
      "▁쉬 폰",
      "▁피 크",
      "▁피 쉬테",
      "▁가을 \n",
      "▁8 74",
      "▁8 9900원",
      "▁8 528",
      "▁W IN",
      "▁W OMAN",
      "26 0\n",
      "29 08\n",
      "▁I slan",
      "▁골 드",
      "▁상 견례",
      "▁워 머",
      "▁일 본",
      "▁제 작",
      "▁블랙 진",
      "19 01",
      "19 65\n",
      "▁O n",
      "▁O DV",
      "▁R O",
      "▁레 깅스",
      "▁레 터링",
      "▁야 한",
      "▁모달 팬티",
      "▁무지 티",
      "▁MSC4 UI",
      "▁MSC4 TC391",
      "▁칼라 리스",
      "100 1\n",
      "MD R",
      "▁방 수",
      "▁SA CTC",
      "▁프리 컷",
      "24 01\n",
      "ER AL",
      "▁( 2color",
      "▁6 9",
      "▁Y N4D91",
      "▁도 씨",
      "지오 지아",
      "▁수면잠옷 \n",
      "▁비비안 스킨",
      "▁정장 원피스",
      "▁프로젝트 M",
      "3X M",
      "JK D49",
      "er ies",
      "▁다 크",
      "▁르 오트",
      "▁르 투아",
      "▁71 22417",
      "▁이너 웨어",
      "34 1\n",
      "3WH 830\n",
      "N8 2520\n",
      "N8 2020\n",
      "▁메 리야",
      "▁바 디",
      "▁바 바",
      "▁인 조",
      "▁인 쇄\n",
      "▁00 501",
      "웨스트 우드",
      "▁CK 언더웨어",
      "▁브라탑 \n",
      "▁사각 팬티",
      "18 0\n",
      "51 0",
      "▁신 부",
      "▁신 구로",
      "폴라 니트",
      "▁롱패딩 \n",
      "▁BF 3",
      "▁TW WOP",
      "▁AH 6",
      "▁오리 털",
      "▁무스탕 \n",
      "▁아우터 \n",
      "07 0\n",
      "15 5\n",
      "16 6\n",
      "16 E-53N",
      "ab le",
      "▁9 00원",
      "▁고 탄력",
      "▁단 추",
      "▁단 품\n",
      "▁런 칭",
      "▁목 티",
      "▁요 가",
      "▁요 크",
      "▁텐 션",
      "▁SP AO",
      "▁15 702",
      "224 MSG",
      "▁IT MA",
      "▁IT MB",
      "▁워크 퀘어",
      "54 3",
      "DV 11",
      "W3WH 4",
      "▁네 모",
      "▁네 이비",
      "▁소 량",
      "▁소 매",
      "▁소 프트",
      "▁윈 드러",
      "▁롱코트 \n",
      "▁C234MSG 51",
      "▁MI XXO",
      "▁TR OIS",
      "▁T23 6",
      "▁AE C4",
      "▁GN B",
      "▁PHD4JP 24",
      "▁EPD4 PP",
      "▁EPD4 JD",
      "▁EPD4 JJ",
      "▁히든 밴딩",
      "▁키작녀 \n",
      "▁키작녀 바지\n",
      "▁유니 클로",
      "291 1\n",
      "291 2\n",
      "at ur",
      "▁U 넥",
      "▁U NI",
      "▁U nder",
      "▁성 해은",
      "▁어 깨",
      "▁어 니우",
      "▁웨 일즈",
      "▁주 름",
      "▁주 문",
      "▁페 더",
      "▁페 미닌",
      "▁페 이크",
      "▁해 비",
      "▁해 리슨",
      "▁해 외여행",
      "▁햄 팬티",
      "▁혼 방",
      "▁흰 색",
      "▁스킨 핏",
      "▁CC W",
      "▁CC 콜렉트",
      "▁BH 584",
      "▁폴라 플리스",
      "▁WB C4",
      "▁RM JDD4V",
      "▁RM JL",
      "▁RM JKD49",
      "▁도톰 한",
      "▁TWHCTM8 01",
      "▁LE121 54",
      "▁결혼식 하객룩",
      "241 19",
      "AR A",
      "▁등 산",
      "▁원 버튼",
      "▁원 더브라",
      "추가 )",
      "트레이닝 복",
      "▁스탠 카라",
      "▁라인 어디션",
      "▁BA PD",
      "▁플러피 플리스",
      "C4PP 13",
      "C4PP 11",
      "▁LA INE",
      "▁Z234PSG 3",
      "▁Z234PSG 18",
      "▁NEP 3XH",
      "▁스웨터 \n",
      "▁917 24119",
      "▁TWW SL",
      "▁PHC4JP 3",
      "▁PHC4JP 22",
      "▁돌잔치 엄마",
      "▁MIW JH",
      "▁치노 팬츠",
      "▁GMDBDU 9",
      "▁GMDBDU 992",
      "200 2\n",
      "31 K",
      "ES T",
      "▁s eries",
      "▁군 인",
      "▁대 체",
      "▁벤 치",
      "▁쉐 도우",
      "▁예 뻐",
      "▁전 략",
      "▁차 콜",
      "▁초 경",
      "▁컬 링",
      "▁큰 컵",
      "▁허 리",
      "▁허 벅",
      "폴로 클럽",
      "▁스타 일",
      "▁스타 디움",
      "▁137 98",
      "▁MA 1",
      "▁MA -1",
      "▁BC BG",
      "▁20 23",
      "▁2종 세트\n",
      "▁PHD4PT 2401\n",
      "▁브러 시드",
      "▁디테 처블",
      "▁디테 쳐블",
      "▁정품 100",
      "▁88 사이즈",
      "▁에어로 쿨",
      "▁에어리 즘\n",
      "▁000 원",
      "▁신혼 부부",
      "▁투피스 세트",
      "▁ITN 9Z",
      "▁ITN CY",
      "▁컴포트 핏",
      "▁위생 팬티",
      "▁헝가리 구스다운\n",
      "▁NJP3W M93",
      "▁클라우드 패딩",
      "301 W\n",
      "A4 341\n",
      "EU 1104\n",
      "by 비비안",
      "we ar",
      "▁금 장",
      "▁논 퀼팅",
      "▁셔 링",
      "▁쇼 트",
      "▁숨 쉬는",
      "▁엘 르이너웨어",
      "▁엠 포리오",
      "▁연 예인",
      "▁장 기모",
      "▁착 장",
      "▁쿠 로미",
      "▁헌 터네이비",
      "▁07 39",
      "베이 직",
      "▁스웻 팬츠",
      "▁기장 선택",
      "▁남자반 폴라니트",
      "▁SSGJP M42510\n",
      "▁SSDJP M41",
      "▁19 39",
      "▁C234PSG 18",
      "▁CLA WDW1",
      "▁32 YE26",
      "▁PR JCT",
      "▁AS JU",
      "▁28 974",
      "▁파격 초",
      "▁블라우 스\n",
      "▁아이보 리\n",
      "▁J2 2341",
      "▁이상봉 에디션",
      "▁D234PSG 27",
      "▁PHD4PP 20",
      "▁ZOC4FP13 06\n",
      "TR39 00\n",
      "▁OH 3WCM",
      "▁레귤러 핏",
      "▁YP 3WH830\n",
      "362 SK",
      "▁712341 7",
      "▁9103 41",
      "▁단체 티",
      "▁SPJPD4 TG",
      "▁SWHCTM4 20",
      "▁SZBDO 32\n",
      "▁웨딩 촬영",
      "▁WBC3 L045",
      "▁AAB4 S",
      "▁A234PWD A",
      "▁FB7 54",
      "▁YN4W58 7",
      "▁비버리힐즈 폴로클럽",
      "636 1\n",
      "D컵 E컵",
      "DAN O",
      "IDE A",
      "POL E",
      "PD4V U",
      "iv e",
      "lu s",
      "▁감 탄브라",
      "▁깔 깔이",
      "▁꽃 무늬",
      "▁래 글런",
      "▁릴 렉스",
      "▁막 스",
      "▁민 소매",
      "▁뽕 브라",
      "▁산 리오",
      "▁샘 방지",
      "▁생 리",
      "▁섹 시",
      "▁얇 은",
      "▁왕 뽕",
      "▁웰 론",
      "▁짐 웨어",
      "▁판 도라",
      "▁핀 턱",
      "▁할 머니",
      "▁핫 멜",
      "▁와이 셔츠",
      "▁매장판 )",
      "나이 키",
      "바로배 송",
      "▁라이브 쇼핑",
      "▁SPP PD4VU",
      "▁SET -UP",
      "▁Sil ver",
      "▁102 02",
      "▁BEAN POLE",
      "▁플라스 틱아일랜드",
      "▁T21 8",
      "▁Thur sday",
      "▁A36 66-00",
      "▁N21 4UDW",
      "▁프롬마 치",
      "▁LB41 HC",
      "▁시나모 롤",
      "▁GEN ERAL",
      "▁G-C UT",
      "▁GIOR DANO",
      "▁E224PSG 18",
      "▁PHD5 TR3900\n",
      "▁세이브 존02",
      "▁세인트 제임스",
      "▁Dow n",
      "▁PHD4TC 29",
      "▁HOOD I",
      "▁테일러 드",
      "▁[미국백화점 ]",
      "▁부드러 운",
      "▁피쉬테 일",
      "▁8528 3\n",
      "▁WIN TER",
      "▁Islan d",
      "▁MSC4TC391 2\n",
      "▁(2color )\n",
      "▁비비안스킨 핏",
      "▁신구로 점",
      "▁윈드러 너",
      "▁Under wear",
      "▁어니우 니",
      "▁BH584 E-53N",
      "▁RMJDD4V R",
      "▁RMJL D4TR",
      "▁RMJKD49 R",
      "▁MIWJH DV11",
      "▁헌터네이비 XL",
      "▁판도라 by비비안",
      "▁GENERAL IDEA"
    ]
  }
}